<unk>	0
<s>	0
</s>	0
▁t	-0
he	-1
▁a	-2
in	-3
▁w	-4
▁s	-5
▁the	-6
▁o	-7
re	-8
▁h	-9
ou	-10
nd	-11
er	-12
▁b	-13
ed	-14
at	-15
it	-16
▁m	-17
▁f	-18
is	-19
ing	-20
▁c	-21
▁to	-22
en	-23
on	-24
▁he	-25
▁d	-26
▁of	-27
▁and	-28
as	-29
▁th	-30
or	-31
ar	-32
ll	-33
▁l	-34
an	-35
▁p	-36
es	-37
▁in	-38
▁I	-39
▁n	-40
ad	-41
om	-42
▁g	-43
▁be	-44
ot	-45
le	-46
▁was	-47
ow	-48
▁y	-49
ut	-50
im	-51
▁e	-52
ld	-53
id	-54
ly	-55
ve	-56
ic	-57
▁you	-58
▁that	-59
gh	-60
▁on	-61
st	-62
se	-63
▁it	-64
▁wh	-65
▁T	-66
▁his	-67
et	-68
ay	-69
ent	-70
▁re	-71
ver	-72
ith	-73
ac	-74
▁u	-75
al	-76
▁her	-77
▁with	-78
▁had	-79
▁st	-80
ir	-81
▁for	-82
▁H	-83
ion	-84
▁as	-85
▁ha	-86
ght	-87
▁r	-88
▁not	-89
ur	-90
▁A	-91
▁we	-92
ould	-93
oo	-94
▁him	-95
▁S	-96
▁at	-97
▁an	-98
▁M	-99
▁The	-100
am	-101
ce	-102
her	-103
ke	-104
▁she	-105
ch	-106
if	-107
▁se	-108
▁sa	-109
▁me	-110
ter	-111
ill	-112
▁sh	-113
ight	-114
▁B	-115
▁W	-116
ain	-117
red	-118
ro	-119
▁is	-120
▁fr	-121
all	-122
▁so	-123
il	-124
▁k	-125
ess	-126
▁He	-127
ore	-128
▁su	-129
ome	-130
pp	-131
▁all	-132
▁de	-133
▁but	-134
▁have	-135
ct	-136
ri	-137
▁said	-138
▁do	-139
▁my	-140
▁C	-141
ard	-142
▁ne	-143
ant	-144
out	-145
▁up	-146
▁were	-147
ag	-148
▁li	-149
and	-150
▁they	-151
▁whe	-152
us	-153
▁from	-154
ul	-155
▁fe	-156
qu	-157
pe	-158
▁by	-159
ab	-160
ie	-161
ust	-162
▁kn	-163
▁would	-164
▁con	-165
▁D	-166
hing	-167
ked	-168
ich	-169
very	-170
▁P	-171
ous	-172
▁out	-173
▁ab	-174
▁'	-175
▁ex	-176
ist	-177
▁ch	-178
▁them	-179
ind	-180
▁this	-181
sel	-182
art	-183
▁or	-184
em	-185
▁al	-186
ss	-187
▁who	-188
ry	-189
▁one	-190
▁no	-191
▁v	-192
king	-193
▁which	-194
un	-195
▁int	-196
one	-197
ame	-198
ast	-199
est	-200
▁F	-201
ood	-202
ers	-203
▁wor	-204
ound	-205
▁N	-206
our	-207
▁go	-208
▁man	-209
▁G	-210
▁le	-211
ong	-212
▁there	-213
▁L	-214
▁could	-215
ol	-216
ough	-217
ack	-218
ation	-219
▁j	-220
▁Y	-221
self	-222
▁been	-223
ate	-224
own	-225
ell	-226
ap	-227
um	-228
▁It	-229
▁loo	-230
itt	-231
hed	-232
▁ag	-233
▁R	-234
▁O	-235
nt	-236
au	-237
ort	-238
▁what	-239
ven	-240
ig	-241
el	-242
▁com	-243
op	-244
▁did	-245
▁are	-246
▁their	-247
▁when	-248
ace	-249
▁any	-250
ide	-251
▁if	-252
▁like	-253
▁E	-254
▁ar	-255
▁your	-256
▁ro	-257
ive	-258
ure	-259
ra	-260
..	-261
▁about	-262
ost	-263
▁But	-264
▁She	-265
os	-266
way	-267
▁tim	-268
▁into	-269
▁more	-270
ther	-271
ck	-272
ake	-273
▁know	-274
▁un	-275
ep	-276
ge	-277
▁af	-278
▁pl	-279
ought	-280
▁J	-281
▁qu	-282
are	-283
hat	-284
▁sp	-285
▁some	-286
ice	-287
ity	-288
ak	-289
▁tr	-290
▁br	-291
nder	-292
▁will	-293
▁cl	-294
urn	-295
▁can	-296
▁too	-297
od	-298
ass	-299
▁now	-300
reat	-301
other	-302
▁see	-303
ved	-304
▁hand	-305
▁pre	-306
▁tw	-307
th	-308
ine	-309
▁over	-310
▁time	-311
▁bl	-312
▁say	-313
ose	-314
▁gr	-315
pt	-316
▁again	-317
ite	-318
▁very	-319
▁And	-320
▁Mr	-321
ered	-322
▁You	-323
able	-324
ally	-325
▁po	-326
▁then	-327
▁than	-328
▁other	-329
▁am	-330
▁pr	-331
▁us	-332
ade	-333
ink	-334
▁pro	-335
▁down	-336
ove	-337
ittle	-338
▁off	-339
▁only	-340
▁im	-341
ble	-342
wn	-343
ear	-344
▁en	-345
▁day	-346
▁ey	-347
▁sm	-348
▁back	-349
ance	-350
▁little	-351
▁fl	-352
ving	-353
fore	-354
ish	-355
ious	-356
▁thought	-357
ond	-358
▁dis	-359
ect	-360
ies	-361
ile	-362
ather	-363
ud	-364
ire	-365
ence	-366
pl	-367
▁every	-368
ff	-369
ick	-370
▁pe	-371
▁after	-372
ress	-373
ang	-374
▁ad	-375
ree	-376
▁even	-377
▁before	-378
ife	-379
ull	-380
ward	-381
▁should	-382
▁ac	-383
ings	-384
▁how	-385
▁long	-386
age	-387
▁under	-388
led	-389
▁never	-390
▁thr	-391
▁way	-392
uch	-393
▁himself	-394
oy	-395
ert	-396
▁just	-397
▁old	-398
▁eyes	-399
▁They	-400
▁want	-401
ness	-402
▁made	-403
▁two	-404
ue	-405
▁get	-406
▁good	-407
ied	-408
▁bec	-409
ng	-410
ment	-411
ild	-412
▁co	-413
ave	-414
▁come	-415
▁think	-416
ried	-417
ated	-418
▁went	-419
▁sc	-420
▁much	-421
▁fir	-422
act	-423
▁came	-424
ks	-425
te	-426
ip	-427
ount	-428
▁str	-429
▁Th	-430
ary	-431
▁seem	-432
ft	-433
orn	-434
▁must	-435
omet	-436
▁rem	-437
ful	-438
▁beg	-439
▁gl	-440
▁don	-441
▁head	-442
▁bet	-443
▁has	-444
▁per	-445
ves	-446
air	-447
▁turn	-448
thing	-449
▁here	-450
iss	-451
▁spe	-452
per	-453
▁away	-454
ach	-455
▁app	-456
▁first	-457
▁Ch	-458
▁great	-459
▁let	-460
ere	-461
ened	-462
▁What	-463
ouse	-464
▁room	-465
▁K	-466
arry	-467
▁sl	-468
ty	-469
▁face	-470
ons	-471
ady	-472
▁looked	-473
▁There	-474
▁somet	-475
ne	-476
▁where	-477
▁own	-478
▁des	-479
ions	-480
ause	-481
iz	-482
▁V	-483
▁such	-484
ily	-485
▁our	-486
ov	-487
anc	-488
▁still	-489
ew	-490
▁ho	-491
▁through	-492
▁going	-493
▁cr	-494
ting	-495
ople	-496
▁might	-497
hen	-498
▁cont	-499
,'	-500
▁part	-501
▁without	-502
ark	-503
▁well	-504
ord	-505
ath	-506
ber	-507
▁its	-508
▁In	-509
ted	-510
▁fo	-511
ise	-512
aking	-513
▁got	-514
▁ke	-515
ared	-516
▁life	-517
▁We	-518
▁imp	-519
▁nothing	-520
iff	-521
▁pass	-522
▁right	-523
▁op	-524
ince	-525
▁people	-526
▁sw	-527
▁make	-528
cl	-529
▁word	-530
▁though	-531
▁res	-532
▁happ	-533
▁comp	-534
▁upon	-535
lt	-536
▁last	-537
ign	-538
▁tell	-539
▁wat	-540
▁wr	-541
▁feel	-542
▁house	-543
▁lo	-544
▁door	-545
av	-546
▁tal	-547
▁wom	-548
▁night	-549
▁Wh	-550
ans	-551
▁seemed	-552
▁saw	-553
pped	-554
▁ob	-555
▁mom	-556
▁men	-557
▁something	-558
▁put	-559
ways	-560
▁moment	-561
ci	-562
▁year	-563
den	-564
pect	-565
▁take	-566
▁being	-567
les	-568
ars	-569
▁bel	-570
▁No	-571
▁call	-572
▁arm	-573
leas	-574
▁look	-575
llow	-576
ling	-577
▁most	-578
less	-579
▁always	-580
ible	-581
.'	-582
▁felt	-583
▁vo	-584
▁St	-585
▁att	-586
▁te	-587
▁love	-588
▁wa	-589
▁left	-590
▁That	-591
▁new	-592
▁bo	-593
▁dr	-594
▁took	-595
▁these	-596
...	-597
ier	-598
▁same	-599
▁those	-600
▁once	-601
ren	-602
ody	-603
ched	-604
hes	-605
▁knew	-606
▁ent	-607
arm	-608
▁end	-609
▁heart	-610
ory	-611
▁asked	-612
get	-613
oth	-614
▁ind	-615
alf	-616
▁child	-617
▁mind	-618
▁because	-619
iend	-620
▁cons	-621
ia	-622
▁while	-623
ail	-624
▁another	-625
▁friend	-626
gg	-627
▁cour	-628
▁ret	-629
▁light	-630
ix	-631
▁hands	-632
▁young	-633
▁Then	-634
▁ser	-635
ub	-636
iv	-637
▁em	-638
▁heard	-639
▁stre	-640
int	-641
▁ever	-642
az	-643
▁sat	-644
▁may	-645
▁acc	-646
▁wal	-647
ank	-648
▁If	-649
▁three	-650
▁sil	-651
rew	-652
igh	-653
▁told	-654
uck	-655
orm	-656
▁sec	-657
▁thing	-658
na	-659
▁Mrs	-660
ens	-661
▁When	-662
▁wind	-663
▁At	-664
▁looking	-665
cc	-666
man	-667
▁mat	-668
▁set	-669
▁things	-670
▁voice	-671
▁turned	-672
▁car	-673
aw	-674
▁Harry	-675
ished	-676
iness	-677
▁began	-678
irl	-679
een	-680
sw	-681
▁found	-682
ning	-683
und	-684
▁mother	-685
rist	-686
ently	-687
sh	-688
ool	-689
▁rec	-690
▁anything	-691
▁place	-692
▁dist	-693
▁che	-694
aught	-695
▁pleas	-696
▁gu	-697
▁answ	-698
ors	-699
▁work	-700
▁mo	-701
▁His	-702
▁pres	-703
▁count	-704
▁father	-705
▁shall	-706
ertain	-707
ook	-708
ian	-709
▁underst	-710
▁pers	-711
▁many	-712
ict	-713
▁girl	-714
ced	-715
▁beh	-716
ange	-717
▁This	-718
▁herself	-719
ross	-720
▁side	-721
most	-722
aps	-723
▁world	-724
▁How	-725
ase	-726
▁mar	-727
▁comm	-728
▁better	-729
ps	-730
ult	-731
▁hard	-732
dden	-733
▁Well	-734
▁find	-735
▁Oh	-736
▁supp	-737
ained	-738
▁el	-739
▁boy	-740
▁yet	-741
▁give	-742
▁woman	-743
▁inst	-744
▁ins	-745
▁against	-746
▁rep	-747
▁sur	-748
▁diff	-749
▁So	-750
▁read	-751
here	-752
▁home	-753
▁seen	-754
▁half	-755
▁sudden	-756
▁enough	-757
ition	-758
▁didn	-759
ock	-760
▁hel	-761
▁cle	-762
▁Christ	-763
▁exp	-764
ont	-765
▁dark	-766
orr	-767
og	-768
▁care	-769
ret	-770
▁rest	-771
▁hour	-772
▁done	-773
▁years	-774
oney	-775
▁belie	-776
ha	-777
▁gi	-778
▁wait	-779
▁few	-780
oc	-781
ner	-782
▁act	-783
cept	-784
▁As	-785
ating	-786
▁need	-787
▁kind	-788
▁fam	-789
▁toward	-790
ener	-791
▁bed	-792
ower	-793
vent	-794
▁Ar	-795
▁lau	-796
ever	-797
be	-798
▁quite	-799
▁Her	-800
▁around	-801
ows	-802
oud	-803
▁rel	-804
▁min	-805
▁morn	-806
▁On	-807
ised	-808
▁Yes	-809
arn	-810
ale	-811
▁each	-812
up	-813
▁conf	-814
▁poss	-815
ither	-816
▁keep	-817
▁return	-818
ully	-819
vers	-820
oub	-821
ined	-822
arly	-823
▁soon	-824
▁Fr	-825
▁sk	-826
amp	-827
▁del	-828
▁words	-829
▁almost	-830
▁morning	-831
ired	-832
▁ord	-833
▁bre	-834
▁tre	-835
▁For	-836
▁An	-837
xt	-838
itch	-839
▁Do	-840
aring	-841
ense	-842
▁cur	-843
aken	-844
▁open	-845
▁mon	-846
ev	-847
ters	-848
owed	-849
ott	-850
▁ter	-851
ations	-852
ween	-853
▁round	-854
▁whole	-855
ical	-856
ung	-857
raw	-858
▁hum	-859
▁far	-860
ject	-861
ru	-862
▁sle	-863
gether	-864
cess	-865
▁sure	-866
▁between	-867
▁does	-868
mm	-869
▁add	-870
▁myself	-871
osed	-872
fect	-873
▁mean	-874
▁since	-875
▁gave	-876
▁days	-877
▁stand	-878
▁help	-879
▁ass	-880
▁Miss	-881
ual	-882
▁behind	-883
▁course	-884
ute	-885
oke	-886
▁ref	-887
▁try	-888
▁stood	-889
ib	-890
▁aw	-891
▁bus	-892
ering	-893
▁understand	-894
▁money	-895
▁follow	-896
▁certain	-897
▁thin	-898
ater	-899
▁dre	-900
▁remem	-901
▁real	-902
▁why	-903
haps	-904
▁small	-905
fort	-906
▁God	-907
▁really	-908
▁having	-909
iet	-910
ying	-911
▁everything	-912
ee	-913
ob	-914
▁sub	-915
its	-916
▁unt	-917
▁My	-918
▁bro	-919
aut	-920
▁Why	-921
▁reg	-922
▁Be	-923
ial	-924
arge	-925
▁inf	-926
▁called	-927
▁black	-928
body	-929
aid	-930
▁name	-931
▁list	-932
▁ide	-933
de	-934
▁air	-935
▁gone	-936
▁start	-937
▁dec	-938
ching	-939
▁both	-940
▁quest	-941
▁vis	-942
▁run	-943
let	-944
▁U	-945
▁white	-946
▁sound	-947
▁suddenly	-948
aint	-949
▁four	-950
att	-951
▁fin	-952
▁disc	-953
▁All	-954
ged	-955
▁wanted	-956
ably	-957
▁table	-958
▁cried	-959
▁hear	-960
ately	-961
fully	-962
▁inter	-963
▁next	-964
ason	-965
▁form	-966
ophe	-967
iver	-968
aster	-969
▁Christophe	-970
uth	-971
▁whom	-972
▁play	-973
▁together	-974
outh	-975
ery	-976
▁alone	-977
umb	-978
ley	-979
ents	-980
▁ste	-981
ean	-982
▁person	-983
▁inc	-984
▁Mar	-985
▁gener	-986
▁sort	-987
used	-988
ured	-989
▁cap	-990
▁nat	-991
▁Gr	-992
ph	-993
▁talk	-994
▁Al	-995
▁less	-996
▁rather	-997
▁Don	-998
▁fact	-999
pr	-1000
▁speak	-1001
▁Not	-1002
ets	-1003
▁along	-1004
▁ang	-1005
▁hur	-1006
▁bu	-1007
▁taken	-1008
▁lay	-1009
so	-1010
▁says	-1011
▁sn	-1012
▁occ	-1013
ins	-1014
▁gent	-1015
selves	-1016
▁fore	-1017
▁repl	-1018
oss	-1019
ern	-1020
oun	-1021
▁Pr	-1022
ready	-1023
hil	-1024
▁coming	-1025
eth	-1026
▁water	-1027
ention	-1028
bed	-1029
▁red	-1030
▁fire	-1031
ield	-1032
▁gre	-1033
▁dead	-1034
▁smil	-1035
iously	-1036
ized	-1037
erest	-1038
erv	-1039
▁sim	-1040
illed	-1041
▁until	-1042
▁dro	-1043
▁sun	-1044
itting	-1045
▁sent	-1046
▁feet	-1047
owing	-1048
▁dear	-1049
▁brought	-1050
▁hair	-1051
arr	-1052
ures	-1053
end	-1054
ressed	-1055
lex	-1056
▁pur	-1057
▁high	-1058
▁Now	-1059
▁else	-1060
▁hold	-1061
ached	-1062
land	-1063
ey	-1064
ited	-1065
ually	-1066
▁others	-1067
▁believe	-1068
ann	-1069
▁passed	-1070
▁already	-1071
vel	-1072
▁five	-1073
▁evening	-1074
undred	-1075
▁wife	-1076
▁,	-1077
▁interest	-1078
app	-1079
▁ir	-1080
▁fall	-1081
ash	-1082
▁Sh	-1083
▁full	-1084
▁leave	-1085
▁To	-1086
ene	-1087
airs	-1088
▁feeling	-1089
▁best	-1090
▁used	-1091
▁gentle	-1092
▁wall	-1093
▁es	-1094
▁hundred	-1095
▁won	-1096
▁matter	-1097
▁unc	-1098
▁hope	-1099
als	-1100
med	-1101
▁pain	-1102
▁expl	-1103
oul	-1104
▁wee	-1105
uss	-1106
ken	-1107
▁family	-1108
▁children	-1109
mb	-1110
ided	-1111
irect	-1112
▁second	-1113
▁sto	-1114
▁quick	-1115
icul	-1116
▁bit	-1117
▁contin	-1118
▁ev	-1119
▁adv	-1120
ister	-1121
▁;	-1122
day	-1123
aces	-1124
▁hor	-1125
▁cold	-1126
ief	-1127
▁perhaps	-1128
▁suff	-1129
▁sign	-1130
▁differe	-1131
unt	-1132
▁point	-1133
▁smile	-1134
uc	-1135
▁One	-1136
ued	-1137
▁pol	-1138
▁poor	-1139
ane	-1140
▁sleep	-1141
uff	-1142
imes	-1143
▁eff	-1144
▁inv	-1145
▁dem	-1146
▁doub	-1147
old	-1148
▁ra	-1149
▁short	-1150
enty	-1151
▁ill	-1152
▁brother	-1153
▁bad	-1154
▁serv	-1155
▁Br	-1156
▁towards	-1157
▁among	-1158
cei	-1159
▁six	-1160
▁present	-1161
▁replied	-1162
▁large	-1163
▁walked	-1164
ony	-1165
ote	-1166
▁least	-1167
▁death	-1168
▁direct	-1169
eed	-1170
▁till	-1171
any	-1172
▁sir	-1173
▁laugh	-1174
▁breat	-1175
▁Is	-1176
▁hus	-1177
▁expect	-1178
▁ask	-1179
▁front	-1180
onder	-1181
▁deep	-1182
▁close	-1183
▁bur	-1184
▁fre	-1185
▁body	-1186
▁also	-1187
▁step	-1188
▁past	-1189
ousand	-1190
ides	-1191
ug	-1192
ten	-1193
▁stay	-1194
▁window	-1195
▁near	-1196
▁times	-1197
▁det	-1198
▁pat	-1199
▁beaut	-1200
uring	-1201
▁women	-1202
▁eas	-1203
▁adm	-1204
ement	-1205
▁tried	-1206
br	-1207
▁thinking	-1208
▁fell	-1209
▁dri	-1210
cy	-1211
▁fur	-1212
▁arms	-1213
▁meet	-1214
▁hon	-1215
▁mid	-1216
men	-1217
▁flo	-1218
▁dep	-1219
▁town	-1220
▁thousand	-1221
▁express	-1222
▁across	-1223
▁abs	-1224
▁ground	-1225
tain	-1226
eared	-1227
▁question	-1228
ple	-1229
▁thir	-1230
▁saying	-1231
arl	-1232
▁month	-1233
aughter	-1234
res	-1235
▁business	-1236
▁Af	-1237
▁def	-1238
▁reason	-1239
▁son	-1240
▁given	-1241
▁Phil	-1242
▁fear	-1243
▁begin	-1244
▁making	-1245
ces	-1246
ening	-1247
▁land	-1248
dle	-1249
▁power	-1250
amed	-1251
▁bes	-1252
▁pap	-1253
ident	-1254
▁live	-1255
▁ext	-1256
band	-1257
▁kept	-1258
ats	-1259
▁exc	-1260
▁road	-1261
▁answer	-1262
▁idea	-1263
▁art	-1264
▁cann	-1265
▁remember	-1266
▁lost	-1267
▁sing	-1268
▁col	-1269
▁use	-1270
▁nor	-1271
▁opp	-1272
▁ran	-1273
▁mus	-1274
anged	-1275
▁themselves	-1276
me	-1277
▁ph	-1278
▁obs	-1279
▁mis	-1280
▁ten	-1281
▁doing	-1282
lic	-1283
ants	-1284
▁strong	-1285
▁forg	-1286
▁whether	-1287
▁held	-1288
akes	-1289
▁din	-1290
▁Jo	-1291
▁answered	-1292
▁Sc	-1293
aced	-1294
▁letter	-1295
▁Tr	-1296
orrow	-1297
▁wonder	-1298
▁whis	-1299
▁husband	-1300
▁blood	-1301
ards	-1302
irt	-1303
▁doubt	-1304
▁Alex	-1305
▁known	-1306
▁tear	-1307
▁Mad	-1308
▁happy	-1309
▁low	-1310
oon	-1311
▁slow	-1312
▁country	-1313
▁friends	-1314
▁tou	-1315
ctor	-1316
▁tri	-1317
▁wish	-1318
ison	-1319
ility	-1320
ump	-1321
▁met	-1322
▁sit	-1323
▁prom	-1324
▁stud	-1325
▁move	-1326
▁later	-1327
▁sch	-1328
gs	-1329
▁often	-1330
ushed	-1331
lect	-1332
▁Philip	-1333
▁cut	-1334
▁foot	-1335
ik	-1336
ush	-1337
anger	-1338
▁soul	-1339
▁quiet	-1340
▁talking	-1341
ates	-1342
▁whose	-1343
▁cond	-1344
▁corn	-1345
▁able	-1346
owd	-1347
raid	-1348
▁squ	-1349
▁longer	-1350
▁aff	-1351
ky	-1352
▁draw	-1353
▁order	-1354
▁opened	-1355
▁bar	-1356
▁yourself	-1357
side	-1358
▁pri	-1359
▁mist	-1360
▁cir	-1361
▁imag	-1362
▁strange	-1363
▁trying	-1364
ah	-1365
▁true	-1366
arth	-1367
▁eye	-1368
▁surpr	-1369
....	-1370
overed	-1371
▁With	-1372
gr	-1373
▁taking	-1374
▁Me	-1375
ef	-1376
▁stopped	-1377
▁arri	-1378
rave	-1379
▁yes	-1380
▁swe	-1381
rench	-1382
to	-1383
utes	-1384
▁Am	-1385
tend	-1386
▁either	-1387
▁cry	-1388
▁lea	-1389
where	-1390
▁twenty	-1391
ike	-1392
▁war	-1393
▁shout	-1394
▁afraid	-1395
▁fing	-1396
▁happened	-1397
ceived	-1398
▁big	-1399
ude	-1400
ax	-1401
empt	-1402
osition	-1403
ouble	-1404
▁possible	-1405
▁different	-1406
▁dream	-1407
▁returned	-1408
▁bring	-1409
▁sitting	-1410
ots	-1411
use	-1412
▁appear	-1413
▁char	-1414
ape	-1415
ances	-1416
ities	-1417
ific	-1418
cious	-1419
▁lady	-1420
▁cannot	-1421
▁Pet	-1422
▁fellow	-1423
acy	-1424
▁mouth	-1425
▁fine	-1426
oll	-1427
ghed	-1428
▁law	-1429
pping	-1430
▁offic	-1431
▁Ron	-1432
▁fa	-1433
▁After	-1434
▁school	-1435
▁pret	-1436
▁couldn	-1437
▁ready	-1438
▁soft	-1439
▁above	-1440
▁became	-1441
rod	-1442
▁silence	-1443
▁appro	-1444
ience	-1445
▁cross	-1446
▁pull	-1447
▁Ah	-1448
ches	-1449
▁dev	-1450
▁secret	-1451
lf	-1452
▁hot	-1453
▁except	-1454
ask	-1455
ract	-1456
ages	-1457
ising	-1458
riage	-1459
ugg	-1460
▁Tom	-1461
▁prop	-1462
▁forward	-1463
▁perfect	-1464
alm	-1465
▁human	-1466
▁spoke	-1467
ime	-1468
ider	-1469
ster	-1470
ught	-1471
▁French	-1472
▁spir	-1473
▁circ	-1474
ift	-1475
tered	-1476
ments	-1477
ius	-1478
▁conc	-1479
▁getting	-1480
aim	-1481
head	-1482
▁lips	-1483
▁minutes	-1484
ains	-1485
▁case	-1486
▁dress	-1487
erm	-1488
aged	-1489
arlet	-1490
▁become	-1491
▁general	-1492
▁glad	-1493
▁cat	-1494
▁convers	-1495
▁ed	-1496
▁wood	-1497
▁mur	-1498
▁standing	-1499
▁free	-1500
▁indeed	-1501
ger	-1502
orry	-1503
▁mem	-1504
▁horse	-1505
▁mag	-1506
▁pay	-1507
▁mil	-1508
▁truth	-1509
▁mad	-1510
▁Le	-1511
dd	-1512
▁sight	-1513
▁master	-1514
orth	-1515
▁mer	-1516
▁break	-1517
▁added	-1518
▁wrong	-1519
▁floor	-1520
▁hours	-1521
antly	-1522
urg	-1523
▁pie	-1524
by	-1525
ames	-1526
▁learn	-1527
ooks	-1528
▁lad	-1529
isf	-1530
▁show	-1531
▁glass	-1532
ines	-1533
▁waiting	-1534
ically	-1535
▁Every	-1536
ceed	-1537
▁street	-1538
▁ut	-1539
▁comple	-1540
▁Eng	-1541
▁however	-1542
▁rid	-1543
▁news	-1544
▁fif	-1545
▁visit	-1546
▁ap	-1547
▁sus	-1548
▁book	-1549
▁chair	-1550
ead	-1551
▁sister	-1552
?'	-1553
▁reached	-1554
▁respect	-1555
une	-1556
▁conv	-1557
▁hat	-1558
lyde	-1559
▁Par	-1560
▁wasn	-1561
iful	-1562
iew	-1563
▁rose	-1564
▁meant	-1565
ety	-1566
▁disapp	-1567
▁stra	-1568
ply	-1569
▁sad	-1570
ging	-1571
▁week	-1572
ys	-1573
▁quickly	-1574
▁Just	-1575
▁crowd	-1576
ient	-1577
▁Ed	-1578
▁seeing	-1579
▁fight	-1580
▁deal	-1581
rov	-1582
▁spr	-1583
the	-1584
▁repe	-1585
▁kiss	-1586
over	-1587
▁living	-1588
▁sense	-1589
otion	-1590
▁sever	-1591
▁Let	-1592
▁import	-1593
▁followed	-1594
▁heav	-1595
▁pretty	-1596
▁sometimes	-1597
anced	-1598
▁tears	-1599
ingly	-1600
▁hung	-1601
nce	-1602
uct	-1603
arent	-1604
▁sold	-1605
▁itself	-1606
▁tor	-1607
▁earth	-1608
cho	-1609
atter	-1610
▁prof	-1611
wards	-1612
ize	-1613
▁par	-1614
rible	-1615
▁shad	-1616
▁ought	-1617
▁loved	-1618
▁sy	-1619
▁walk	-1620
▁moved	-1621
icked	-1622
ole	-1623
▁ago	-1624
▁slowly	-1625
▁thoughts	-1626
▁fort	-1627
▁terr	-1628
cial	-1629
▁wouldn	-1630
▁Ol	-1631
▁dinner	-1632
inted	-1633
▁lead	-1634
▁change	-1635
tern	-1636
▁warm	-1637
cri	-1638
ously	-1639
▁Clyde	-1640
▁esc	-1641
ively	-1642
itted	-1643
▁stop	-1644
▁clear	-1645
▁Jean	-1646
▁coll	-1647
lled	-1648
▁appeared	-1649
▁Sir	-1650
night	-1651
yond	-1652
▁straight	-1653
van	-1654
▁Will	-1655
isted	-1656
medi	-1657
▁delight	-1658
rig	-1659
▁Of	-1660
▁jo	-1661
ices	-1662
▁desp	-1663
▁cre	-1664
ublic	-1665
▁gold	-1666
▁prince	-1667
▁expression	-1668
▁gaz	-1669
▁eng	-1670
▁within	-1671
▁conversation	-1672
▁une	-1673
iting	-1674
▁laughed	-1675
▁prob	-1676
▁complete	-1677
▁...	-1678
ination	-1679
▁breath	-1680
▁hardly	-1681
▁creat	-1682
▁self	-1683
▁continued	-1684
▁bott	-1685
▁several	-1686
▁satisf	-1687
▁Scarlet	-1688
ls	-1689
▁watch	-1690
▁doctor	-1691
▁suppose	-1692
▁Scarlett	-1693
▁blue	-1694
▁corner	-1695
▁late	-1696
▁silent	-1697
▁necess	-1698
ship	-1699
▁line	-1700
▁smiled	-1701
▁entered	-1702
▁subject	-1703
ny	-1704
▁Lev	-1705
▁clot	-1706
▁immedi	-1707
▁girls	-1708
▁press	-1709
▁win	-1710
ution	-1711
ina	-1712
▁Ivan	-1713
▁joy	-1714
▁sens	-1715
▁turning	-1716
ili	-1717
alth	-1718
▁top	-1719
▁Mary	-1720
▁anyone	-1721
ified	-1722
▁worth	-1723
awn	-1724
amm	-1725
het	-1726
▁during	-1727
▁daughter	-1728
▁manner	-1729
ler	-1730
▁mere	-1731
▁ve	-1732
▁started	-1733
▁pleasure	-1734
▁paper	-1735
▁lived	-1736
▁beyond	-1737
▁eight	-1738
▁trees	-1739
▁caught	-1740
cul	-1741
aven	-1742
▁obser	-1743
oof	-1744
ille	-1745
▁comfort	-1746
ney	-1747
▁hast	-1748
ione	-1749
lish	-1750
▁summ	-1751
ossible	-1752
urch	-1753
ierre	-1754
▁pock	-1755
ec	-1756
▁cor	-1757
▁sea	-1758
▁pict	-1759
▁sho	-1760
▁minute	-1761
▁fright	-1762
▁Alexand	-1763
omp	-1764
▁particul	-1765
iced	-1766
▁fig	-1767
▁means	-1768
▁anx	-1769
▁Lord	-1770
▁fool	-1771
▁bright	-1772
▁green	-1773
ned	-1774
▁kill	-1775
room	-1776
▁fair	-1777
▁wild	-1778
▁carry	-1779
▁months	-1780
▁Pierre	-1781
rupt	-1782
▁prep	-1783
▁affect	-1784
▁forget	-1785
▁Or	-1786
▁Per	-1787
▁die	-1788
▁jud	-1789
▁Some	-1790
▁excl	-1791
▁eat	-1792
ton	-1793
pend	-1794
▁prison	-1795
▁grand	-1796
▁story	-1797
▁aftern	-1798
▁company	-1799
ric	-1800
▁Dr	-1801
▁send	-1802
▁Prince	-1803
▁stri	-1804
▁beside	-1805
▁bir	-1806
▁disp	-1807
attle	-1808
▁exact	-1809
▁Herm	-1810
hel	-1811
ior	-1812
▁slight	-1813
▁gard	-1814
▁burn	-1815
ounded	-1816
▁mount	-1817
inct	-1818
▁Emm	-1819
▁Here	-1820
▁anim	-1821
▁vill	-1822
els	-1823
itude	-1824
▁trouble	-1825
▁beautiful	-1826
eal	-1827
▁sol	-1828
▁mine	-1829
▁super	-1830
ism	-1831
▁cent	-1832
▁music	-1833
▁account	-1834
▁Bl	-1835
▁desire	-1836
▁object	-1837
▁hid	-1838
▁sorry	-1839
▁chance	-1840
▁quar	-1841
▁outside	-1842
▁Who	-1843
▁lot	-1844
▁Hermione	-1845
▁Pro	-1846
▁Sam	-1847
▁mut	-1848
▁.	-1849
ston	-1850
▁hop	-1851
▁ce	-1852
▁Levin	-1853
▁Paris	-1854
ipped	-1855
▁shut	-1856
che	-1857
▁books	-1858
▁trans	-1859
▁Where	-1860
▁occas	-1861
aby	-1862
▁Your	-1863
▁position	-1864
▁Come	-1865
▁compl	-1866
▁neck	-1867
▁Madame	-1868
▁danger	-1869
▁fix	-1870
▁died	-1871
▁knows	-1872
▁filled	-1873
▁gentleman	-1874
ope	-1875
▁loud	-1876
▁natur	-1877
▁tra	-1878
▁inqu	-1879
▁beginning	-1880
fe	-1881
read	-1882
▁dest	-1883
ality	-1884
asp	-1885
ishing	-1886
▁usual	-1887
▁Un	-1888
▁ann	-1889
▁decided	-1890
▁Dor	-1891
▁command	-1892
io	-1893
▁Nat	-1894
▁est	-1895
▁miss	-1896
▁lean	-1897
▁ship	-1898
idence	-1899
▁afternoon	-1900
teen	-1901
▁fun	-1902
▁closed	-1903
▁impossible	-1904
▁fav	-1905
▁speaking	-1906
▁attention	-1907
iled	-1908
str	-1909
▁struck	-1910
▁pen	-1911
▁carried	-1912
▁state	-1913
▁drew	-1914
▁party	-1915
abb	-1916
ular	-1917
ogn	-1918
▁raised	-1919
▁class	-1920
ighb	-1921
▁Russ	-1922
▁opin	-1923
▁prin	-1924
▁steps	-1925
▁remained	-1926
▁inn	-1927
▁cast	-1928
▁pale	-1929
▁fast	-1930
aded	-1931
rel	-1932
▁El	-1933
▁broken	-1934
▁equ	-1935
essed	-1936
ining	-1937
▁sick	-1938
ovna	-1939
ipp	-1940
▁tem	-1941
▁succ	-1942
umbled	-1943
▁ele	-1944
▁bene	-1945
ased	-1946
▁Pe	-1947
ager	-1948
▁immediately	-1949
itten	-1950
▁shar	-1951
▁prov	-1952
aining	-1953
▁field	-1954
▁Har	-1955
▁fingers	-1956
▁talked	-1957
▁prot	-1958
▁probably	-1959
ored	-1960
▁arr	-1961
▁office	-1962
▁acqu	-1963
▁received	-1964
▁clothes	-1965
▁someone	-1966
▁sky	-1967
cially	-1968
▁middle	-1969
▁sett	-1970
▁running	-1971
▁watched	-1972
▁May	-1973
▁Val	-1974
▁yell	-1975
iol	-1976
cked	-1977
▁rev	-1978
▁inside	-1979
▁certainly	-1980
▁tone	-1981
lly	-1982
bered	-1983
▁post	-1984
▁entire	-1985
▁led	-1986
▁nature	-1987
▁married	-1988
▁scr	-1989
▁age	-1990
pered	-1991
▁gall	-1992
▁streng	-1993
▁wished	-1994
▁grew	-1995
▁marry	-1996
▁accept	-1997
▁thick	-1998
▁simply	-1999
asha	-2000
▁view	-2001
▁charac	-2002
iment	-2003
▁changed	-2004
▁gri	-2005
▁bear	-2006
▁ru	-2007
▁weak	-2008
joy	-2009
▁Did	-2010
▁easy	-2011
dy	-2012
ones	-2013
▁sweet	-2014
bb	-2015
eng	-2016
▁recogn	-2017
unch	-2018
ession	-2019
uz	-2020
▁Ly	-2021
▁liked	-2022
▁cou	-2023
▁heavy	-2024
ms	-2025
▁box	-2026
aimed	-2027
umber	-2028
ories	-2029
▁hill	-2030
▁laid	-2031
atever	-2032
▁By	-2033
▁pray	-2034
▁neighb	-2035
▁wand	-2036
inary	-2037
▁boys	-2038
▁public	-2039
agr	-2040
▁Ge	-2041
▁nearly	-2042
bo	-2043
ians	-2044
▁fut	-2045
▁happiness	-2046
ien	-2047
ilt	-2048
der	-2049
ils	-2050
▁fail	-2051
ative	-2052
▁hall	-2053
▁nice	-2054
hn	-2055
ists	-2056
acked	-2057
▁everyone	-2058
▁chee	-2059
iny	-2060
▁From	-2061
▁arrived	-2062
▁sal	-2063
aused	-2064
▁ball	-2065
▁calm	-2066
urs	-2067
▁consider	-2068
▁Em	-2069
▁fanc	-2070
▁common	-2071
▁further	-2072
▁understood	-2073
orses	-2074
▁comes	-2075
ital	-2076
▁spo	-2077
▁Father	-2078
ze	-2079
▁write	-2080
▁remembered	-2081
▁king	-2082
▁please	-2083
▁giving	-2084
▁doesn	-2085
▁enjoy	-2086
unk	-2087
ury	-2088
though	-2089
▁English	-2090
ancho	-2091
▁Geor	-2092
▁Fl	-2093
▁av	-2094
▁port	-2095
▁inform	-2096
▁showed	-2097
▁prod	-2098
▁peace	-2099
▁drawing	-2100
▁holding	-2101
▁obl	-2102
ustom	-2103
▁horses	-2104
omm	-2105
▁exper	-2106
▁:	-2107
arch	-2108
ovitch	-2109
▁teeth	-2110
▁requ	-2111
▁stone	-2112
▁effect	-2113
▁dog	-2114
▁Cl	-2115
icult	-2116
▁Ag	-2117
▁empt	-2118
▁scre	-2119
ald	-2120
itc	-2121
▁lying	-2122
▁pocket	-2123
itation	-2124
co	-2125
▁shook	-2126
▁effort	-2127
▁garden	-2128
ino	-2129
▁spirit	-2130
▁leaving	-2131
▁dut	-2132
▁med	-2133
aped	-2134
▁enem	-2135
▁mention	-2136
▁smo	-2137
▁drink	-2138
▁plan	-2139
▁contr	-2140
▁looks	-2141
bs	-2142
▁Dan	-2143
▁laughing	-2144
anging	-2145
▁occasion	-2146
vern	-2147
▁spite	-2148
▁neither	-2149
▁Tw	-2150
▁broke	-2151
▁wide	-2152
▁Tracy	-2153
▁seems	-2154
othe	-2155
▁isn	-2156
▁Derv	-2157
▁hurt	-2158
pecially	-2159
▁strength	-2160
▁const	-2161
▁difficult	-2162
▁Good	-2163
▁early	-2164
▁force	-2165
▁exactly	-2166
osing	-2167
▁hist	-2168
▁pulled	-2169
usion	-2170
▁priv	-2171
▁build	-2172
▁working	-2173
▁character	-2174
pic	-2175
clock	-2176
▁Dervish	-2177
▁army	-2178
▁fresh	-2179
▁plain	-2180
▁regard	-2181
▁terrible	-2182
gy	-2183
ella	-2184
▁shop	-2185
ues	-2186
▁Char	-2187
▁faces	-2188
rodo	-2189
▁emb	-2190
▁piece	-2191
▁instead	-2192
▁conscious	-2193
▁di	-2194
▁fro	-2195
oned	-2196
▁Con	-2197
▁mod	-2198
▁boat	-2199
▁shoulders	-2200
▁legs	-2201
▁watching	-2202
que	-2203
hood	-2204
▁Emma	-2205
▁thro	-2206
▁Frodo	-2207
▁angry	-2208
▁opinion	-2209
fer	-2210
ges	-2211
▁fat	-2212
▁van	-2213
form	-2214
▁tea	-2215
▁smell	-2216
▁smiling	-2217
ees	-2218
▁div	-2219
eness	-2220
itated	-2221
▁lie	-2222
▁important	-2223
oom	-2224
bert	-2225
otten	-2226
inking	-2227
▁noticed	-2228
ka	-2229
▁grow	-2230
ives	-2231
ashed	-2232
uced	-2233
▁killed	-2234
▁resol	-2235
ams	-2236
▁Mer	-2237
▁finished	-2238
▁repeated	-2239
▁future	-2240
▁reading	-2241
▁mill	-2242
ancing	-2243
▁seven	-2244
▁shoulder	-2245
▁spent	-2246
▁success	-2247
how	-2248
▁expected	-2249
▁necessary	-2250
▁rap	-2251
▁walking	-2252
▁listened	-2253
▁Cap	-2254
▁gun	-2255
▁shouted	-2256
iers	-2257
▁enc	-2258
▁drag	-2259
▁Ger	-2260
▁bare	-2261
▁rain	-2262
▁worse	-2263
▁covered	-2264
▁soci	-2265
▁apart	-2266
▁Mon	-2267
▁third	-2268
▁surprise	-2269
uel	-2270
▁Cr	-2271
▁burst	-2272
▁darkness	-2273
kes	-2274
idly	-2275
▁Anna	-2276
▁baby	-2277
▁written	-2278
▁stared	-2279
▁Mart	-2280
▁Only	-2281
▁scar	-2282
▁belong	-2283
▁lif	-2284
▁none	-2285
▁waited	-2286
▁ladies	-2287
▁Ab	-2288
▁var	-2289
ledge	-2290
err	-2291
▁event	-2292
▁purp	-2293
itty	-2294
▁cand	-2295
▁carriage	-2296
bit	-2297
owers	-2298
▁coat	-2299
▁whispered	-2300
osc	-2301
▁val	-2302
▁distance	-2303
oured	-2304
▁food	-2305
▁rich	-2306
▁instant	-2307
▁imm	-2308
▁viol	-2309
▁chief	-2310
▁especially	-2311
▁Re	-2312
▁listen	-2313
▁exam	-2314
▁conce	-2315
▁ma	-2316
ested	-2317
mp	-2318
▁lit	-2319
▁iron	-2320
▁reflect	-2321
▁village	-2322
ibly	-2323
ieur	-2324
▁charm	-2325
▁learned	-2326
▁decl	-2327
▁Ind	-2328
ented	-2329
▁tremb	-2330
well	-2331
▁moving	-2332
▁firm	-2333
▁Somet	-2334
onsieur	-2335
▁pleased	-2336
ests	-2337
▁following	-2338
▁Are	-2339
▁leg	-2340
light	-2341
ouses	-2342
▁Bill	-2343
ics	-2344
lling	-2345
▁memory	-2346
▁dressed	-2347
tte	-2348
▁Even	-2349
▁Natasha	-2350
iling	-2351
▁bank	-2352
▁dread	-2353
▁determ	-2354
▁lim	-2355
▁narr	-2356
▁nose	-2357
aching	-2358
▁passion	-2359
▁whatever	-2360
osp	-2361
▁ain	-2362
▁stup	-2363
▁knowing	-2364
▁faith	-2365
▁single	-2366
▁exclaimed	-2367
ER	-2368
▁tall	-2369
▁fixed	-2370
▁circum	-2371
▁glance	-2372
▁intell	-2373
nect	-2374
▁notice	-2375
▁perfectly	-2376
!'	-2377
aked	-2378
▁ign	-2379
zen	-2380
▁eager	-2381
▁service	-2382
▁wit	-2383
▁spot	-2384
▁Frank	-2385
▁bag	-2386
▁hadn	-2387
▁walls	-2388
onel	-2389
▁hes	-2390
▁guard	-2391
▁stret	-2392
ction	-2393
ision	-2394
▁cloud	-2395
▁These	-2396
▁pract	-2397
ries	-2398
▁Edward	-2399
▁telling	-2400
▁afterwards	-2401
aming	-2402
ounds	-2403
▁dropped	-2404
af	-2405
▁mor	-2406
acing	-2407
▁tired	-2408
▁Go	-2409
▁doll	-2410
▁exist	-2411
ague	-2412
▁lab	-2413
essor	-2414
▁weeks	-2415
▁Marius	-2416
aff	-2417
▁beauty	-2418
▁battle	-2419
▁silver	-2420
aled	-2421
▁Ros	-2422
ended	-2423
▁skin	-2424
▁sugg	-2425
▁society	-2426
itchen	-2427
▁grave	-2428
▁oblig	-2429
son	-2430
▁empty	-2431
▁bitter	-2432
uge	-2433
▁Rob	-2434
▁ears	-2435
▁note	-2436
▁save	-2437
▁feelings	-2438
orted	-2439
▁born	-2440
▁figure	-2441
▁Mor	-2442
▁clean	-2443
▁strugg	-2444
▁kitchen	-2445
▁questions	-2446
▁letters	-2447
▁meeting	-2448
asy	-2449
like	-2450
▁resp	-2451
action	-2452
▁miles	-2453
▁Charles	-2454
rop	-2455
▁wrote	-2456
oup	-2457
▁har	-2458
▁city	-2459
▁luck	-2460
▁dust	-2461
▁paid	-2462
▁depart	-2463
▁happen	-2464
▁natural	-2465
▁believed	-2466
tering	-2467
▁Sp	-2468
▁court	-2469
▁attempt	-2470
ds	-2471
▁Fred	-2472
▁fifty	-2473
▁makes	-2474
ays	-2475
▁wond	-2476
▁stro	-2477
▁youth	-2478
▁reply	-2479
▁windows	-2480
leep	-2481
▁cho	-2482
▁Lond	-2483
▁path	-2484
ails	-2485
▁treat	-2486
▁London	-2487
▁ash	-2488
▁beat	-2489
▁tast	-2490
▁presence	-2491
field	-2492
nding	-2493
▁needed	-2494
rs	-2495
cell	-2496
▁haven	-2497
▁touch	-2498
▁trust	-2499
▁coff	-2500
▁incl	-2501
iano	-2502
acks	-2503
▁Andrew	-2504
▁summer	-2505
▁demand	-2506
▁merely	-2507
ubb	-2508
▁threw	-2509
▁desert	-2510
ortun	-2511
▁safe	-2512
▁quietly	-2513
angu	-2514
▁gentlemen	-2515
▁Can	-2516
▁dim	-2517
onsky	-2518
▁murm	-2519
▁observed	-2520
▁horr	-2521
▁compan	-2522
▁thirty	-2523
▁impress	-2524
ocked	-2525
▁Win	-2526
▁rock	-2527
▁grass	-2528
▁shadow	-2529
ork	-2530
gate	-2531
▁interrupt	-2532
▁Sm	-2533
▁circumst	-2534
oop	-2535
▁thou	-2536
▁tight	-2537
▁number	-2538
▁fly	-2539
▁agre	-2540
▁everybody	-2541
lu	-2542
▁peas	-2543
▁ring	-2544
▁purpose	-2545
▁listening	-2546
anny	-2547
▁clim	-2548
pected	-2549
▁cause	-2550
▁simple	-2551
▁serious	-2552
▁pleasant	-2553
▁surprised	-2554
▁pity	-2555
▁Perhaps	-2556
▁tree	-2557
▁maybe	-2558
▁Monsieur	-2559
▁completely	-2560
▁Megg	-2561
idge	-2562
▁Mosc	-2563
▁uncle	-2564
▁ris	-2565
▁sac	-2566
▁Jane	-2567
▁camp	-2568
rib	-2569
pper	-2570
rawn	-2571
▁forgotten	-2572
▁auth	-2573
▁picture	-2574
hy	-2575
▁alive	-2576
▁Lyd	-2577
▁connect	-2578
▁hurried	-2579
▁Alexandrov	-2580
▁Col	-2581
▁leng	-2582
▁aware	-2583
▁descri	-2584
▁earn	-2585
▁extre	-2586
idently	-2587
You	-2588
▁heads	-2589
▁noise	-2590
▁although	-2591
▁mir	-2592
▁jour	-2593
inal	-2594
▁coun	-2595
▁appearance	-2596
set	-2597
cely	-2598
olute	-2599
▁alarm	-2600
▁accord	-2601
▁nodd	-2602
▁stairs	-2603
▁Ber	-2604
▁seat	-2605
▁allowed	-2606
▁beneath	-2607
ding	-2608
▁dare	-2609
fast	-2610
sequ	-2611
▁asleep	-2612
▁heaven	-2613
▁Ne	-2614
▁proud	-2615
▁stupid	-2616
par	-2617
ron	-2618
val	-2619
ades	-2620
▁Have	-2621
▁stir	-2622
▁knees	-2623
▁Kate	-2624
▁shot	-2625
▁Count	-2626
▁extra	-2627
▁hig	-2628
▁John	-2629
▁blind	-2630
▁George	-2631
▁church	-2632
▁fash	-2633
▁tender	-2634
▁captain	-2635
▁passing	-2636
▁marriage	-2637
ushing	-2638
▁forth	-2639
cle	-2640
oming	-2641
▁health	-2642
▁proper	-2643
▁Mel	-2644
▁fle	-2645
▁duty	-2646
▁Martin	-2647
mn	-2648
▁Se	-2649
▁cra	-2650
▁und	-2651
under	-2652
▁Rost	-2653
erable	-2654
▁river	-2655
▁houses	-2656
▁bent	-2657
▁gate	-2658
▁sole	-2659
▁wear	-2660
▁below	-2661
▁Captain	-2662
ases	-2663
vere	-2664
▁Prof	-2665
come	-2666
▁tele	-2667
eff	-2668
mit	-2669
▁chest	-2670
▁finally	-2671
ford	-2672
jean	-2673
▁dam	-2674
▁bound	-2675
▁sharp	-2676
wh	-2677
▁sake	-2678
▁Moscow	-2679
▁staring	-2680
iety	-2681
▁arg	-2682
amond	-2683
ceeded	-2684
▁langu	-2685
▁easily	-2686
▁suspic	-2687
▁throat	-2688
▁supposed	-2689
▁dry	-2690
▁prec	-2691
▁drove	-2692
▁polit	-2693
▁ver	-2694
▁bell	-2695
▁situ	-2696
▁occup	-2697
▁escape	-2698
atherine	-2699
▁discuss	-2700
▁mess	-2701
▁utter	-2702
▁Ma	-2703
▁ur	-2704
illy	-2705
▁suc	-2706
▁thus	-2707
ounced	-2708
▁lives	-2709
▁forced	-2710
▁remain	-2711
▁touched	-2712
kn	-2713
▁De	-2714
▁New	-2715
▁troub	-2716
▁author	-2717
▁avo	-2718
▁worked	-2719
▁putting	-2720
▁occur	-2721
▁Valjean	-2722
▁Professor	-2723
▁job	-2724
▁Robert	-2725
▁concern	-2726
▁direction	-2727
▁Max	-2728
▁Nap	-2729
terday	-2730
▁brain	-2731
▁affection	-2732
▁fit	-2733
▁train	-2734
▁length	-2735
uit	-2736
▁Tur	-2737
acher	-2738
▁drive	-2739
▁fault	-2740
▁wondered	-2741
▁Catherine	-2742
gar	-2743
cher	-2744
umed	-2745
▁jump	-2746
▁bottom	-2747
▁yellow	-2748
agn	-2749
▁spee	-2750
▁somewhere	-2751
▁den	-2752
urd	-2753
▁likely	-2754
▁fashion	-2755
▁opportun	-2756
ois	-2757
▁enemy	-2758
▁knowledge	-2759
▁Ex	-2760
ayed	-2761
▁irr	-2762
ceive	-2763
▁grown	-2764
▁rooms	-2765
▁Oliv	-2766
▁nerv	-2767
▁vict	-2768
▁Never	-2769
▁placed	-2770
ett	-2771
▁Stu	-2772
▁Jurg	-2773
▁aunt	-2774
▁meaning	-2775
ses	-2776
▁board	-2777
▁Nothing	-2778
▁carefully	-2779
▁frightened	-2780
▁police	-2781
▁spread	-2782
▁officer	-2783
asc	-2784
▁gray	-2785
▁shame	-2786
▁Jurgis	-2787
elve	-2788
▁thank	-2789
▁pun	-2790
stairs	-2791
▁Bella	-2792
▁agree	-2793
▁imagine	-2794
▁Pa	-2795
▁doors	-2796
▁Russian	-2797
▁aston	-2798
ibility	-2799
▁spring	-2800
▁address	-2801
▁streets	-2802
uix	-2803
▁revol	-2804
▁therefore	-2805
▁mel	-2806
inite	-2807
▁action	-2808
▁Lydgate	-2809
▁attract	-2810
ament	-2811
▁ones	-2812
▁demon	-2813
▁parent	-2814
▁interested	-2815
itary	-2816
▁pick	-2817
itable	-2818
uixote	-2819
▁stuff	-2820
▁govern	-2821
rest	-2822
hered	-2823
▁purs	-2824
▁Meggie	-2825
▁por	-2826
▁fond	-2827
▁reck	-2828
▁catch	-2829
▁lose	-2830
▁Napole	-2831
▁tom	-2832
uce	-2833
uous	-2834
vious	-2835
▁tong	-2836
▁wore	-2837
idered	-2838
▁bread	-2839
▁brown	-2840
▁faint	-2841
▁Napoleon	-2842
▁ble	-2843
▁ear	-2844
▁asking	-2845
ency	-2846
▁Was	-2847
erence	-2848
▁station	-2849
▁creature	-2850
ker	-2851
▁Vr	-2852
▁mass	-2853
▁cheer	-2854
▁entirely	-2855
▁wis	-2856
▁ideas	-2857
▁nobody	-2858
▁broad	-2859
▁reach	-2860
▁honest	-2861
▁Vronsky	-2862
▁Ko	-2863
olog	-2864
▁Yet	-2865
rt	-2866
ya	-2867
iant	-2868
▁ant	-2869
▁gen	-2870
▁furn	-2871
▁former	-2872
osit	-2873
▁evil	-2874
▁goes	-2875
▁mark	-2876
▁aside	-2877
▁attend	-2878
▁seized	-2879
▁neare	-2880
▁couple	-2881
nded	-2882
▁snow	-2883
▁guess	-2884
ume	-2885
iding	-2886
▁ways	-2887
▁hurry	-2888
▁study	-2889
▁excell	-2890
▁absolute	-2891
▁Fanny	-2892
▁picked	-2893
▁proble	-2894
▁Str	-2895
▁Arab	-2896
▁honor	-2897
▁contro	-2898
wise	-2899
agrid	-2900
▁wine	-2901
▁yesterday	-2902
ners	-2903
▁eld	-2904
▁incre	-2905
▁Hagrid	-2906
▁terror	-2907
▁anxious	-2908
▁harm	-2909
▁Their	-2910
▁delic	-2911
attered	-2912
▁Rostov	-2913
atic	-2914
asure	-2915
▁places	-2916
▁Dorothe	-2917
▁settled	-2918
▁breakfast	-2919
house	-2920
ighed	-2921
osite	-2922
▁habit	-2923
▁pride	-2924
jo	-2925
uly	-2926
▁rob	-2927
▁greater	-2928
▁Dorothea	-2929
iot	-2930
▁shr	-2931
▁hide	-2932
▁share	-2933
▁particular	-2934
▁Jac	-2935
aving	-2936
▁flat	-2937
▁TH	-2938
▁allow	-2939
▁fortune	-2940
▁neg	-2941
ature	-2942
▁hell	-2943
▁movement	-2944
▁fol	-2945
▁drawn	-2946
▁cost	-2947
▁glanced	-2948
▁playing	-2949
▁writing	-2950
izab	-2951
oved	-2952
▁concl	-2953
hett	-2954
▁lower	-2955
▁voices	-2956
▁servant	-2957
ios	-2958
▁bow	-2959
▁store	-2960
▁explain	-2961
▁laughter	-2962
▁mot	-2963
lessly	-2964
▁fallen	-2965
▁morrow	-2966
▁Fe	-2967
▁id	-2968
happ	-2969
▁convin	-2970
▁offered	-2971
▁soldiers	-2972
gan	-2973
ikov	-2974
▁German	-2975
▁history	-2976
▁buy	-2977
▁hate	-2978
▁begun	-2979
▁separ	-2980
▁anybody	-2981
▁whisper	-2982
cause	-2983
▁cler	-2984
▁farm	-2985
▁pack	-2986
iently	-2987
▁gloom	-2988
▁breast	-2989
eping	-2990
▁Dana	-2991
▁Sancho	-2992
▁However	-2993
usted	-2994
▁cell	-2995
▁pressed	-2996
▁opposite	-2997
izing	-2998
▁dying	-2999
▁pointed	-3000
▁protect	-3001
zy	-3002
anks	-3003
▁Min	-3004
▁Oliver	-3005
▁spoken	-3006
now	-3007
ises	-3008
▁pretend	-3009
▁Dav	-3010
▁host	-3011
▁played	-3012
▁evidently	-3013
reg	-3014
▁unp	-3015
▁warn	-3016
▁fancy	-3017
▁advant	-3018
▁rising	-3019
erve	-3020
oman	-3021
▁Two	-3022
annon	-3023
▁Tell	-3024
▁magic	-3025
▁honour	-3026
culi	-3027
chief	-3028
▁Sund	-3029
▁cous	-3030
osette	-3031
▁forty	-3032
▁commun	-3033
▁extreme	-3034
miss	-3035
iliar	-3036
▁sand	-3037
▁Jack	-3038
▁fold	-3039
▁narrow	-3040
▁muttered	-3041
▁ye	-3042
vert	-3043
▁wol	-3044
anted	-3045
▁speech	-3046
▁explained	-3047
imm	-3048
▁Look	-3049
▁symp	-3050
▁wret	-3051
▁enter	-3052
▁kissed	-3053
▁peculi	-3054
▁grey	-3055
▁whale	-3056
ips	-3057
It	-3058
amb	-3059
▁cab	-3060
▁impat	-3061
rect	-3062
▁fal	-3063
▁orders	-3064
▁Cosette	-3065
▁prevent	-3066
▁intellig	-3067
▁scarcely	-3068
▁rode	-3069
icking	-3070
▁Shannon	-3071
olas	-3072
▁Ash	-3073
▁lod	-3074
▁roof	-3075
inting	-3076
▁ahead	-3077
▁shirt	-3078
▁actually	-3079
▁edge	-3080
▁rail	-3081
▁threat	-3082
▁parents	-3083
za	-3084
▁unf	-3085
▁grin	-3086
iculty	-3087
▁devil	-3088
▁today	-3089
▁wants	-3090
▁nodded	-3091
▁Rue	-3092
▁cup	-3093
▁hal	-3094
▁amaz	-3095
▁moon	-3096
▁agreed	-3097
▁custom	-3098
▁shaking	-3099
aur	-3100
▁ow	-3101
arsh	-3102
▁stick	-3103
▁winter	-3104
▁growing	-3105
▁hearing	-3106
▁journey	-3107
▁tomorrow	-3108
▁Bes	-3109
▁collect	-3110
▁despair	-3111
▁difficulty	-3112
▁Jam	-3113
▁falling	-3114
ait	-3115
arts	-3116
itya	-3117
oint	-3118
▁persu	-3119
▁indiff	-3120
▁remark	-3121
▁promised	-3122
bon	-3123
semb	-3124
▁Mitya	-3125
▁cover	-3126
▁temper	-3127
▁twelve	-3128
cing	-3129
ivers	-3130
▁dogs	-3131
▁phys	-3132
▁worry	-3133
▁courage	-3134
▁crossed	-3135
▁promise	-3136
▁maj	-3137
▁song	-3138
▁Maybe	-3139
▁France	-3140
▁opportunity	-3141
of	-3142
▁influ	-3143
▁besides	-3144
▁suffering	-3145
aph	-3146
▁hol	-3147
▁clos	-3148
iction	-3149
▁trave	-3150
▁ashamed	-3151
▁private	-3152
▁special	-3153
▁situation	-3154
▁Very	-3155
▁nine	-3156
▁remar	-3157
▁destro	-3158
▁result	-3159
▁unhapp	-3160
▁Ben	-3161
using	-3162
▁bill	-3163
▁moments	-3164
▁passage	-3165
▁Prin	-3166
▁hosp	-3167
▁desper	-3168
▁distur	-3169
▁dollars	-3170
▁excited	-3171
▁slightly	-3172
Art	-3173
ara	-3174
▁Maxim	-3175
▁pushed	-3176
▁forehead	-3177
▁handsome	-3178
ator	-3179
▁bri	-3180
▁pan	-3181
agnan	-3182
▁Step	-3183
ishment	-3184
▁realized	-3185
▁considered	-3186
agg	-3187
ploy	-3188
▁odd	-3189
▁suffer	-3190
Artagnan	-3191
▁bedroom	-3192
anta	-3193
ture	-3194
▁pet	-3195
▁disg	-3196
▁admir	-3197
▁Olivier	-3198
▁prepared	-3199
▁condition	-3200
▁cool	-3201
▁enorm	-3202
▁speed	-3203
▁consequ	-3204
▁appre	-3205
▁group	-3206
▁advent	-3207
▁softly	-3208
min	-3209
nikov	-3210
▁dawn	-3211
▁blank	-3212
▁err	-3213
▁recall	-3214
▁determined	-3215
lease	-3216
▁Kitty	-3217
▁paused	-3218
umbledore	-3219
▁wonderful	-3220
▁cal	-3221
▁scene	-3222
▁finger	-3223
▁tongue	-3224
▁somehow	-3225
▁trembling	-3226
aker	-3227
illing	-3228
▁Dumbledore	-3229
▁Aly	-3230
▁Lou	-3231
▁sword	-3232
▁leaves	-3233
▁yard	-3234
▁Larry	-3235
▁remind	-3236
▁discovered	-3237
▁ty	-3238
eric	-3239
▁lines	-3240
▁apparent	-3241
▁Mc	-3242
▁gra	-3243
▁sides	-3244
▁Ashley	-3245
iest	-3246
▁uns	-3247
▁busy	-3248
abbitt	-3249
▁affair	-3250
ipe	-3251
ples	-3252
peror	-3253
▁huge	-3254
arrass	-3255
isters	-3256
▁Jamie	-3257
▁smoke	-3258
▁motion	-3259
▁Man	-3260
▁unw	-3261
▁blow	-3262
▁entr	-3263
▁game	-3264
acking	-3265
▁Alexey	-3266
▁stepped	-3267
▁civ	-3268
▁surr	-3269
icated	-3270
▁Mother	-3271
velop	-3272
seless	-3273
▁fever	-3274
▁hidden	-3275
▁prefer	-3276
▁keeping	-3277
The	-3278
osha	-3279
▁gently	-3280
▁unless	-3281
aly	-3282
▁Pl	-3283
atur	-3284
▁Elizab	-3285
▁dreams	-3286
alph	-3287
▁mud	-3288
arily	-3289
▁bought	-3290
▁Alyosha	-3291
oor	-3292
elle	-3293
▁Ant	-3294
▁ben	-3295
▁corr	-3296
▁Would	-3297
▁introd	-3298
▁rolled	-3299
▁Because	-3300
▁burning	-3301
▁convinced	-3302
▁gro	-3303
▁key	-3304
▁virt	-3305
▁anger	-3306
▁accomp	-3307
▁thrown	-3308
▁conduct	-3309
▁instinct	-3310
uls	-3311
▁Any	-3312
▁deg	-3313
▁pop	-3314
oring	-3315
ption	-3316
▁betr	-3317
▁fart	-3318
▁pair	-3319
▁sail	-3320
▁frown	-3321
▁innoc	-3322
▁attack	-3323
▁clearly	-3324
▁Elizabeth	-3325
▁Ralph	-3326
▁report	-3327
▁dull	-3328
ashing	-3329
▁quarter	-3330
▁embarrass	-3331
ogr	-3332
▁taste	-3333
▁Roberta	-3334
net	-3335
▁En	-3336
ables	-3337
▁twice	-3338
▁horror	-3339
▁obliged	-3340
▁particularly	-3341
oe	-3342
reet	-3343
▁Hen	-3344
▁Saint	-3345
▁vague	-3346
▁latter	-3347
▁calling	-3348
▁opening	-3349
▁perform	-3350
▁carrying	-3351
▁contrary	-3352
ts	-3353
▁aud	-3354
▁pal	-3355
▁wet	-3356
▁gest	-3357
▁heat	-3358
▁pros	-3359
▁Rhett	-3360
▁names	-3361
▁Stepan	-3362
▁solemn	-3363
▁servants	-3364
▁Sometimes	-3365
▁satisfied	-3366
ires	-3367
▁gle	-3368
ences	-3369
▁sigh	-3370
▁star	-3371
ocking	-3372
▁familiar	-3373
uke	-3374
oted	-3375
▁fet	-3376
▁inj	-3377
▁Black	-3378
▁Gener	-3379
▁favor	-3380
▁Babbitt	-3381
▁various	-3382
▁disappeared	-3383
▁offer	-3384
▁Princess	-3385
▁vol	-3386
▁flowers	-3387
▁acquaint	-3388
▁directly	-3389
▁la	-3390
▁pit	-3391
▁rag	-3392
▁excit	-3393
▁Americ	-3394
▁coffee	-3395
▁crying	-3396
▁finding	-3397
▁ordered	-3398
▁refused	-3399
▁circumstances	-3400
yed	-3401
▁Bar	-3402
▁dozen	-3403
▁leaned	-3404
▁fifteen	-3405
▁peculiar	-3406
▁personal	-3407
uted	-3408
▁stiff	-3409
▁favour	-3410
▁seated	-3411
▁contempt	-3412
road	-3413
▁Once	-3414
▁worst	-3415
▁building	-3416
▁wid	-3417
▁pill	-3418
▁Ville	-3419
▁franc	-3420
▁employ	-3421
pet	-3422
▁tow	-3423
▁Besides	-3424
▁spirits	-3425
esty	-3426
▁Lady	-3427
▁desk	-3428
▁James	-3429
viously	-3430
▁papers	-3431
▁Den	-3432
ument	-3433
▁comb	-3434
▁dign	-3435
▁intim	-3436
▁spend	-3437
▁lifted	-3438
▁wearing	-3439
anie	-3440
kin	-3441
ights	-3442
▁suit	-3443
▁unex	-3444
▁Uncle	-3445
ral	-3446
ruct	-3447
▁Nich	-3448
▁Charl	-3449
▁witness	-3450
asped	-3451
ealous	-3452
▁sighed	-3453
▁sorrow	-3454
▁fighting	-3455
athy	-3456
▁onto	-3457
▁swift	-3458
iber	-3459
▁aut	-3460
▁cott	-3461
▁square	-3462
▁enormous	-3463
▁stranger	-3464
▁excitement	-3465
▁experience	-3466
▁hy	-3467
gged	-3468
▁gar	-3469
▁hun	-3470
▁slept	-3471
▁cheeks	-3472
▁depend	-3473
▁animals	-3474
▁difference	-3475
bl	-3476
ais	-3477
nes	-3478
▁clo	-3479
▁sin	-3480
▁spl	-3481
▁pure	-3482
▁assist	-3483
▁General	-3484
fa	-3485
▁ec	-3486
What	-3487
ading	-3488
▁mort	-3489
▁dance	-3490
esh	-3491
▁Im	-3492
▁brief	-3493
▁relig	-3494
▁singing	-3495
▁slipped	-3496
lars	-3497
▁distinct	-3498
▁Villefort	-3499
▁delighted	-3500
▁ourselves	-3501
▁interrupted	-3502
▁satisfaction	-3503
amma	-3504
▁mach	-3505
▁sacr	-3506
▁myster	-3507
together	-3508
lend	-3509
oose	-3510
▁bull	-3511
▁educ	-3512
▁reve	-3513
▁clever	-3514
▁vain	-3515
▁advantage	-3516
▁gazed	-3517
ational	-3518
▁England	-3519
▁impression	-3520
cks	-3521
▁Ad	-3522
▁drop	-3523
▁officers	-3524
▁existence	-3525
▁altogether	-3526
▁Gand	-3527
▁emer	-3528
▁hole	-3529
▁spect	-3530
▁pieces	-3531
ex	-3532
irty	-3533
uded	-3534
umph	-3535
▁Aunt	-3536
▁Aure	-3537
ollect	-3538
▁aloud	-3539
▁Sunday	-3540
ids	-3541
▁fish	-3542
▁Aurel	-3543
▁flung	-3544
hens	-3545
riet	-3546
▁Car	-3547
erved	-3548
▁north	-3549
▁throw	-3550
▁curious	-3551
▁language	-3552
zed	-3553
▁Our	-3554
▁cig	-3555
▁loss	-3556
▁handed	-3557
▁lights	-3558
▁Dad	-3559
▁Eur	-3560
▁hit	-3561
▁While	-3562
▁cheek	-3563
▁drunk	-3564
▁Before	-3565
▁weather	-3566
▁greatest	-3567
▁occurred	-3568
▁approached	-3569
▁pin	-3570
▁wed	-3571
▁beast	-3572
▁unable	-3573
▁Melanie	-3574
go	-3575
uish	-3576
amber	-3577
▁mood	-3578
▁distr	-3579
▁ended	-3580
▁pause	-3581
▁demons	-3582
▁Gandalf	-3583
dom	-3584
▁bod	-3585
astic	-3586
▁band	-3587
▁main	-3588
▁poet	-3589
▁supper	-3590
ept	-3591
era	-3592
anab	-3593
▁Cas	-3594
▁Edm	-3595
▁rise	-3596
▁rough	-3597
▁bottle	-3598
▁inquir	-3599
▁regret	-3600
▁usually	-3601
▁dangerous	-3602
▁confidence	-3603
▁cow	-3604
umble	-3605
▁ener	-3606
▁west	-3607
inging	-3608
▁south	-3609
▁trick	-3610
▁affairs	-3611
▁control	-3612
▁emotion	-3613
▁recognized	-3614
▁loc	-3615
▁rub	-3616
▁More	-3617
▁Aureliano	-3618
▁mentioned	-3619
igg	-3620
ival	-3621
▁boots	-3622
▁cruel	-3623
▁shape	-3624
▁thrust	-3625
▁mistake	-3626
▁sen	-3627
▁tiny	-3628
anabus	-3629
▁helped	-3630
▁nervous	-3631
▁relation	-3632
▁Beranabus	-3633
ram	-3634
▁Sud	-3635
▁Mont	-3636
▁Nick	-3637
▁francs	-3638
▁rushed	-3639
▁jealous	-3640
▁Ivanovna	-3641
ux	-3642
iths	-3643
▁mix	-3644
aud	-3645
▁east	-3646
▁desce	-3647
▁hotel	-3648
▁invol	-3649
▁space	-3650
▁forest	-3651
udd	-3652
▁ca	-3653
burg	-3654
udge	-3655
▁deb	-3656
▁yards	-3657
▁splend	-3658
ki	-3659
aya	-3660
▁mal	-3661
▁worn	-3662
orough	-3663
▁consci	-3664
▁murmured	-3665
▁information	-3666
'.	-3667
my	-3668
ye	-3669
hin	-3670
chie	-3671
▁grat	-3672
▁trem	-3673
▁tonight	-3674
sy	-3675
othy	-3676
▁Ren	-3677
askol	-3678
▁vent	-3679
▁woods	-3680
▁Raskol	-3681
▁Though	-3682
▁unhappy	-3683
▁suffered	-3684
▁recollect	-3685
▁Raskolnikov	-3686
omin	-3687
▁elect	-3688
▁wounded	-3689
anda	-3690
rent	-3691
known	-3692
▁elder	-3693
▁hoped	-3694
▁forgive	-3695
▁unexpected	-3696
you	-3697
aret	-3698
ette	-3699
▁Bul	-3700
▁Eve	-3701
▁pot	-3702
▁maid	-3703
▁shru	-3704
▁thee	-3705
▁admit	-3706
onsense	-3707
▁understanding	-3708
eds	-3709
ify	-3710
denly	-3711
▁orig	-3712
▁coach	-3713
▁shoes	-3714
▁storm	-3715
athered	-3716
▁social	-3717
aza	-3718
ium	-3719
aling	-3720
gress	-3721
▁ease	-3722
▁vast	-3723
▁David	-3724
▁posit	-3725
▁problem	-3726
▁princess	-3727
▁bas	-3728
antic	-3729
▁Craw	-3730
▁oper	-3731
▁tent	-3732
▁awful	-3733
▁knife	-3734
▁cousin	-3735
asing	-3736
▁fier	-3737
▁blame	-3738
▁ignor	-3739
▁older	-3740
▁weight	-3741
▁matters	-3742
▁soldier	-3743
▁dreadful	-3744
▁entrance	-3745
▁wel	-3746
▁Loss	-3747
▁birth	-3748
▁guests	-3749
▁served	-3750
▁distant	-3751
▁Gu	-3752
▁Pav	-3753
asper	-3754
▁Henry	-3755
▁Peter	-3756
▁avoid	-3757
▁closer	-3758
▁relief	-3759
▁stayed	-3760
▁Nicholas	-3761
llen	-3762
▁yours	-3763
▁sevent	-3764
▁sounds	-3765
▁showing	-3766
▁support	-3767
▁absolutely	-3768
▁Alexandrovitch	-3769
iles	-3770
▁Sna	-3771
ishop	-3772
▁exha	-3773
▁lies	-3774
▁freed	-3775
▁grief	-3776
▁circle	-3777
aily	-3778
arse	-3779
anglars	-3780
▁excellent	-3781
▁stretched	-3782
▁interesting	-3783
asons	-3784
▁Rose	-3785
▁crit	-3786
▁gaze	-3787
evitch	-3788
▁anyway	-3789
▁pounds	-3790
▁Suddenly	-3791
pir	-3792
ivid	-3793
uses	-3794
▁Ark	-3795
▁Bor	-3796
▁tot	-3797
ardon	-3798
▁rare	-3799
iosity	-3800
▁Snape	-3801
▁caused	-3802
▁priest	-3803
rom	-3804
umn	-3805
port	-3806
board	-3807
▁Like	-3808
▁hero	-3809
▁hers	-3810
▁impro	-3811
▁takes	-3812
▁Doctor	-3813
▁Danglars	-3814
▁Everything	-3815
we	-3816
oly	-3817
hest	-3818
ours	-3819
alley	-3820
▁Dant	-3821
▁Take	-3822
▁aband	-3823
▁estab	-3824
▁flesh	-3825
▁superior	-3826
▁Joe	-3827
▁See	-3828
▁wra	-3829
asley	-3830
▁locked	-3831
▁hanging	-3832
▁charming	-3833
cil	-3834
▁Church	-3835
▁Europe	-3836
▁possibly	-3837
ourn	-3838
▁Pot	-3839
▁aim	-3840
▁fields	-3841
▁forgot	-3842
▁search	-3843
key	-3844
▁false	-3845
▁Emperor	-3846
▁accident	-3847
OU	-3848
rie	-3849
▁stare	-3850
▁lovely	-3851
▁Dorothy	-3852
▁managed	-3853
▁sleeping	-3854
▁wretched	-3855
▁Sy	-3856
stro	-3857
▁Ath	-3858
▁elb	-3859
itions	-3860
▁judge	-3861
ception	-3862
▁unknown	-3863
hov	-3864
iod	-3865
▁Gl	-3866
stone	-3867
▁Such	-3868
▁bore	-3869
▁ride	-3870
what	-3871
▁pra	-3872
ipping	-3873
▁Flore	-3874
▁animal	-3875
igned	-3876
▁depth	-3877
▁loose	-3878
▁triumph	-3879
▁cop	-3880
arling	-3881
▁Alice	-3882
▁Thank	-3883
▁bowed	-3884
▁frequ	-3885
▁charge	-3886
▁island	-3887
▁Colonel	-3888
▁curiosity	-3889
pap	-3890
▁THE	-3891
▁rate	-3892
▁noble	-3893
agement	-3894
▁double	-3895
▁influence	-3896
No	-3897
▁Ari	-3898
▁Get	-3899
▁beard	-3900
▁repro	-3901
▁Little	-3902
▁extraord	-3903
▁pointing	-3904
▁wondering	-3905
ocks	-3906
ivered	-3907
▁truck	-3908
iffiths	-3909
▁curtain	-3910
▁leaning	-3911
▁according	-3912
ham	-3913
!...	-3914
▁due	-3915
iform	-3916
▁dared	-3917
▁grace	-3918
▁hated	-3919
▁bridge	-3920
▁interv	-3921
li	-3922
rily	-3923
▁Ste	-3924
▁lord	-3925
▁Arkady	-3926
▁period	-3927
▁receive	-3928
aba	-3929
▁ban	-3930
oused	-3931
▁Jeff	-3932
▁diss	-3933
▁ment	-3934
▁Monte	-3935
▁brill	-3936
▁farther	-3937
▁shadows	-3938
▁Crawford	-3939
▁coo	-3940
▁Louis	-3941
▁higher	-3942
▁joined	-3943
onia	-3944
▁sav	-3945
▁tail	-3946
▁South	-3947
▁stair	-3948
▁uniform	-3949
acle	-3950
cles	-3951
erty	-3952
fortun	-3953
▁grate	-3954
▁spell	-3955
▁hungry	-3956
▁thorough	-3957
cer	-3958
▁Yan	-3959
▁rum	-3960
▁Comm	-3961
▁deeply	-3962
▁suffic	-3963
▁uttered	-3964
▁horrible	-3965
uzz	-3966
▁Nik	-3967
▁bal	-3968
▁pig	-3969
father	-3970
▁cloak	-3971
▁waist	-3972
▁nearer	-3973
▁breaking	-3974
▁friendly	-3975
▁pictures	-3976
▁acquaintance	-3977
▁Cad	-3978
▁cred	-3979
▁confused	-3980
▁prisoner	-3981
▁comfortable	-3982
case	-3983
ompl	-3984
▁Old	-3985
▁mas	-3986
aubon	-3987
▁sear	-3988
▁develop	-3989
▁leading	-3990
▁gathered	-3991
▁friendship	-3992
omb	-3993
▁Pol	-3994
▁Sch	-3995
while	-3996
▁race	-3997
▁lunch	-3998
▁dining	-3999
▁engaged	-4000
▁accepted	-4001
▁inquired	-4002
▁upstairs	-4003
▁succeeded	-4004
▁Pavl	-4005
▁grad	-4006
▁built	-4007
▁repres	-4008
▁wooden	-4009
▁somebody	-4010
▁Bel	-4011
▁thy	-4012
aches	-4013
enance	-4014
strode	-4015
▁Still	-4016
▁saved	-4017
▁formed	-4018
▁Weasley	-4019
▁regular	-4020
▁sounded	-4021
▁arranged	-4022
▁Su	-4023
▁Sure	-4024
▁cart	-4025
▁writ	-4026
▁civil	-4027
▁match	-4028
▁advice	-4029
ma	-4030
ula	-4031
▁gh	-4032
ointed	-4033
▁Gould	-4034
▁artic	-4035
▁sheep	-4036
▁Dantes	-4037
▁Griffiths	-4038
▁otherwise	-4039
▁government	-4040
olt	-4041
usi	-4042
▁Ra	-4043
mist	-4044
urse	-4045
▁Had	-4046
▁rad	-4047
aries	-4048
▁exec	-4049
▁wolf	-4050
▁whist	-4051
▁smooth	-4052
▁retreat	-4053
▁demanded	-4054
▁fil	-4055
▁test	-4056
theless	-4057
▁events	-4058
▁peasant	-4059
▁sisters	-4060
▁stories	-4061
▁ing	-4062
▁Ariza	-4063
▁final	-4064
▁proof	-4065
▁indign	-4066
▁stones	-4067
▁foolish	-4068
▁accompan	-4069
▁lar	-4070
▁unb	-4071
erent	-4072
▁organ	-4073
▁shoot	-4074
▁stars	-4075
▁dancing	-4076
▁earnest	-4077
▁cheerful	-4078
▁silently	-4079
▁z	-4080
▁bew	-4081
▁earl	-4082
▁wheel	-4083
▁intended	-4084
▁miserable	-4085
▁seriously	-4086
for	-4087
▁King	-4088
▁Paul	-4089
▁Pres	-4090
▁bath	-4091
▁annoy	-4092
▁prove	-4093
▁excuse	-4094
▁willing	-4095
wood	-4096
kward	-4097
▁suggest	-4098
cad	-4099
isc	-4100
▁gay	-4101
▁vig	-4102
▁Three	-4103
▁stern	-4104
▁accompl	-4105
▁persons	-4106
▁reality	-4107
▁becoming	-4108
omes	-4109
risto	-4110
▁Bert	-4111
▁absurd	-4112
▁buried	-4113
▁Bulstrode	-4114
▁suggested	-4115
that	-4116
▁enth	-4117
▁fate	-4118
▁rejo	-4119
▁dirty	-4120
▁ceased	-4121
▁awkward	-4122
▁respons	-4123
▁presented	-4124
ule	-4125
ints	-4126
▁bold	-4127
▁jack	-4128
▁lear	-4129
▁Athos	-4130
▁queen	-4131
▁vision	-4132
Yes	-4133
zing	-4134
▁ice	-4135
erous	-4136
▁Carl	-4137
▁chin	-4138
▁exch	-4139
▁join	-4140
▁magn	-4141
▁stat	-4142
▁Roman	-4143
ability	-4144
▁Cristo	-4145
▁jumped	-4146
▁hospital	-4147
▁everywhere	-4148
ache	-4149
▁card	-4150
▁parl	-4151
▁rang	-4152
▁flying	-4153
▁riding	-4154
▁stream	-4155
▁justice	-4156
▁consciousness	-4157
asm	-4158
oops	-4159
▁wise	-4160
▁White	-4161
▁color	-4162
▁nights	-4163
▁undert	-4164
▁wealth	-4165
▁worried	-4166
▁mistress	-4167
▁nonsense	-4168
▁entertain	-4169
.;	-4170
uing	-4171
▁Eug	-4172
▁flew	-4173
▁sofa	-4174
acious	-4175
anting	-4176
▁Yanke	-4177
▁Peters	-4178
▁murder	-4179
▁uncons	-4180
▁enthusi	-4181
▁younger	-4182
▁Rosamond	-4183
▁anywhere	-4184
▁concerned	-4185
▁Arkadyevitch	-4186
ming	-4187
with	-4188
▁caut	-4189
▁clut	-4190
▁hills	-4191
▁shock	-4192
▁shore	-4193
▁eating	-4194
kerchief	-4195
▁Florent	-4196
▁drinking	-4197
▁mysterious	-4198
▁Jul	-4199
▁embr	-4200
▁norm	-4201
ivering	-4202
▁corrid	-4203
▁explan	-4204
▁freedom	-4205
▁handkerchief	-4206
elt	-4207
ulf	-4208
▁Fin	-4209
▁stom	-4210
▁works	-4211
umbling	-4212
▁People	-4213
▁choice	-4214
▁ordinary	-4215
pse	-4216
hold	-4217
▁que	-4218
▁murd	-4219
▁midst	-4220
▁kindly	-4221
▁sooner	-4222
▁setting	-4223
▁shouting	-4224
ok	-4225
sed	-4226
aved	-4227
ring	-4228
ember	-4229
▁claim	-4230
▁haste	-4231
▁misery	-4232
▁possessed	-4233
iven	-4234
▁Luc	-4235
▁dism	-4236
▁Those	-4237
▁equal	-4238
▁candle	-4239
▁gazing	-4240
▁forever	-4241
▁newspap	-4242
▁relations	-4243
▁?	-4244
erc	-4245
▁amb	-4246
▁wip	-4247
▁Cour	-4248
▁moral	-4249
▁notes	-4250
▁stock	-4251
▁hearts	-4252
▁knocked	-4253
▁stomach	-4254
▁kindness	-4255
▁property	-4256
▁companion	-4257
HA	-4258
IN	-4259
cip	-4260
▁Jim	-4261
▁Meg	-4262
ially	-4263
iddle	-4264
▁gift	-4265
▁rage	-4266
▁importance	-4267
ooke	-4268
alfoy	-4269
aping	-4270
urity	-4271
▁inde	-4272
▁Great	-4273
▁Nikol	-4274
▁shown	-4275
▁swall	-4276
ancholy	-4277
▁famous	-4278
▁thinks	-4279
▁correct	-4280
▁dignity	-4281
▁process	-4282
▁instantly	-4283
▁apparently	-4284
▁conscience	-4285
▁Jew	-4286
▁faced	-4287
▁Malfoy	-4288
▁failed	-4289
▁reckon	-4290
▁capital	-4291
▁decision	-4292
▁imagination	-4293
▁Ser	-4294
▁crim	-4295
▁clouds	-4296
▁encour	-4297
▁valley	-4298
▁absence	-4299
▁driving	-4300
▁insisted	-4301
▁Long	-4302
▁Thom	-4303
ndered	-4304
▁level	-4305
▁withd	-4306
▁Please	-4307
▁firmly	-4308
▁instance	-4309
▁precious	-4310
▁melancholy	-4311
ocr	-4312
ancy	-4313
istic	-4314
▁sell	-4315
▁task	-4316
▁chairs	-4317
▁arrival	-4318
▁profound	-4319
▁phr	-4320
cient	-4321
▁rust	-4322
mitted	-4323
▁benef	-4324
▁mater	-4325
▁plans	-4326
▁abrupt	-4327
▁golden	-4328
▁anxiety	-4329
▁proceed	-4330
▁Florentino	-4331
iday	-4332
odor	-4333
ouch	-4334
▁Isab	-4335
▁barr	-4336
▁obst	-4337
▁pist	-4338
▁sank	-4339
▁Street	-4340
▁attent	-4341
▁libert	-4342
▁disting	-4343
▁extraordinary	-4344
,;	-4345
▁Sw	-4346
aval	-4347
elly	-4348
keep	-4349
quis	-4350
▁Dar	-4351
ifice	-4352
▁comr	-4353
▁weary	-4354
▁teleph	-4355
▁chamber	-4356
▁reasons	-4357
▁imagined	-4358
▁resolved	-4359
▁troubled	-4360
iam	-4361
sec	-4362
▁Fy	-4363
otty	-4364
▁Nor	-4365
▁arrest	-4366
▁height	-4367
▁loving	-4368
▁resist	-4369
ointment	-4370
▁careful	-4371
▁wedding	-4372
▁intention	-4373
vy	-4374
mas	-4375
▁Hog	-4376
▁inh	-4377
▁sty	-4378
ample	-4379
▁echo	-4380
▁lone	-4381
▁clock	-4382
▁crime	-4383
▁gives	-4384
▁greet	-4385
▁burned	-4386
▁mighty	-4387
▁princip	-4388
▁removed	-4389
▁Ye	-4390
bing	-4391
▁Mum	-4392
cking	-4393
▁Wood	-4394
▁surf	-4395
omfort	-4396
▁fully	-4397
▁needs	-4398
▁restr	-4399
▁Fyodor	-4400
▁flight	-4401
▁uneasy	-4402
▁worthy	-4403
▁Harriet	-4404
▁teacher	-4405
▁breathing	-4406
▁fer	-4407
orous	-4408
▁bird	-4409
▁pink	-4410
▁sour	-4411
▁minds	-4412
▁hollow	-4413
▁confess	-4414
▁violent	-4415
ills	-4416
▁reb	-4417
ivity	-4418
ensive	-4419
▁Jacob	-4420
▁tempt	-4421
▁begged	-4422
▁Casaubon	-4423
▁produced	-4424
▁sympathy	-4425
▁rul	-4426
iture	-4427
▁desired	-4428
▁painful	-4429
▁rapidly	-4430
▁worship	-4431
▁experien	-4432
▁occupied	-4433
TER	-4434
onc	-4435
rey	-4436
▁ta	-4437
▁bree	-4438
▁check	-4439
▁ident	-4440
▁turns	-4441
▁shining	-4442
▁whenever	-4443
▁addressed	-4444
▁announced	-4445
ales	-4446
▁rib	-4447
stand	-4448
▁guns	-4449
▁amuse	-4450
▁drown	-4451
▁paint	-4452
▁signs	-4453
▁afford	-4454
▁degree	-4455
▁declared	-4456
▁powerful	-4457
▁stronger	-4458
▁naturally	-4459
aws	-4460
rier	-4461
▁Kut	-4462
iance	-4463
▁phil	-4464
▁silly	-4465
▁feared	-4466
▁Thenard	-4467
▁innocent	-4468
ounce	-4469
▁Dmit	-4470
ustomed	-4471
▁gallop	-4472
▁pistol	-4473
▁sought	-4474
▁Another	-4475
▁visible	-4476
▁military	-4477
▁expressed	-4478
▁countenance	-4479
▁Most	-4480
▁bless	-4481
▁spare	-4482
▁terms	-4483
▁energy	-4484
▁market	-4485
▁beating	-4486
▁manners	-4487
ailed	-4488
▁judg	-4489
▁tied	-4490
▁strang	-4491
▁travel	-4492
▁generally	-4493
He	-4494
nor	-4495
irst	-4496
▁sum	-4497
pless	-4498
▁Grand	-4499
▁nurse	-4500
▁assure	-4501
▁proved	-4502
▁lighted	-4503
▁mounted	-4504
▁profession	-4505
▁ep	-4506
▁oh	-4507
▁Rem	-4508
▁ate	-4509
▁sew	-4510
eding	-4511
ilies	-4512
▁hang	-4513
▁size	-4514
▁funny	-4515
▁plate	-4516
▁straw	-4517
▁swear	-4518
▁Harold	-4519
▁invent	-4520
▁possess	-4521
▁Bo	-4522
▁Amy	-4523
▁cas	-4524
ethod	-4525
▁palm	-4526
racted	-4527
▁value	-4528
▁points	-4529
▁portra	-4530
▁machine	-4531
▁evidence	-4532
▁Petersburg	-4533
▁tur	-4534
▁craw	-4535
▁keen	-4536
▁libr	-4537
▁numb	-4538
▁birds	-4539
▁raise	-4540
▁refuse	-4541
▁bringing	-4542
▁struggle	-4543
▁treasure	-4544
sc	-4545
▁Est	-4546
▁Mat	-4547
ifted	-4548
right	-4549
▁Grig	-4550
▁Marg	-4551
▁toss	-4552
▁achie	-4553
ication	-4554
▁marked	-4555
aughters	-4556
▁immense	-4557
▁thunder	-4558
▁useless	-4559
▁utterly	-4560
▁extremely	-4561
por	-4562
sky	-4563
▁sne	-4564
▁gets	-4565
▁gown	-4566
▁phot	-4567
▁relie	-4568
▁Petrov	-4569
▁pardon	-4570
▁strike	-4571
▁climbed	-4572
▁attitude	-4573
▁material	-4574
ads	-4575
bid	-4576
iable	-4577
▁Tony	-4578
▁dont	-4579
▁parts	-4580
▁Grigory	-4581
▁advance	-4582
▁discover	-4583
▁remarked	-4584
▁grandfather	-4585
ilty	-4586
isle	-4587
itive	-4588
▁torn	-4589
▁crown	-4590
▁Dmitri	-4591
▁contact	-4592
▁darling	-4593
bby	-4594
anch	-4595
omed	-4596
▁dig	-4597
bbing	-4598
▁seek	-4599
▁slee	-4600
▁badly	-4601
▁exerc	-4602
▁shade	-4603
▁flower	-4604
▁fought	-4605
▁gather	-4606
▁taught	-4607
▁thanks	-4608
▁million	-4609
▁advanced	-4610
▁dressing	-4611
low	-4612
▁Py	-4613
onya	-4614
osen	-4615
agger	-4616
▁Daza	-4617
▁Dick	-4618
▁aren	-4619
ouring	-4620
▁yield	-4621
▁amount	-4622
▁missed	-4623
▁independ	-4624
atch	-4625
ulse	-4626
▁ess	-4627
▁absor	-4628
▁upset	-4629
ceiving	-4630
▁troops	-4631
▁ancient	-4632
esm	-4633
▁Ja	-4634
isal	-4635
▁Pegg	-4636
▁capt	-4637
▁grim	-4638
▁ruin	-4639
▁folks	-4640
▁waste	-4641
▁chosen	-4642
▁driven	-4643
▁dragged	-4644
▁brilliant	-4645
off	-4646
coat	-4647
▁Bet	-4648
▁lin	-4649
▁shy	-4650
chant	-4651
eston	-4652
▁appl	-4653
▁knee	-4654
ements	-4655
▁labor	-4656
▁interp	-4657
▁severe	-4658
▁neighbor	-4659
▁Up	-4660
▁egg	-4661
▁unl	-4662
▁wiz	-4663
ander	-4664
▁Aust	-4665
▁Brooke	-4666
▁Indeed	-4667
▁Potter	-4668
▁gloomy	-4669
▁helpless	-4670
▁somewhat	-4671
▁vanished	-4672
▁adventure	-4673
▁prisoners	-4674
osop	-4675
▁meat	-4676
▁myst	-4677
▁roll	-4678
apping	-4679
iments	-4680
▁Again	-4681
▁escaped	-4682
▁liberty	-4683
▁prospect	-4684
▁creatures	-4685
▁connection	-4686
entr	-4687
uzov	-4688
▁Hall	-4689
▁Poor	-4690
▁North	-4691
▁brave	-4692
▁maint	-4693
▁Nikolay	-4694
▁deliber	-4695
▁unpleas	-4696
▁wrapped	-4697
▁Margaret	-4698
▁previous	-4699
amps	-4700
arty	-4701
chan	-4702
oche	-4703
resh	-4704
▁sna	-4705
▁mirr	-4706
lished	-4707
▁imper	-4708
▁counter	-4709
▁letting	-4710
▁Peggotty	-4711
▁belonged	-4712
▁desperate	-4713
▁staircase	-4714
▁possession	-4715
We	-4716
irm	-4717
▁neat	-4718
▁obsc	-4719
▁March	-4720
▁hopes	-4721
▁Having	-4722
▁Morrel	-4723
▁capable	-4724
▁details	-4725
▁hastily	-4726
▁countess	-4727
▁official	-4728
▁peasants	-4729
▁Alexandra	-4730
▁Something	-4731
▁daughters	-4732
▁Ev	-4733
Well	-4734
ilar	-4735
▁der	-4736
▁wag	-4737
ulous	-4738
▁liter	-4739
▁finish	-4740
▁useful	-4741
▁foreign	-4742
▁shouldn	-4743
▁hesitated	-4744
▁perceived	-4745
▁uncertain	-4746
▁surrounded	-4747
step	-4748
emois	-4749
▁hobb	-4750
▁wave	-4751
▁named	-4752
▁earlier	-4753
uts	-4754
ikes	-4755
▁Com	-4756
▁Men	-4757
eless	-4758
▁cook	-4759
entine	-4760
▁choose	-4761
▁guilty	-4762
▁plenty	-4763
▁Kutuzov	-4764
▁gesture	-4765
emoiselle	-4766
▁splendid	-4767
▁expecting	-4768
▁indifferent	-4769
▁Ahab	-4770
▁Next	-4771
▁lamp	-4772
▁risk	-4773
▁displ	-4774
▁serve	-4775
▁style	-4776
▁Feisal	-4777
▁grateful	-4778
▁mountain	-4779
▁agreeable	-4780
▁sex	-4781
icing	-4782
▁feat	-4783
▁mile	-4784
▁page	-4785
▁House	-4786
▁ghost	-4787
▁stead	-4788
▁stuck	-4789
▁wound	-4790
▁loudly	-4791
▁assured	-4792
▁library	-4793
▁district	-4794
phe	-4795
▁ug	-4796
stem	-4797
▁joke	-4798
▁lock	-4799
▁crazy	-4800
▁eleven	-4801
▁seeking	-4802
▁progress	-4803
▁pron	-4804
▁silk	-4805
▁clerk	-4806
▁cries	-4807
▁naked	-4808
▁bodies	-4809
▁lonely	-4810
▁invited	-4811
▁distress	-4812
▁Thenardier	-4813
▁approaching	-4814
▁continually	-4815
▁McG	-4816
acles	-4817
otted	-4818
▁Mamm	-4819
▁memb	-4820
uments	-4821
▁agony	-4822
▁chain	-4823
▁Thomas	-4824
▁hiding	-4825
▁pulling	-4826
▁gradually	-4827
ana	-4828
idd	-4829
▁Jos	-4830
▁nin	-4831
▁Turks	-4832
▁cared	-4833
▁Edmund	-4834
▁Eugene	-4835
▁surely	-4836
▁Charlie	-4837
▁diamond	-4838
▁painted	-4839
▁surface	-4840
▁informed	-4841
etr	-4842
▁adj	-4843
▁jew	-4844
ippin	-4845
▁queer	-4846
▁teach	-4847
▁credit	-4848
▁hatred	-4849
▁method	-4850
attering	-4851
▁welcome	-4852
▁mistaken	-4853
▁obviously	-4854
▁consequence	-4855
▁intelligence	-4856
But	-4857
oes	-4858
▁Rome	-4859
orthos	-4860
▁Sonya	-4861
▁brand	-4862
▁march	-4863
▁price	-4864
▁sorts	-4865
▁sprang	-4866
▁Porthos	-4867
▁individ	-4868
▁precise	-4869
▁seconds	-4870
▁twisted	-4871
▁touching	-4872
Oh	-4873
ras	-4874
ifle	-4875
atched	-4876
▁facts	-4877
utation	-4878
▁Pippin	-4879
▁angrily	-4880
▁fellows	-4881
▁concentr	-4882
▁delicate	-4883
▁midnight	-4884
▁signific	-4885
And	-4886
▁Ke	-4887
iece	-4888
▁Wil	-4889
▁bul	-4890
▁cro	-4891
▁iss	-4892
▁lan	-4893
icken	-4894
▁Baba	-4895
▁Fern	-4896
▁amid	-4897
▁arch	-4898
▁wake	-4899
▁weap	-4900
ainted	-4901
iverse	-4902
▁Darcy	-4903
▁scent	-4904
▁truly	-4905
▁Master	-4906
▁knight	-4907
▁content	-4908
▁crowded	-4909
▁leather	-4910
▁confusion	-4911
▁furniture	-4912
▁political	-4913
▁suspicion	-4914
icip	-4915
▁CHA	-4916
▁Sil	-4917
▁jer	-4918
▁row	-4919
▁impl	-4920
▁Denis	-4921
▁shake	-4922
itating	-4923
▁defend	-4924
▁fourth	-4925
▁manage	-4926
▁greatly	-4927
▁brothers	-4928
▁definite	-4929
▁weakness	-4930
▁Christian	-4931
▁Christmas	-4932
▁education	-4933
▁explanation	-4934
oci	-4935
eral	-4936
acity	-4937
cliff	-4938
erves	-4939
▁Give	-4940
▁chap	-4941
▁puzz	-4942
▁trip	-4943
ifying	-4944
mother	-4945
▁cabin	-4946
▁drank	-4947
▁flood	-4948
▁bearing	-4949
▁torment	-4950
▁sacrifice	-4951
▁accustomed	-4952
tle	-4953
anned	-4954
▁Brit	-4955
▁chim	-4956
▁Arcad	-4957
▁eyebr	-4958
▁bewild	-4959
▁bother	-4960
▁glasses	-4961
▁heavily	-4962
▁highest	-4963
▁members	-4964
▁wanting	-4965
▁deserted	-4966
nie	-4967
▁Ro	-4968
▁Pad	-4969
▁aid	-4970
▁dom	-4971
▁buck	-4972
▁lack	-4973
▁shel	-4974
▁overw	-4975
ization	-4976
▁mental	-4977
▁compass	-4978
▁example	-4979
▁monster	-4980
▁raising	-4981
▁realize	-4982
▁sharply	-4983
▁admitted	-4984
▁Alexandrovna	-4985
azar	-4986
arted	-4987
atory	-4988
keeper	-4989
▁Grace	-4990
▁Merry	-4991
▁Albert	-4992
▁normal	-4993
▁departure	-4994
▁companions	-4995
onna	-4996
amped	-4997
▁brow	-4998
▁lawy	-4999
▁obey	-5000
▁Could	-5001
▁Since	-5002
▁trous	-5003
▁engine	-5004
▁system	-5005
▁Arcadio	-5006
▁cutting	-5007
▁guessed	-5008
▁intense	-5009
▁lightly	-5010
▁families	-5011
▁physical	-5012
▁mountains	-5013
▁admiration	-5014
fl	-5015
bour	-5016
▁lip	-5017
▁Arag	-5018
▁cars	-5019
▁meas	-5020
▁pipe	-5021
▁lover	-5022
▁Strick	-5023
▁saddle	-5024
▁settle	-5025
▁reminded	-5026
▁Valentine	-5027
▁Ferm	-5028
▁slip	-5029
isting	-5030
▁polite	-5031
▁Fermina	-5032
▁evident	-5033
▁regiment	-5034
▁returning	-5035
▁Strickland	-5036
gey	-5037
agin	-5038
▁trib	-5039
uished	-5040
ulated	-5041
▁Heath	-5042
▁Satur	-5043
▁piano	-5044
▁shone	-5045
▁depths	-5046
▁fortun	-5047
▁observ	-5048
▁examined	-5049
▁instruct	-5050
aco	-5051
ese	-5052
otr	-5053
reen	-5054
▁Atl	-5055
▁Its	-5056
▁Inst	-5057
▁rush	-5058
▁bones	-5059
ounding	-5060
▁compre	-5061
▁appreci	-5062
▁treated	-5063
▁Saturday	-5064
▁corridor	-5065
▁apartment	-5066
▁thoroughly	-5067
unn	-5068
fall	-5069
▁Jun	-5070
▁daz	-5071
▁pace	-5072
▁pool	-5073
▁frank	-5074
▁porch	-5075
ilities	-5076
▁appeal	-5077
▁butter	-5078
▁folded	-5079
▁handle	-5080
▁losing	-5081
▁thread	-5082
▁resumed	-5083
▁philosop	-5084
▁Mademoiselle	-5085
',	-5086
akov	-5087
hern	-5088
unted	-5089
▁hind	-5090
▁laws	-5091
▁bored	-5092
▁etern	-5093
▁ideal	-5094
▁loves	-5095
▁staff	-5096
▁stage	-5097
▁upper	-5098
▁Heaven	-5099
▁Javert	-5100
▁castle	-5101
▁convent	-5102
▁furious	-5103
▁message	-5104
▁uncomfort	-5105
▁tenderness	-5106
kay	-5107
ped	-5108
avel	-5109
▁bon	-5110
▁log	-5111
▁vac	-5112
warts	-5113
▁nois	-5114
▁tick	-5115
▁awake	-5116
▁champ	-5117
▁cloth	-5118
▁conqu	-5119
▁novel	-5120
mission	-5121
▁abroad	-5122
▁century	-5123
▁efforts	-5124
▁parties	-5125
▁wishing	-5126
▁Heathcliff	-5127
▁individual	-5128
▁unpleasant	-5129
▁astonishment	-5130
ante	-5131
illa	-5132
▁bye	-5133
▁List	-5134
▁cord	-5135
▁flash	-5136
▁Russia	-5137
▁resemb	-5138
lessness	-5139
▁disgust	-5140
▁memories	-5141
▁required	-5142
▁starting	-5143
ON	-5144
gin	-5145
erem	-5146
ldom	-5147
▁ack	-5148
▁vex	-5149
rsula	-5150
▁spec	-5151
isible	-5152
oubles	-5153
▁crack	-5154
▁motionless	-5155
II	-5156
loy	-5157
mer	-5158
ums	-5159
cent	-5160
▁eyed	-5161
▁fasc	-5162
▁rubb	-5163
▁glory	-5164
▁sixty	-5165
▁calcul	-5166
▁genius	-5167
▁headed	-5168
▁commander	-5169
▁disappear	-5170
enge	-5171
▁Bon	-5172
▁Nad	-5173
▁fee	-5174
▁unus	-5175
ential	-5176
inated	-5177
▁Mason	-5178
▁disag	-5179
▁swell	-5180
▁acknow	-5181
▁extend	-5182
▁closely	-5183
▁ridicul	-5184
▁swiftly	-5185
▁Carlisle	-5186
Th	-5187
mes	-5188
▁eh	-5189
hand	-5190
thur	-5191
▁Nast	-5192
▁glim	-5193
▁ming	-5194
▁pier	-5195
▁rule	-5196
▁shed	-5197
ruction	-5198
▁lesson	-5199
▁savage	-5200
▁wishes	-5201
▁entering	-5202
▁practice	-5203
▁properly	-5204
▁exhausted	-5205
▁accompanied	-5206
AN	-5207
yn	-5208
▁Co	-5209
resp	-5210
▁Dro	-5211
▁Far	-5212
▁Mac	-5213
▁vic	-5214
aging	-5215
place	-5216
▁Fang	-5217
▁club	-5218
▁inev	-5219
▁About	-5220
▁solid	-5221
▁uneas	-5222
▁Aragorn	-5223
▁eagerly	-5224
▁Hogwarts	-5225
omen	-5226
▁Mag	-5227
▁ple	-5228
▁inex	-5229
▁Pyotr	-5230
▁sweat	-5231
▁colour	-5232
▁William	-5233
▁shrugged	-5234
▁necessity	-5235
EN	-5236
ique	-5237
itor	-5238
▁hed	-5239
athed	-5240
esmee	-5241
▁Each	-5242
ograph	-5243
▁toler	-5244
ulation	-5245
▁Arthur	-5246
▁condem	-5247
▁highly	-5248
▁humili	-5249
▁recalled	-5250
▁telephone	-5251
ode	-5252
more	-5253
hetic	-5254
▁Ital	-5255
▁flut	-5256
▁rapid	-5257
▁bloody	-5258
▁steady	-5259
▁Denisov	-5260
▁enjoyed	-5261
▁roubles	-5262
▁universe	-5263
▁terrified	-5264
gu	-5265
fax	-5266
cast	-5267
▁Bil	-5268
▁Rep	-5269
▁kid	-5270
▁Sond	-5271
▁damp	-5272
▁powd	-5273
▁groan	-5274
▁collar	-5275
▁hoping	-5276
▁figures	-5277
▁quality	-5278
▁stirred	-5279
▁victory	-5280
▁sentence	-5281
▁trembled	-5282
▁thousands	-5283
apt	-5284
▁du	-5285
ilda	-5286
▁Fau	-5287
▁Dear	-5288
▁Wait	-5289
▁eleg	-5290
▁flag	-5291
▁unre	-5292
▁First	-5293
▁daily	-5294
▁conceal	-5295
▁illness	-5296
▁obvious	-5297
▁request	-5298
▁Renesmee	-5299
▁inclined	-5300
▁infinite	-5301
▁concealed	-5302
▁conviction	-5303
▁Er	-5304
That	-5305
work	-5306
▁End	-5307
▁awa	-5308
▁Under	-5309
▁bench	-5310
▁coast	-5311
▁phone	-5312
▁arrang	-5313
▁consid	-5314
▁contem	-5315
▁seldom	-5316
▁univers	-5317
▁judgment	-5318
▁overwhel	-5319
▁unfortun	-5320
▁proceeded	-5321
▁experienced	-5322
▁La	-5323
kins	-5324
▁Hel	-5325
▁Sem	-5326
▁oil	-5327
▁Comp	-5328
▁Koch	-5329
▁Ruth	-5330
ground	-5331
pelled	-5332
▁mercy	-5333
▁shrie	-5334
▁decide	-5335
▁hunger	-5336
▁continue	-5337
pers	-5338
▁sob	-5339
▁Laur	-5340
▁Turk	-5341
▁ends	-5342
▁grab	-5343
▁lift	-5344
▁chose	-5345
▁weren	-5346
▁During	-5347
▁repeat	-5348
▁features	-5349
▁throwing	-5350
▁reflection	-5351
▁possibility	-5352
laya	-5353
▁Whe	-5354
lando	-5355
▁polic	-5356
iveness	-5357
▁estate	-5358
▁fairly	-5359
▁intent	-5360
▁ceiling	-5361
▁sincere	-5362
▁happening	-5363
▁Big	-5364
▁Dol	-5365
▁bos	-5366
▁rig	-5367
▁blew	-5368
▁sees	-5369
▁behav	-5370
▁disgr	-5371
▁smart	-5372
▁track	-5373
▁Aglaya	-5374
▁Middle	-5375
▁associ	-5376
▁burden	-5377
▁happens	-5378
▁project	-5379
▁abruptly	-5380
▁astonished	-5381
erer	-5382
▁Art	-5383
ooped	-5384
▁hamm	-5385
▁rope	-5386
▁sway	-5387
▁fears	-5388
▁image	-5389
fulness	-5390
▁Sondra	-5391
▁camels	-5392
▁driver	-5393
▁wicked	-5394
ochester	-5395
▁Orlando	-5396
▁enemies	-5397
▁majesty	-5398
▁presently	-5399
seen	-5400
inton	-5401
▁dish	-5402
▁Pavel	-5403
▁harsh	-5404
▁inward	-5405
▁jacket	-5406
▁prayer	-5407
▁measure	-5408
▁startled	-5409
alt	-5410
amis	-5411
ania	-5412
apes	-5413
▁Out	-5414
▁fac	-5415
ooked	-5416
▁July	-5417
▁doct	-5418
▁hasn	-5419
▁ling	-5420
▁qual	-5421
▁tore	-5422
urance	-5423
▁Rahel	-5424
▁didnt	-5425
▁fetch	-5426
▁swept	-5427
▁cotton	-5428
▁incred	-5429
▁interf	-5430
▁mirror	-5431
▁victim	-5432
▁virtue	-5433
▁entreat	-5434
▁railway	-5435
▁generous	-5436
▁regarded	-5437
▁stopping	-5438
▁hurriedly	-5439
▁preferred	-5440
▁Ivanovitch	-5441
itz	-5442
tes	-5443
ball	-5444
loyd	-5445
ores	-5446
uend	-5447
▁Raz	-5448
▁Vic	-5449
ology	-5450
▁base	-5451
▁lake	-5452
▁branc	-5453
▁dwell	-5454
▁skirt	-5455
▁squee	-5456
▁using	-5457
▁wings	-5458
▁Without	-5459
▁student	-5460
▁troubles	-5461
▁trousers	-5462
▁contained	-5463
ayl	-5464
PTER	-5465
▁Mic	-5466
▁lap	-5467
aying	-5468
uding	-5469
▁Rams	-5470
▁rear	-5471
▁block	-5472
▁waved	-5473
▁mechan	-5474
▁scream	-5475
▁tables	-5476
▁CHAPTER	-5477
▁patient	-5478
▁pockets	-5479
▁provided	-5480
▁separate	-5481
▁striking	-5482
▁visitors	-5483
AT	-5484
oms	-5485
anqu	-5486
issy	-5487
▁Rog	-5488
▁Both	-5489
▁Buck	-5490
▁Thus	-5491
▁aver	-5492
▁date	-5493
▁lawn	-5494
▁pred	-5495
▁calls	-5496
▁giant	-5497
aterina	-5498
▁Winter	-5499
▁portrait	-5500
▁authority	-5501
▁neighbour	-5502
▁fem	-5503
anges	-5504
inent	-5505
verty	-5506
▁rent	-5507
▁ugly	-5508
▁fruit	-5509
▁sheet	-5510
▁amused	-5511
▁coward	-5512
▁faster	-5513
▁senses	-5514
▁doorway	-5515
▁equally	-5516
▁poverty	-5517
▁proposed	-5518
▁invisible	-5519
▁indifference	-5520
LL	-5521
isp	-5522
vet	-5523
ares	-5524
▁Thr	-5525
achel	-5526
▁bund	-5527
▁jail	-5528
▁nurs	-5529
▁Sonia	-5530
▁forms	-5531
▁roads	-5532
▁trial	-5533
▁scared	-5534
ification	-5535
▁Katerina	-5536
▁affected	-5537
▁destroyed	-5538
▁reflected	-5539
alk	-5540
ica	-5541
law	-5542
rep	-5543
vey	-5544
lebr	-5545
onom	-5546
▁Nev	-5547
▁Many	-5548
▁fury	-5549
▁milk	-5550
▁indul	-5551
▁scand	-5552
▁member	-5553
▁record	-5554
▁Winston	-5555
▁rolling	-5556
▁suspect	-5557
▁warning	-5558
uk	-5559
ita	-5560
rem	-5561
istr	-5562
long	-5563
rose	-5564
▁Def	-5565
▁Mme	-5566
▁Juni	-5567
▁asks	-5568
▁fled	-5569
airfax	-5570
▁Lloyd	-5571
▁boats	-5572
▁faded	-5573
▁local	-5574
▁plung	-5575
▁prepar	-5576
▁Yankees	-5577
▁fancied	-5578
▁flushed	-5579
▁composed	-5580
▁glancing	-5581
▁pressing	-5582
▁addressing	-5583
▁revolution	-5584
fly	-5585
▁dw	-5586
aver	-5587
aves	-5588
orse	-5589
oyal	-5590
▁Ang	-5591
▁tax	-5592
▁ves	-5593
▁City	-5594
▁June	-5595
▁Honey	-5596
▁horiz	-5597
▁powers	-5598
▁article	-5599
▁fearful	-5600
▁recognize	-5601
▁represent	-5602
▁Sv	-5603
ault	-5604
held	-5605
reak	-5606
▁saf	-5607
eling	-5608
othed	-5609
▁bord	-5610
▁wing	-5611
ission	-5612
▁Brown	-5613
▁armed	-5614
▁Linton	-5615
▁recomm	-5616
▁washed	-5617
▁colonel	-5618
▁complex	-5619
▁dreamed	-5620
▁eyebrows	-5621
▁ridiculous	-5622
hip	-5623
▁Mit	-5624
forth	-5625
▁Dark	-5626
▁Jose	-5627
▁fill	-5628
▁sche	-5629
▁wash	-5630
othing	-5631
unning	-5632
▁Maria	-5633
▁bosom	-5634
▁shudd	-5635
▁stout	-5636
▁reproach	-5637
▁connected	-5638
eav	-5639
▁et	-5640
icks	-5641
sing	-5642
▁rom	-5643
▁deck	-5644
▁surv	-5645
▁cerem	-5646
▁Aramis	-5647
▁easier	-5648
▁Atlanta	-5649
▁goodness	-5650
▁disturbed	-5651
▁gratitude	-5652
▁household	-5653
▁constantly	-5654
▁embarrassed	-5655
bur	-5656
antry	-5657
rence	-5658
▁Dolly	-5659
▁cards	-5660
▁elbow	-5661
▁frame	-5662
▁grasp	-5663
▁merry	-5664
▁celebr	-5665
▁endure	-5666
▁plainly	-5667
▁retired	-5668
▁smaller	-5669
▁attached	-5670
▁footstep	-5671
▁learning	-5672
▁described	-5673
▁increased	-5674
▁slightest	-5675
gent	-5676
olly	-5677
umes	-5678
icism	-5679
▁Also	-5680
▁Mans	-5681
▁bask	-5682
▁woke	-5683
liness	-5684
▁Buend	-5685
▁landl	-5686
▁assemb	-5687
▁beaten	-5688
▁histor	-5689
▁nation	-5690
▁poetry	-5691
▁secure	-5692
▁smiles	-5693
▁waters	-5694
▁British	-5695
▁observe	-5696
▁branches	-5697
▁confident	-5698
▁intellect	-5699
▁movements	-5700
wed	-5701
asia	-5702
emon	-5703
upin	-5704
ribly	-5705
▁Span	-5706
▁fist	-5707
▁sink	-5708
▁Gover	-5709
▁Jacqu	-5710
▁Madam	-5711
▁angel	-5712
fortune	-5713
▁endeav	-5714
▁absorbed	-5715
▁audience	-5716
▁crossing	-5717
▁relieved	-5718
▁abandoned	-5719
▁delightful	-5720
▁uncomfortable	-5721
edy	-5722
▁ax	-5723
▁Cle	-5724
▁Say	-5725
▁unn	-5726
▁vul	-5727
▁Coll	-5728
▁moan	-5729
▁rout	-5730
▁Lupin	-5731
▁delay	-5732
▁subst	-5733
▁Ramsay	-5734
▁barric	-5735
▁flashed	-5736
▁students	-5737
elli	-5738
ites	-5739
▁Amm	-5740
▁Jes	-5741
▁Sul	-5742
▁YOU	-5743
▁pub	-5744
▁vel	-5745
▁East	-5746
▁loft	-5747
▁mild	-5748
▁sons	-5749
▁souls	-5750
▁Bumble	-5751
▁barely	-5752
▁longed	-5753
▁ruined	-5754
▁Certain	-5755
▁patience	-5756
▁misfortune	-5757
AR	-5758
rim	-5759
pher	-5760
▁War	-5761
▁lat	-5762
▁pad	-5763
▁Thou	-5764
▁glow	-5765
▁pave	-5766
ension	-5767
▁cheap	-5768
▁overt	-5769
▁spark	-5770
▁widow	-5771
▁leaped	-5772
▁telegr	-5773
▁Italian	-5774
▁Justine	-5775
▁addition	-5776
▁suspected	-5777
▁conclusion	-5778
▁introduced	-5779
▁Es	-5780
▁gas	-5781
▁lux	-5782
okhov	-5783
▁Beth	-5784
▁damn	-5785
▁defe	-5786
▁type	-5787
▁Afric	-5788
▁major	-5789
▁timid	-5790
▁waves	-5791
▁Nobody	-5792
▁belief	-5793
▁poured	-5794
▁similar	-5795
▁original	-5796
▁wandered	-5797
▁interview	-5798
▁reputation	-5799
ville	-5800
▁batt	-5801
▁folk	-5802
▁meal	-5803
▁gained	-5804
▁reluct	-5805
▁vessel	-5806
▁weeping	-5807
▁activity	-5808
▁directed	-5809
▁ignorant	-5810
▁persuade	-5811
▁downstairs	-5812
gn	-5813
ete	-5814
lin	-5815
aunt	-5816
lton	-5817
oody	-5818
▁Dam	-5819
▁Kar	-5820
▁tit	-5821
ucked	-5822
▁tend	-5823
▁Sikes	-5824
▁arose	-5825
▁crept	-5826
olation	-5827
▁Jasper	-5828
▁design	-5829
▁invest	-5830
▁palace	-5831
▁tranqu	-5832
▁Droghed	-5833
▁despite	-5834
▁missing	-5835
▁solitary	-5836
▁strangely	-5837
enth	-5838
itiz	-5839
▁Dec	-5840
▁Fee	-5841
▁Gor	-5842
overy	-5843
ulted	-5844
▁beer	-5845
▁gain	-5846
▁Estha	-5847
▁honey	-5848
▁inner	-5849
▁acting	-5850
▁halted	-5851
▁intend	-5852
▁marble	-5853
▁praise	-5854
▁rested	-5855
▁sending	-5856
▁approach	-5857
▁impressed	-5858
▁considering	-5859
▁unconscious	-5860
▁glo	-5861
icate	-5862
inate	-5863
▁Ammu	-5864
▁Hass	-5865
▁cult	-5866
▁wept	-5867
▁Pitty	-5868
▁cases	-5869
▁inhab	-5870
▁knock	-5871
▁facing	-5872
▁paying	-5873
▁stands	-5874
▁assumed	-5875
▁factory	-5876
▁nearest	-5877
▁scandal	-5878
▁Everyone	-5879
▁changing	-5880
▁sensible	-5881
was	-5882
alie	-5883
lets	-5884
▁Sen	-5885
▁Care	-5886
▁outl	-5887
▁team	-5888
erning	-5889
inence	-5890
▁steel	-5891
▁Laurie	-5892
▁Sergey	-5893
▁insult	-5894
▁hundreds	-5895
▁intimate	-5896
▁religious	-5897
but	-5898
utor	-5899
olate	-5900
ucing	-5901
▁Fare	-5902
▁West	-5903
▁blaz	-5904
▁horn	-5905
▁lucky	-5906
▁skill	-5907
▁sport	-5908
▁swung	-5909
▁aspect	-5910
▁cleared	-5911
▁feather	-5912
▁lessons	-5913
▁agitation	-5914
▁irritated	-5915
ems	-5916
▁Mo	-5917
aren	-5918
back	-5919
▁Law	-5920
▁bra	-5921
leton	-5922
ourse	-5923
▁lest	-5924
▁noon	-5925
▁rank	-5926
▁ward	-5927
ciples	-5928
leness	-5929
ciously	-5930
▁Listen	-5931
▁guards	-5932
▁larger	-5933
▁parted	-5934
▁poison	-5935
nightley	-5936
▁killing	-5937
▁lantern	-5938
▁remains	-5939
▁succeed	-5940
▁Drogheda	-5941
▁bitterly	-5942
▁millions	-5943
▁Petrovitch	-5944
▁frequently	-5945
evol	-5946
gest	-5947
umps	-5948
▁Gav	-5949
▁Lad	-5950
▁tin	-5951
▁Card	-5952
▁Does	-5953
▁dise	-5954
▁sang	-5955
▁beach	-5956
▁Sulaco	-5957
▁female	-5958
▁minded	-5959
▁pillow	-5960
▁season	-5961
▁unlike	-5962
▁respond	-5963
▁smoking	-5964
▁breathed	-5965
▁religion	-5966
▁committed	-5967
▁wandering	-5968
▁impatiently	-5969
iqu	-5970
oons	-5971
osure	-5972
▁Anto	-5973
▁crew	-5974
▁mail	-5975
inkled	-5976
▁Ellen	-5977
▁shell	-5978
▁simpl	-5979
▁column	-5980
▁penetr	-5981
▁perpet	-5982
▁remote	-5983
▁resent	-5984
▁breathe	-5985
con	-5986
▁tro	-5987
▁ecst	-5988
▁autom	-5989
▁steam	-5990
▁trade	-5991
▁calmly	-5992
▁forbid	-5993
▁hither	-5994
▁lately	-5995
▁madame	-5996
▁notion	-5997
▁prompt	-5998
▁strict	-5999
▁actions	-6000
▁convict	-6001
▁corners	-6002
▁funeral	-6003
▁quarters	-6004
▁sensation	-6005
▁sentiment	-6006
ata	-6007
ols	-6008
▁Vin	-6009
▁Anne	-6010
▁Bing	-6011
▁cough	-6012
▁active	-6013
▁coffin	-6014
▁safety	-6015
▁destroy	-6016
▁recover	-6017
▁American	-6018
▁descended	-6019
▁enthusiasm	-6020
▁considerable	-6021
bel	-6022
▁Ep	-6023
cript	-6024
worth	-6025
▁fare	-6026
▁gonna	-6027
▁center	-6028
▁reward	-6029
▁achieve	-6030
▁hearted	-6031
▁merchant	-6032
▁security	-6033
▁Pavlovitch	-6034
ES	-6035
OR	-6036
bly	-6037
stal	-6038
▁Ali	-6039
▁Del	-6040
regor	-6041
▁beds	-6042
▁hunt	-6043
▁vers	-6044
▁Arabs	-6045
▁Smith	-6046
▁acted	-6047
▁eaten	-6048
▁linen	-6049
▁forces	-6050
▁insist	-6051
▁reader	-6052
▁wholly	-6053
▁alarmed	-6054
▁mystery	-6055
▁staying	-6056
▁Republic	-6057
▁constant	-6058
▁contempl	-6059
▁overcome	-6060
▁exception	-6061
▁searching	-6062
▁pa	-6063
alled	-6064
verse	-6065
▁Beau	-6066
▁merc	-6067
▁Shall	-6068
▁feels	-6069
▁artist	-6070
▁harder	-6071
▁hunting	-6072
▁masters	-6073
▁puzzled	-6074
▁selfish	-6075
▁unusual	-6076
▁argument	-6077
▁disagree	-6078
▁exercise	-6079
▁painting	-6080
▁preparing	-6081
▁sufficient	-6082
uri	-6083
▁Ca	-6084
▁er	-6085
rive	-6086
▁Red	-6087
ashes	-6088
ators	-6089
ittee	-6090
ugust	-6091
▁hint	-6092
▁male	-6093
▁Julia	-6094
▁awoke	-6095
▁ships	-6096
▁wiped	-6097
▁compar	-6098
▁laying	-6099
▁mostly	-6100
▁porter	-6101
▁America	-6102
▁Bingley	-6103
▁candles	-6104
▁tightly	-6105
▁agitated	-6106
▁footsteps	-6107
▁secretary	-6108
▁relationship	-6109
lle	-6110
quet	-6111
apped	-6112
▁Fran	-6113
▁Love	-6114
▁brut	-6115
▁goss	-6116
leased	-6117
ooping	-6118
▁Right	-6119
▁caval	-6120
▁colle	-6121
▁pages	-6122
▁relax	-6123
▁arrive	-6124
▁detect	-6125
▁extent	-6126
▁frozen	-6127
▁grinned	-6128
▁snapped	-6129
▁visited	-6130
▁attacked	-6131
▁concluded	-6132
▁neighbors	-6133
▁permitted	-6134
▁pretended	-6135
▁recovered	-6136
▁concerning	-6137
isk	-6138
och	-6139
arer	-6140
olen	-6141
phew	-6142
▁San	-6143
erted	-6144
▁cave	-6145
▁tale	-6146
uffled	-6147
▁Lissy	-6148
▁steep	-6149
erousse	-6150
▁haired	-6151
▁nephew	-6152
▁phrase	-6153
▁crushed	-6154
▁childish	-6155
▁curtains	-6156
▁magnific	-6157
▁struggling	-6158
hem	-6159
▁Gad	-6160
▁Wal	-6161
▁ast	-6162
▁mast	-6163
anelli	-6164
uction	-6165
▁fatal	-6166
▁owner	-6167
▁scorn	-6168
▁breeze	-6169
▁fierce	-6170
▁partly	-6171
▁thirst	-6172
▁anticip	-6173
▁checked	-6174
▁fortnight	-6175
▁Caderousse	-6176
▁compassion	-6177
▁Nevertheless	-6178
▁circumstance	-6179
▁occasionally	-6180
olk	-6181
▁od	-6182
▁Bob	-6183
▁Cor	-6184
▁Has	-6185
▁Over	-6186
▁genu	-6187
▁Gerald	-6188
▁Sirius	-6189
▁career	-6190
▁coarse	-6191
▁leader	-6192
▁vanity	-6193
▁sixteen	-6194
▁immediate	-6195
▁occasions	-6196
▁scattered	-6197
▁Montanelli	-6198
▁intelligent	-6199
ta	-6200
aks	-6201
ived	-6202
pled	-6203
▁Gry	-6204
▁Ham	-6205
▁Hol	-6206
▁Kat	-6207
▁bid	-6208
▁hab	-6209
estic	-6210
imate	-6211
orris	-6212
▁High	-6213
▁holy	-6214
▁push	-6215
▁rene	-6216
jected	-6217
▁Party	-6218
▁Which	-6219
▁camel	-6220
▁cream	-6221
▁flame	-6222
▁guest	-6223
▁likes	-6224
itution	-6225
▁detail	-6226
▁purple	-6227
▁roused	-6228
▁wizard	-6229
▁current	-6230
▁dislike	-6231
▁dismiss	-6232
▁studied	-6233
▁daylight	-6234
▁lightning	-6235
▁respectable	-6236
▁unfortunate	-6237
▁disappointment	-6238
kind	-6239
ffind	-6240
▁Yeah	-6241
▁fence	-6242
▁paces	-6243
▁Bennet	-6244
▁button	-6245
▁decent	-6246
▁warmth	-6247
▁colored	-6248
▁protest	-6249
▁shortly	-6250
▁Gryffind	-6251
▁humanity	-6252
▁reaching	-6253
▁bewildered	-6254
▁Ha	-6255
rees	-6256
▁Che	-6257
▁bab	-6258
▁ren	-6259
▁san	-6260
itate	-6261
▁aged	-6262
▁mead	-6263
ulting	-6264
▁Mammy	-6265
▁desir	-6266
▁instr	-6267
▁liber	-6268
▁roses	-6269
▁trunk	-6270
ountain	-6271
▁brains	-6272
▁carpet	-6273
▁duties	-6274
▁waving	-6275
▁wisdom	-6276
▁Matilda	-6277
▁bending	-6278
▁pursued	-6279
▁Certainly	-6280
▁nervously	-6281
▁persuaded	-6282
▁resolution	-6283
▁remembering	-6284
IS	-6285
ila	-6286
met	-6287
nal	-6288
erry	-6289
ugged	-6290
▁Four	-6291
▁Soon	-6292
▁Tara	-6293
▁cure	-6294
▁pear	-6295
dyakov	-6296
imming	-6297
orious	-6298
▁Mazar	-6299
▁Other	-6300
▁panic	-6301
▁purch	-6302
▁robes	-6303
▁admire	-6304
▁deeper	-6305
▁admired	-6306
▁disturb	-6307
▁secrets	-6308
▁torture	-6309
▁Although	-6310
▁eighteen	-6311
▁marrying	-6312
▁directions	-6313
If	-6314
▁ic	-6315
rels	-6316
▁Med	-6317
▁laz	-6318
▁roy	-6319
gered	-6320
venge	-6321
▁Smer	-6322
▁Stop	-6323
▁bald	-6324
▁harp	-6325
▁leaf	-6326
▁plat	-6327
▁soil	-6328
▁borne	-6329
▁Middlem	-6330
▁Rosalie	-6331
▁glimpse	-6332
▁coachman	-6333
▁disposed	-6334
▁revealed	-6335
▁amusement	-6336
▁Smerdyakov	-6337
▁disposition	-6338
▁established	-6339
eys	-6340
rog	-6341
▁Ur	-6342
alls	-6343
eman	-6344
▁hay	-6345
▁pil	-6346
▁deny	-6347
▁dumb	-6348
▁tort	-6349
▁trap	-6350
Weston	-6351
uously	-6352
▁Razum	-6353
▁guide	-6354
▁slave	-6355
▁centre	-6356
▁wheels	-6357
▁consent	-6358
▁impulse	-6359
▁science	-6360
▁shocked	-6361
▁Countess	-6362
▁comrades	-6363
▁favorite	-6364
▁feverish	-6365
▁solitude	-6366
▁childhood	-6367
can	-6368
ikh	-6369
oph	-6370
rer	-6371
uda	-6372
▁Ir	-6373
ustr	-6374
wing	-6375
▁Him	-6376
▁ard	-6377
▁bay	-6378
▁ped	-6379
▁Luke	-6380
▁Made	-6381
▁Ring	-6382
▁weep	-6383
arette	-6384
asting	-6385
▁Think	-6386
▁drops	-6387
▁gover	-6388
▁incon	-6389
▁rules	-6390
▁thief	-6391
▁wrath	-6392
respond	-6393
▁conven	-6394
▁existed	-6395
▁pushing	-6396
▁remarks	-6397
▁seeming	-6398
▁positive	-6399
▁amazement	-6400
▁answering	-6401
▁successful	-6402
▁consideration	-6403
ihin	-6404
▁fed	-6405
▁foc	-6406
arson	-6407
▁Mean	-6408
▁cher	-6409
otions	-6410
▁heels	-6411
▁plane	-6412
▁plant	-6413
▁surre	-6414
▁excess	-6415
▁preced	-6416
▁refuge	-6417
▁Mazarin	-6418
▁comment	-6419
▁healthy	-6420
▁plunged	-6421
▁popular	-6422
▁visitor	-6423
▁Dolokhov	-6424
▁electric	-6425
▁intently	-6426
▁Razumihin	-6427
▁cigarette	-6428
▁interests	-6429
▁photograph	-6430
▁remarkable	-6431
han	-6432
acko	-6433
arya	-6434
emal	-6435
iter	-6436
tery	-6437
uman	-6438
▁lun	-6439
▁tap	-6440
asted	-6441
enger	-6442
ernon	-6443
ients	-6444
ounia	-6445
uries	-6446
▁Sher	-6447
▁adop	-6448
▁butt	-6449
▁resc	-6450
usions	-6451
▁Moody	-6452
▁fired	-6453
▁keeps	-6454
▁mixed	-6455
▁pitch	-6456
▁Vernon	-6457
▁flames	-6458
▁Fairfax	-6459
▁grounds	-6460
▁inspect	-6461
▁lowered	-6462
▁vaguely	-6463
▁betrayed	-6464
▁involunt	-6465
eg	-6466
bec	-6467
esc	-6468
▁tie	-6469
istry	-6470
▁Thor	-6471
▁bars	-6472
▁fant	-6473
▁Baker	-6474
▁Lebed	-6475
▁chuck	-6476
▁Dounia	-6477
▁Gadfly	-6478
▁caress	-6479
▁string	-6480
▁wasted	-6481
▁blushed	-6482
▁exagger	-6483
▁resting	-6484
▁strongly	-6485
▁remaining	-6486
▁violently	-6487
▁engagement	-6488
elia	-6489
then	-6490
▁Beh	-6491
▁doc	-6492
iving	-6493
onies	-6494
sters	-6495
throp	-6496
unken	-6497
▁Dane	-6498
▁Mond	-6499
▁ages	-6500
▁cock	-6501
antine	-6502
atives	-6503
levent	-6504
▁chall	-6505
▁chill	-6506
▁folly	-6507
ression	-6508
▁basket	-6509
▁lively	-6510
▁signed	-6511
▁source	-6512
▁appears	-6513
▁devoted	-6514
▁genuine	-6515
▁marched	-6516
▁Isabella	-6517
▁Kochamma	-6518
▁Lebedeff	-6519
▁stocking	-6520
▁anxiously	-6521
▁ignorance	-6522
▁precisely	-6523
▁discussion	-6524
▁pronounced	-6525
ns	-6526
cca	-6527
ima	-6528
henka	-6529
roche	-6530
▁fulf	-6531
▁liqu	-6532
▁load	-6533
▁Bilbo	-6534
▁Gania	-6535
▁Chacko	-6536
▁Indian	-6537
▁Finally	-6538
▁counsel	-6539
▁Gavroche	-6540
▁Nastasia	-6541
▁disgrace	-6542
▁jealousy	-6543
▁subjects	-6544
▁delivered	-6545
▁correspond	-6546
▁Middlemarch	-6547
▁difficulties	-6548
la	-6549
iev	-6550
oot	-6551
▁Bra	-6552
▁Wor	-6553
▁dus	-6554
▁tar	-6555
▁unm	-6556
▁Hell	-6557
▁Mild	-6558
▁Mord	-6559
▁Murd	-6560
▁ours	-6561
▁pile	-6562
▁term	-6563
▁Boris	-6564
▁Daddy	-6565
▁Garth	-6566
▁Sally	-6567
▁mourn	-6568
▁views	-6569
▁Butler	-6570
▁behold	-6571
▁econom	-6572
▁native	-6573
▁stroke	-6574
▁Bertram	-6575
▁exasper	-6576
▁fourteen	-6577
▁wherever	-6578
▁buildings	-6579
▁establish	-6580
ands	-6581
anna	-6582
▁Gil	-6583
▁hut	-6584
ammed	-6585
▁Holy	-6586
▁area	-6587
▁bust	-6588
▁feed	-6589
▁frag	-6590
▁flour	-6591
▁gates	-6592
brother	-6593
quisite	-6594
▁absent	-6595
▁attach	-6596
▁coldly	-6597
▁curate	-6598
▁shouts	-6599
▁velvet	-6600
▁Turkish	-6601
▁changes	-6602
▁drowned	-6603
▁horizon	-6604
▁madness	-6605
▁numbers	-6606
▁birthday	-6607
▁steadily	-6608
▁passionate	-6609
▁punishment	-6610
ED	-6611
wr	-6612
▁Cal	-6613
▁Hey	-6614
▁rhy	-6615
▁tid	-6616
▁Amar	-6617
▁Gree	-6618
▁York	-6619
ooking	-6620
▁fatig	-6621
▁motor	-6622
▁mustn	-6623
▁beings	-6624
▁powder	-6625
▁vulgar	-6626
▁Company	-6627
▁anguish	-6628
▁partner	-6629
▁describe	-6630
▁pavement	-6631
▁screamed	-6632
▁Meanwhile	-6633
▁distinctly	-6634
▁disappointed	-6635
bar	-6636
kers	-6637
opes	-6638
otes	-6639
▁Bag	-6640
▁Bou	-6641
▁lur	-6642
▁Baby	-6643
▁Conf	-6644
▁Seth	-6645
riages	-6646
▁outer	-6647
▁Bishop	-6648
▁danced	-6649
▁deadly	-6650
▁doubts	-6651
▁hoarse	-6652
▁series	-6653
▁shared	-6654
▁Instead	-6655
▁ability	-6656
▁destiny	-6657
▁hideous	-6658
▁mingled	-6659
▁objects	-6660
▁Frenchman	-6661
▁permission	-6662
▁deliberately	-6663
▁distinguished	-6664
upt	-6665
omer	-6666
uits	-6667
▁Spe	-6668
orney	-6669
▁glit	-6670
▁mult	-6671
▁park	-6672
▁roar	-6673
ortion	-6674
▁Darya	-6675
▁Franc	-6676
▁decor	-6677
▁dried	-6678
▁rocks	-6679
▁slipp	-6680
▁trace	-6681
▁beheld	-6682
▁encoun	-6683
▁humour	-6684
▁lasted	-6685
▁select	-6686
▁utmost	-6687
▁Mildred	-6688
▁Neville	-6689
▁contrad	-6690
▁failure	-6691
▁kissing	-6692
▁mothers	-6693
▁persist	-6694
▁prayers	-6695
▁seventy	-6696
▁backward	-6697
▁involved	-6698
▁barricade	-6699
▁practical	-6700
▁attractive	-6701
▁conditions	-6702
▁forgetting	-6703
lo	-6704
How	-6705
bor	-6706
lev	-6707
▁je	-6708
bino	-6709
gund	-6710
onag	-6711
▁guy	-6712
▁map	-6713
isher	-6714
▁cash	-6715
▁leis	-6716
utions	-6717
▁Jesus	-6718
▁baron	-6719
▁blows	-6720
▁marsh	-6721
▁medic	-6722
▁Really	-6723
▁ragged	-6724
▁picking	-6725
▁quarrel	-6726
▁shelter	-6727
chelevent	-6728
▁hastened	-6729
▁impatient	-6730
▁invitation	-6731
ja	-6732
uf	-6733
▁sed	-6734
▁Life	-6735
▁heap	-6736
▁marks	-6737
▁theat	-6738
▁wives	-6739
onagall	-6740
▁cannon	-6741
▁modern	-6742
▁roared	-6743
▁scient	-6744
▁wolves	-6745
standing	-6746
▁cunning	-6747
▁happily	-6748
▁improve	-6749
▁neglect	-6750
▁pattern	-6751
▁Moreover	-6752
▁Remember	-6753
▁attended	-6754
▁faithful	-6755
▁offended	-6756
▁offering	-6757
▁exquisite	-6758
▁Gryffindor	-6759
▁McGonagall	-6760
▁acquainted	-6761
▁indignation	-6762
ho	-6763
iel	-6764
orf	-6765
mber	-6766
oses	-6767
▁Low	-6768
▁env	-6769
▁oce	-6770
▁spy	-6771
enced	-6772
pired	-6773
umped	-6774
▁Chap	-6775
▁impr	-6776
▁ratt	-6777
atural	-6778
ularly	-6779
▁Allen	-6780
▁Italy	-6781
▁exped	-6782
▁inher	-6783
▁nails	-6784
▁royal	-6785
▁autumn	-6786
▁cattle	-6787
▁gossip	-6788
▁gotten	-6789
▁habits	-6790
▁rights	-6791
▁whence	-6792
▁Defarge	-6793
▁closing	-6794
▁fishing	-6795
▁holiday	-6796
▁inquiry	-6797
▁leisure	-6798
▁problems	-6799
▁gathering	-6800
▁spiritual	-6801
▁Fauchelevent	-6802
▁Van	-6803
▁ink	-6804
ether	-6805
illes	-6806
▁Huck	-6807
▁Leon	-6808
▁brid	-6809
▁deaf	-6810
▁dirt	-6811
▁gang	-6812
▁vamp	-6813
itably	-6814
▁Andre	-6815
▁Baron	-6816
▁bells	-6817
▁citiz	-6818
▁holes	-6819
atively	-6820
▁Behind	-6821
▁Surely	-6822
▁lawyer	-6823
▁saving	-6824
▁becomes	-6825
▁classes	-6826
▁divided	-6827
▁frowned	-6828
▁compared	-6829
▁deceived	-6830
▁emotions	-6831
▁hurrying	-6832
▁Murdstone	-6833
▁President	-6834
▁newspaper	-6835
▁prevented	-6836
▁receiving	-6837
▁swallowed	-6838
▁positively	-6839
▁Rod	-6840
▁emp	-6841
▁ens	-6842
▁fan	-6843
▁wre	-6844
gundo	-6845
▁Star	-6846
▁flow	-6847
▁Fagin	-6848
▁climb	-6849
▁irres	-6850
▁urged	-6851
▁accent	-6852
▁courty	-6853
▁incomp	-6854
▁amongst	-6855
▁opinions	-6856
▁transform	-6857
▁newspapers	-6858
▁Farebrother	-6859
▁grandmother	-6860
▁embarrassment	-6861
chn	-6862
ieu	-6863
ird	-6864
unge	-6865
asili	-6866
▁Half	-6867
▁Sever	-6868
▁Louisa	-6869
▁Urbino	-6870
▁nightm	-6871
▁theory	-6872
▁Segundo	-6873
▁abandon	-6874
▁arrested	-6875
▁catching	-6876
▁dragging	-6877
▁governor	-6878
▁attracted	-6879
▁discovery	-6880
▁exchanged	-6881
▁quivering	-6882
▁screaming	-6883
▁affectionate	-6884
ipt	-6885
▁Hay	-6886
▁Ill	-6887
▁atm	-6888
▁buz	-6889
islaw	-6890
▁Clar	-6891
▁Gill	-6892
▁carp	-6893
▁dazz	-6894
▁lect	-6895
▁rude	-6896
▁lofty	-6897
▁nerves	-6898
▁sacred	-6899
▁warned	-6900
▁Spanish	-6901
▁balance	-6902
▁barrier	-6903
▁benefit	-6904
▁blowing	-6905
▁glances	-6906
▁hobbits	-6907
▁Amaranta	-6908
▁Ladislaw	-6909
▁Winthrop	-6910
▁meantime	-6911
▁violence	-6912
▁appointed	-6913
▁frightful	-6914
▁hesitation	-6915
▁suspicious	-6916
▁disagreeable	-6917
awl	-6918
eph	-6919
ader	-6920
aire	-6921
▁sar	-6922
emort	-6923
kered	-6924
▁Beck	-6925
▁Grus	-6926
▁Hipp	-6927
▁Keep	-6928
▁Nost	-6929
▁whim	-6930
vation	-6931
▁bride	-6932
▁incap	-6933
▁penny	-6934
▁screw	-6935
▁sniff	-6936
▁Crouch	-6937
▁humble	-6938
▁shaken	-6939
▁sheets	-6940
oldemort	-6941
▁answers	-6942
▁drunken	-6943
▁privile	-6944
▁require	-6945
▁restaur	-6946
▁travell	-6947
▁comprehe	-6948
▁questioned	-6949
AS	-6950
rin	-6951
she	-6952
curg	-6953
▁jaw	-6954
inger	-6955
ishes	-6956
rived	-6957
▁Coss	-6958
▁Five	-6959
▁Wick	-6960
▁whir	-6961
▁wire	-6962
curgus	-6963
▁Steer	-6964
▁brush	-6965
▁idiot	-6966
▁peril	-6967
▁risen	-6968
▁atmosp	-6969
▁Neither	-6970
▁clasped	-6971
▁created	-6972
▁kingdom	-6973
▁Voldemort	-6974
▁condemned	-6975
▁Fyodorovitch	-6976
ox	-6977
ama	-6978
aty	-6979
ugs	-6980
▁hi	-6981
evna	-6982
iour	-6983
▁ske	-6984
▁tob	-6985
▁Park	-6986
▁clen	-6987
ifting	-6988
▁Death	-6989
▁August	-6990
▁Emmett	-6991
▁Nadine	-6992
▁exceed	-6993
▁origin	-6994
▁supply	-6995
atically	-6996
▁Chapter	-6997
▁arrange	-6998
▁awfully	-6999
▁parting	-7000
▁dropping	-7001
▁fastened	-7002
▁noticing	-7003
▁intervals	-7004
▁responsible	-7005
▁accomplished	-7006
My	-7007
ING	-7008
▁Kr	-7009
ador	-7010
romo	-7011
▁Acc	-7012
▁Squ	-7013
▁god	-7014
ernel	-7015
leine	-7016
ograp	-7017
▁Prov	-7018
▁dusk	-7019
▁obed	-7020
▁quit	-7021
▁subd	-7022
▁sunk	-7023
akened	-7024
orable	-7025
▁broom	-7026
▁cliff	-7027
▁sadly	-7028
▁stamm	-7029
▁inches	-7030
▁sailor	-7031
piration	-7032
▁blessed	-7033
▁deserve	-7034
▁gallery	-7035
▁longing	-7036
▁medical	-7037
▁strained	-7038
▁courtyard	-7039
▁meanwhile	-7040
▁Steerforth	-7041
▁compliment	-7042
▁magnificent	-7043
▁sufficiently	-7044
gen	-7045
jol	-7046
?...	-7047
agne	-7048
aste	-7049
▁Gra	-7050
▁Put	-7051
icity	-7052
▁irre	-7053
▁Later	-7054
▁delir	-7055
▁frost	-7056
▁magaz	-7057
▁purse	-7058
▁rings	-7059
▁Goriot	-7060
▁Norris	-7061
▁feeble	-7062
▁obtain	-7063
▁sinking	-7064
▁Nostromo	-7065
▁devotion	-7066
▁dreaming	-7067
▁replaced	-7068
▁Rochester	-7069
▁curiously	-7070
▁struggled	-7071
▁nevertheless	-7072
eem	-7073
iry	-7074
olic	-7075
▁Sec	-7076
▁bol	-7077
▁voy	-7078
arest	-7079
▁puff	-7080
▁Drust	-7081
▁Vincy	-7082
▁tells	-7083
▁total	-7084
▁Kernel	-7085
▁bundle	-7086
▁divine	-7087
▁explos	-7088
▁packed	-7089
▁prosec	-7090
▁shaped	-7091
▁wildly	-7092
▁heavens	-7093
▁panting	-7094
▁slender	-7095
▁careless	-7096
▁enjoying	-7097
▁observing	-7098
▁spectacles	-7099
▁whispering	-7100
▁description	-7101
ico	-7102
occ	-7103
pri	-7104
osal	-7105
▁wax	-7106
There	-7107
enses	-7108
venue	-7109
▁Glen	-7110
▁Gond	-7111
▁Rich	-7112
▁Were	-7113
▁bone	-7114
▁cant	-7115
▁copy	-7116
▁goal	-7117
▁mour	-7118
▁prim	-7119
▁rabb	-7120
▁slid	-7121
▁spat	-7122
▁subs	-7123
icious	-7124
▁balls	-7125
▁erect	-7126
▁tobac	-7127
▁Connor	-7128
▁amazed	-7129
▁disord	-7130
▁modest	-7131
▁visits	-7132
▁beloved	-7133
▁Madeleine	-7134
▁adventures	-7135
▁department	-7136
▁protection	-7137
tr	-7138
uee	-7139
idel	-7140
just	-7141
mary	-7142
otte	-7143
▁apr	-7144
▁cam	-7145
▁exh	-7146
▁flu	-7147
▁pup	-7148
irmed	-7149
uable	-7150
▁belt	-7151
▁canv	-7152
▁whip	-7153
estern	-7154
otting	-7155
▁Georg	-7156
▁boxes	-7157
▁brisk	-7158
▁fires	-7159
▁marve	-7160
▁reass	-7161
▁clergy	-7162
▁cracked	-7163
▁knights	-7164
▁blessing	-7165
▁employed	-7166
▁rendered	-7167
▁Englishman	-7168
▁neighborhood	-7169
oj	-7170
oqu	-7171
dled	-7172
lers	-7173
atisf	-7174
iders	-7175
▁Cath	-7176
▁Make	-7177
▁Mell	-7178
▁Mich	-7179
▁bite	-7180
▁bits	-7181
▁chat	-7182
▁foul	-7183
▁halt	-7184
▁mare	-7185
▁oath	-7186
▁perf	-7187
▁quant	-7188
▁senor	-7189
othered	-7190
▁freely	-7191
▁scheme	-7192
▁stolen	-7193
▁tossed	-7194
▁cavalry	-7195
▁planned	-7196
▁floating	-7197
▁increase	-7198
▁shooting	-7199
▁smallest	-7200
▁attempted	-7201
▁collected	-7202
▁execution	-7203
▁shuddered	-7204
▁atmosphere	-7205
▁determination	-7206
zh	-7207
umm	-7208
▁Az	-7209
▁Aro	-7210
▁Des	-7211
▁Leg	-7212
▁Ten	-7213
▁gig	-7214
▁rat	-7215
▁dine	-7216
▁pall	-7217
▁filth	-7218
▁guilt	-7219
▁humor	-7220
▁lands	-7221
▁stole	-7222
▁sugar	-7223
▁Joseph	-7224
▁altern	-7225
▁louder	-7226
▁murmur	-7227
▁Collins	-7228
▁blanket	-7229
▁desires	-7230
▁eternal	-7231
▁shepher	-7232
▁tremend	-7233
▁blushing	-7234
▁ceremony	-7235
▁contract	-7236
▁furnished	-7237
lya	-7238
nds	-7239
aign	-7240
ojin	-7241
queg	-7242
▁Imp	-7243
▁Isn	-7244
▁Rou	-7245
▁cru	-7246
▁mov	-7247
▁sem	-7248
bable	-7249
riend	-7250
▁Arch	-7251
▁abbe	-7252
▁blur	-7253
▁grie	-7254
▁idle	-7255
▁tune	-7256
▁Percy	-7257
▁Senor	-7258
▁dusty	-7259
▁stove	-7260
▁towns	-7261
ueequeg	-7262
▁Decoud	-7263
▁Hassan	-7264
▁Monday	-7265
▁betray	-7266
▁daring	-7267
▁rubbed	-7268
▁screen	-7269
▁subtle	-7270
▁tavern	-7271
▁Rogojin	-7272
▁avoided	-7273
▁doctors	-7274
▁emerged	-7275
▁tobacco	-7276
▁Lycurgus	-7277
▁Rosemary	-7278
▁bathroom	-7279
▁hopeless	-7280
▁transfer	-7281
▁Grushenka	-7282
▁separated	-7283
▁observation	-7284
OT	-7285
Why	-7286
▁Hur	-7287
▁bat	-7288
▁orn	-7289
▁Hold	-7290
▁Lake	-7291
▁inch	-7292
▁outr	-7293
▁proc	-7294
▁Melly	-7295
▁disgu	-7296
▁flies	-7297
▁gleam	-7298
▁thumb	-7299
▁Thorpe	-7300
▁compet	-7301
▁monstr	-7302
▁signal	-7303
▁Whatever	-7304
▁resolute	-7305
▁qualities	-7306
▁impatience	-7307
▁inevitable	-7308
gl	-7309
ael	-7310
ded	-7311
lov	-7312
▁Mi	-7313
buck	-7314
yard	-7315
▁Bov	-7316
▁dad	-7317
▁ere	-7318
▁tum	-7319
about	-7320
eline	-7321
▁abst	-7322
▁mant	-7323
▁twil	-7324
▁veil	-7325
▁Lorry	-7326
▁Petya	-7327
▁craft	-7328
▁intol	-7329
▁skull	-7330
▁parish	-7331
▁specul	-7332
▁Through	-7333
▁annoyed	-7334
▁chimney	-7335
▁inhabit	-7336
▁landing	-7337
▁lodging	-7338
▁related	-7339
▁departed	-7340
▁domestic	-7341
▁extended	-7342
▁frowning	-7343
▁pressure	-7344
▁studying	-7345
▁acknowled	-7346
▁essential	-7347
▁strangers	-7348
ago	-7349
elf	-7350
plex	-7351
uite	-7352
▁Ced	-7353
▁mob	-7354
ooper	-7355
ormand	-7356
ouched	-7357
▁Carey	-7358
▁Paddy	-7359
▁clung	-7360
▁falls	-7361
▁hedge	-7362
▁hence	-7363
▁ingen	-7364
▁owned	-7365
▁pains	-7366
▁walks	-7367
▁orange	-7368
▁counted	-7369
▁deliver	-7370
▁endless	-7371
▁mission	-7372
▁reserve	-7373
▁ringing	-7374
▁weapons	-7375
▁campaign	-7376
▁moreover	-7377
▁Everybody	-7378
▁reception	-7379
▁threatening	-7380
upp	-7381
▁Ap	-7382
oups	-7383
▁dil	-7384
apsed	-7385
berry	-7386
spect	-7387
▁barn	-7388
▁eyel	-7389
▁jury	-7390
▁okay	-7391
▁papa	-7392
▁rows	-7393
▁yawn	-7394
irtier	-7395
▁Banda	-7396
▁agent	-7397
▁manif	-7398
▁negro	-7399
▁techn	-7400
▁Thanks	-7401
▁judged	-7402
▁loaded	-7403
▁scound	-7404
▁average	-7405
▁natured	-7406
▁produce	-7407
▁announce	-7408
▁services	-7409
arf	-7410
▁Ju	-7411
acon	-7412
arte	-7413
eter	-7414
▁Abd	-7415
▁Hon	-7416
▁Hot	-7417
cedes	-7418
igger	-7419
ulate	-7420
uming	-7421
▁Upon	-7422
▁Vict	-7423
▁lace	-7424
▁rese	-7425
▁sket	-7426
ephson	-7427
isions	-7428
jolras	-7429
▁Dobby	-7430
▁Micaw	-7431
▁Shire	-7432
▁brass	-7433
▁deeds	-7434
▁kinds	-7435
▁shawl	-7436
▁sunsh	-7437
▁Edmond	-7438
▁Friday	-7439
▁elbows	-7440
▁formal	-7441
▁keeper	-7442
▁shield	-7443
▁squire	-7444
itations	-7445
▁Fernand	-7446
▁concert	-7447
▁disease	-7448
▁elegant	-7449
▁sobbing	-7450
▁Enjolras	-7451
▁Ministry	-7452
▁teaching	-7453
▁complaint	-7454
▁personally	-7455
▁instructions	-7456
agu	-7457
vin	-7458
eled	-7459
uten	-7460
▁Cam	-7461
▁hyp	-7462
▁tip	-7463
guard	-7464
udent	-7465
▁None	-7466
▁intr	-7467
▁mate	-7468
▁ruff	-7469
▁tang	-7470
▁Court	-7471
▁appet	-7472
▁brows	-7473
▁ranks	-7474
▁score	-7475
▁trail	-7476
▁wagon	-7477
ouncing	-7478
▁begins	-7479
▁bushes	-7480
▁damned	-7481
▁darted	-7482
▁provin	-7483
▁talent	-7484
▁Germany	-7485
▁cottage	-7486
▁perplex	-7487
▁washing	-7488
▁Micawber	-7489
▁desperately	-7490
'?	-7491
acc	-7492
▁Hu	-7493
issa	-7494
▁Bal	-7495
▁cha	-7496
ailov	-7497
atsby	-7498
aylor	-7499
olyte	-7500
udley	-7501
▁cage	-7502
▁encl	-7503
▁Kemal	-7504
▁Young	-7505
▁backs	-7506
▁disch	-7507
▁ocean	-7508
▁serge	-7509
▁sweep	-7510
▁gasped	-7511
▁indust	-7512
▁motive	-7513
▁superf	-7514
▁traged	-7515
▁musical	-7516
▁rubbing	-7517
▁venture	-7518
▁covering	-7519
▁criminal	-7520
▁diamonds	-7521
▁murdered	-7522
▁recently	-7523
▁terribly	-7524
▁twilight	-7525
▁earnestly	-7526
▁witnesses	-7527
▁throughout	-7528
see	-7529
▁na	-7530
rice	-7531
vest	-7532
▁Sly	-7533
▁tub	-7534
▁viv	-7535
▁Fire	-7536
▁bond	-7537
▁moor	-7538
▁musk	-7539
▁trif	-7540
itched	-7541
master	-7542
velope	-7543
▁Stand	-7544
▁diver	-7545
▁divor	-7546
▁songs	-7547
▁Gatsby	-7548
▁actual	-7549
▁apolog	-7550
▁bonnet	-7551
▁marvel	-7552
▁sleeve	-7553
▁Fantine	-7554
▁Someone	-7555
▁applied	-7556
▁expense	-7557
▁inquire	-7558
▁totally	-7559
▁variety	-7560
▁Cardinal	-7561
▁Mercedes	-7562
▁envelope	-7563
▁incident	-7564
▁stirring	-7565
▁withdraw	-7566
▁apprehens	-7567
▁assistant	-7568
▁significance	-7569
cr	-7570
hic	-7571
▁Lu	-7572
▁cu	-7573
quer	-7574
▁Exc	-7575
▁Maj	-7576
Elton	-7577
asion	-7578
irgin	-7579
▁Camp	-7580
▁Port	-7581
▁Road	-7582
▁Sept	-7583
▁heed	-7584
▁lots	-7585
▁tunn	-7586
attery	-7587
tained	-7588
▁insol	-7589
▁miser	-7590
▁sober	-7591
▁branch	-7592
▁income	-7593
▁Slyther	-7594
▁amiable	-7595
▁charged	-7596
▁examine	-7597
▁gravely	-7598
▁helping	-7599
▁product	-7600
▁Noirtier	-7601
▁despised	-7602
▁searched	-7603
▁summoned	-7604
▁sunlight	-7605
▁incapable	-7606
▁monstrous	-7607
▁performed	-7608
▁reasonable	-7609
▁examination	-7610
So	-7611
ba	-7612
She	-7613
cel	-7614
arks	-7615
gypt	-7616
ieve	-7617
uidd	-7618
▁Til	-7619
▁bou	-7620
after	-7621
agues	-7622
angar	-7623
erred	-7624
lette	-7625
udder	-7626
▁Cons	-7627
▁Didn	-7628
▁huss	-7629
▁nast	-7630
▁soup	-7631
▁spin	-7632
▁tact	-7633
▁tray	-7634
▁upro	-7635
▁Celia	-7636
▁India	-7637
▁knelt	-7638
▁suppl	-7639
▁tones	-7640
utenant	-7641
▁casual	-7642
▁sullen	-7643
▁waking	-7644
uidditch	-7645
▁Jephson	-7646
▁Several	-7647
▁tearing	-7648
▁terrace	-7649
▁acquired	-7650
▁restless	-7651
▁Woodhouse	-7652
▁carriages	-7653
▁confessed	-7654
▁operation	-7655
▁principal	-7656
▁assistance	-7657
▁housekeeper	-7658
▁performance	-7659
ek	-7660
emy	-7661
hart	-7662
usha	-7663
▁Aks	-7664
▁Pap	-7665
▁Tem	-7666
▁gor	-7667
bably	-7668
bourg	-7669
ician	-7670
unned	-7671
▁Lock	-7672
▁Whit	-7673
▁leap	-7674
ounted	-7675
▁Egypt	-7676
▁Green	-7677
▁River	-7678
▁brood	-7679
▁limbs	-7680
▁range	-7681
▁rival	-7682
▁swarm	-7683
artment	-7684
▁bigger	-7685
▁groups	-7686
▁lovers	-7687
▁tumult	-7688
ountered	-7689
▁Danvers	-7690
▁growled	-7691
ibilities	-7692
▁grinning	-7693
▁politics	-7694
▁moonlight	-7695
▁recommend	-7696
▁unwilling	-7697
▁waistcoat	-7698
▁commission	-7699
▁differently	-7700
had	-7701
inc	-7702
mon	-7703
olf	-7704
ria	-7705
yes	-7706
▁TO	-7707
lict	-7708
▁Lau	-7709
▁voc	-7710
annah	-7711
▁Germ	-7712
▁Near	-7713
▁Rita	-7714
▁asce	-7715
▁boot	-7716
▁eggs	-7717
▁jest	-7718
▁sore	-7719
▁tomb	-7720
▁trag	-7721
▁Jones	-7722
▁Marya	-7723
▁basin	-7724
▁belly	-7725
▁bills	-7726
▁curse	-7727
▁disli	-7728
▁lined	-7729
▁petty	-7730
▁surve	-7731
outhern	-7732
ributed	-7733
▁Taylor	-7734
▁anyhow	-7735
▁brandy	-7736
▁liking	-7737
▁repuls	-7738
▁strain	-7739
▁transl	-7740
▁aroused	-7741
▁chiefly	-7742
▁comrade	-7743
▁exhaust	-7744
▁lifting	-7745
▁parlour	-7746
▁coloured	-7747
▁complain	-7748
▁stricken	-7749
▁Hippolyte	-7750
▁arguments	-7751
▁elsewhere	-7752
▁president	-7753
▁respected	-7754
▁seventeen	-7755
▁uneasiness	-7756
▁neighbourhood	-7757
sk	-7758
izz	-7759
jud	-7760
roe	-7761
▁Ph	-7762
aine	-7763
rell	-7764
▁Day	-7765
▁Dis	-7766
▁Pan	-7767
▁Thy	-7768
▁lic	-7769
▁ric	-7770
ombre	-7771
▁Soph	-7772
▁ench	-7773
▁gasp	-7774
idable	-7775
vering	-7776
▁Whale	-7777
▁shops	-7778
▁shows	-7779
▁Cedric	-7780
▁exclam	-7781
▁fitted	-7782
▁impert	-7783
▁remove	-7784
▁resour	-7785
▁sunset	-7786
▁Gilbert	-7787
▁dresses	-7788
▁faintly	-7789
▁obscure	-7790
▁reduced	-7791
▁revenge	-7792
▁theater	-7793
▁exchange	-7794
▁stepping	-7795
▁committee	-7796
▁favourite	-7797
▁confession	-7798
▁distracted	-7799
▁increasing	-7800
▁literature	-7801
▁stretching	-7802
adi	-7803
ari	-7804
enn	-7805
lim	-7806
agon	-7807
ffic	-7808
grat	-7809
oles	-7810
udes	-7811
▁Sim	-7812
osity	-7813
▁Goll	-7814
▁Grub	-7815
▁Mlle	-7816
▁Porf	-7817
▁bags	-7818
▁init	-7819
necess	-7820
▁blown	-7821
▁swore	-7822
atching	-7823
inating	-7824
▁Wilkes	-7825
▁cellar	-7826
▁esteem	-7827
▁flowed	-7828
▁parlor	-7829
▁Porfiry	-7830
▁bottles	-7831
▁embrace	-7832
▁greeted	-7833
▁happier	-7834
▁harness	-7835
▁flashing	-7836
▁perceive	-7837
▁reported	-7838
▁valuable	-7839
▁certainty	-7840
▁contented	-7841
▁shivering	-7842
▁beforehand	-7843
▁scientific	-7844
▁suggestion	-7845
▁encountered	-7846
▁independent	-7847
..'	-7848
his	-7849
▁Te	-7850
abor	-7851
amin	-7852
bull	-7853
emen	-7854
lden	-7855
rene	-7856
▁Dun	-7857
▁Fil	-7858
▁Pal	-7859
▁Vau	-7860
▁nic	-7861
agged	-7862
ignac	-7863
▁Gold	-7864
▁Mill	-7865
▁barg	-7866
▁degr	-7867
▁kids	-7868
▁plac	-7869
▁sack	-7870
▁salt	-7871
▁stag	-7872
ifully	-7873
inding	-7874
▁finds	-7875
▁Dudley	-7876
▁corpse	-7877
▁eighty	-7878
▁haught	-7879
▁landed	-7880
▁nigger	-7881
▁Austral	-7882
▁begging	-7883
▁charity	-7884
▁hostile	-7885
▁nowhere	-7886
▁precaut	-7887
▁trusted	-7888
▁brightly	-7889
▁contrast	-7890
▁counting	-7891
▁investig	-7892
▁irresist	-7893
▁preacher	-7894
▁reckoned	-7895
▁principles	-7896
▁thoughtful	-7897
▁threatened	-7898
▁recollection	-7899
riw	-7900
▁Il	-7901
oyle	-7902
▁asc	-7903
▁fog	-7904
▁sly	-7905
▁yeh	-7906
ateau	-7907
dened	-7908
onski	-7909
▁clad	-7910
▁debt	-7911
▁orph	-7912
idents	-7913
▁Thurs	-7914
▁banks	-7915
▁brick	-7916
▁scold	-7917
▁split	-7918
▁twins	-7919
▁Isabel	-7920
▁curled	-7921
▁hyster	-7922
▁kicked	-7923
▁stable	-7924
engeance	-7925
▁Brother	-7926
▁lighter	-7927
▁pursuit	-7928
▁remorse	-7929
▁ambition	-7930
▁demonstr	-7931
▁misunder	-7932
▁presents	-7933
▁spending	-7934
▁sunshine	-7935
▁teachers	-7936
▁clutching	-7937
▁consisted	-7938
▁examining	-7939
▁objection	-7940
▁cautiously	-7941
▁expressions	-7942
▁responsibility	-7943
rol	-7944
▁Id	-7945
vity	-7946
▁App	-7947
occup	-7948
▁Mark	-7949
▁Rast	-7950
▁Supp	-7951
▁fund	-7952
▁fuss	-7953
▁Grant	-7954
▁Leave	-7955
▁Water	-7956
▁cares	-7957
▁werew	-7958
renched	-7959
▁Endean	-7960
▁Holmes	-7961
▁choked	-7962
▁reconc	-7963
hensible	-7964
▁congrat	-7965
▁floated	-7966
▁grasped	-7967
▁mixture	-7968
▁scarlet	-7969
▁stretch	-7970
▁tremble	-7971
▁upright	-7972
▁exciting	-7973
▁Rastignac	-7974
▁champagne	-7975
▁commanded	-7976
▁fortunate	-7977
▁repeating	-7978
▁generation	-7979
▁pretending	-7980
▁intellectual	-7981
▁professional	-7982
pel	-7983
pin	-7984
▁OK	-7985
▁Ry	-7986
atin	-7987
onse	-7988
▁hiM	-7989
▁kne	-7990
iring	-7991
press	-7992
▁Comr	-7993
▁Mugg	-7994
▁bred	-7995
▁bush	-7996
engers	-7997
▁Belkn	-7998
▁hired	-7999
▁wages	-8000
▁Manson	-8001
▁combat	-8002
▁drawer	-8003
▁gloves	-8004
▁profit	-8005
▁theirs	-8006
▁advised	-8007
▁muscles	-8008
▁satisfy	-8009
▁Russians	-8010
▁Thursday	-8011
▁hitherto	-8012
▁minister	-8013
▁platform	-8014
▁sacrific	-8015
▁squeezed	-8016
▁unnecess	-8017
▁believing	-8018
▁eagerness	-8019
▁fashioned	-8020
▁governess	-8021
▁glittering	-8022
▁authorities	-8023
▁independence	-8024
aisy	-8025
anim	-8026
nces	-8027
sect	-8028
▁Ele	-8029
▁Sal	-8030
▁Six	-8031
▁Too	-8032
▁axe	-8033
▁sup	-8034
ushes	-8035
▁Anat	-8036
▁Cull	-8037
▁bend	-8038
▁boss	-8039
▁grip	-8040
▁lodg	-8041
▁swim	-8042
▁alike	-8043
▁fifth	-8044
▁goods	-8045
▁veget	-8046
itality	-8047
ittered	-8048
▁Andrea	-8049
▁Bovary	-8050
▁Gillen	-8051
▁mouths	-8052
▁sombre	-8053
▁Belknap	-8054
▁amazing	-8055
▁stained	-8056
▁awakened	-8057
▁clenched	-8058
▁farewell	-8059
▁secretly	-8060
▁furiously	-8061
▁treatment	-8062
▁universal	-8063
▁breathless	-8064
▁complicated	-8065
▁thoughtfully	-8066
chin	-8067
iate	-8068
igne	-8069
rien	-8070
▁cub	-8071
▁non	-8072
anche	-8073
itute	-8074
stant	-8075
▁keys	-8076
▁tour	-8077
▁trad	-8078
ensity	-8079
▁State	-8080
▁Stone	-8081
▁Vicar	-8082
▁disin	-8083
▁flick	-8084
▁intox	-8085
▁patch	-8086
▁patri	-8087
▁seats	-8088
▁slope	-8089
▁stamp	-8090
▁steal	-8091
▁tooth	-8092
▁Cooper	-8093
▁Tilney	-8094
▁Vasili	-8095
▁warmly	-8096
▁altered	-8097
▁degrees	-8098
▁exposed	-8099
▁gardens	-8100
▁grabbed	-8101
▁nodding	-8102
▁captured	-8103
▁mischief	-8104
▁ventured	-8105
▁youthful	-8106
▁Presently	-8107
▁behaviour	-8108
▁indicated	-8109
▁principle	-8110
▁stockings	-8111
▁previously	-8112
▁proportion	-8113
▁restaurant	-8114
▁tremendous	-8115
▁inhabitants	-8116
▁arrangements	-8117
pen	-8118
abby	-8119
rove	-8120
uary	-8121
unks	-8122
▁Nic	-8123
▁Sof	-8124
▁dat	-8125
▁raw	-8126
ollen	-8127
▁Chic	-8128
▁dang	-8129
▁envy	-8130
▁fain	-8131
▁fest	-8132
▁kick	-8133
▁raft	-8134
▁rasc	-8135
▁sobs	-8136
▁ashes	-8137
▁bunch	-8138
▁feast	-8139
▁jewel	-8140
▁niece	-8141
▁noted	-8142
▁stool	-8143
icating	-8144
▁Almost	-8145
▁Excuse	-8146
▁behave	-8147
▁canvas	-8148
▁dishon	-8149
▁retire	-8150
▁thresh	-8151
▁voyage	-8152
▁waiter	-8153
▁wander	-8154
▁yelled	-8155
▁Strider	-8156
▁amusing	-8157
▁anymore	-8158
▁chicken	-8159
▁convuls	-8160
▁cousins	-8161
▁crawled	-8162
▁elderly	-8163
▁glowing	-8164
▁magical	-8165
▁manager	-8166
▁miracle	-8167
▁prosper	-8168
▁rushing	-8169
▁shudder	-8170
▁articles	-8171
▁clothing	-8172
▁cupboard	-8173
▁educated	-8174
▁planning	-8175
▁reaction	-8176
▁romantic	-8177
▁withdrew	-8178
▁Alexander	-8179
▁belonging	-8180
▁enjoyment	-8181
▁appointment	-8182
▁represented	-8183
▁involuntarily	-8184
▁unconsciously	-8185
Don	-8186
ros	-8187
wig	-8188
eder	-8189
stra	-8190
usal	-8191
▁nap	-8192
heard	-8193
ilian	-8194
▁Club	-8195
▁Hart	-8196
▁Snow	-8197
▁Worm	-8198
▁mute	-8199
▁nest	-8200
▁pigs	-8201
▁wont	-8202
inette	-8203
▁angle	-8204
▁discl	-8205
▁embro	-8206
▁metal	-8207
▁reapp	-8208
▁tramp	-8209
▁banker	-8210
▁create	-8211
▁jerked	-8212
▁laughs	-8213
▁mortal	-8214
▁obeyed	-8215
▁rarely	-8216
▁transp	-8217
▁portion	-8218
▁results	-8219
▁whistle	-8220
▁disliked	-8221
▁distract	-8222
▁formerly	-8223
▁intimacy	-8224
▁medicine	-8225
▁snatched	-8226
▁swimming	-8227
▁forbidden	-8228
▁instrument	-8229
▁destruction	-8230
▁Gillenormand	-8231
IT	-8232
boy	-8233
ein	-8234
ibr	-8235
leg	-8236
not	-8237
▁OF	-8238
adle	-8239
▁dug	-8240
▁lav	-8241
▁lou	-8242
▁num	-8243
▁owe	-8244
▁sym	-8245
▁Bank	-8246
▁cake	-8247
▁disd	-8248
▁pump	-8249
▁sets	-8250
pended	-8251
▁Athel	-8252
▁Bates	-8253
▁Daisy	-8254
▁Giles	-8255
▁apron	-8256
▁blond	-8257
▁chess	-8258
▁illum	-8259
▁mamma	-8260
▁model	-8261
▁nostr	-8262
▁pound	-8263
▁solic	-8264
▁strip	-8265
▁talks	-8266
▁Epanch	-8267
▁Trunch	-8268
▁assert	-8269
▁brutal	-8270
▁plates	-8271
▁starts	-8272
▁tribes	-8273
▁weapon	-8274
inations	-8275
▁injured	-8276
▁planted	-8277
▁sadness	-8278
▁response	-8279
▁swinging	-8280
▁customers	-8281
▁supposing	-8282
▁threshold	-8283
▁irritation	-8284
▁inclination	-8285
▁communication	-8286
yl	-8287
▁ge	-8288
ears	-8289
enes	-8290
gage	-8291
oked	-8292
reme	-8293
▁Jan	-8294
▁Mir	-8295
▁Sea	-8296
▁haw	-8297
▁haz	-8298
icide	-8299
itory	-8300
▁Gent	-8301
▁Head	-8302
▁Jess	-8303
▁conj	-8304
▁lust	-8305
▁prev	-8306
▁stif	-8307
▁whit	-8308
▁Price	-8309
▁Revol	-8310
▁lamps	-8311
▁tower	-8312
▁Silver	-8313
▁dashed	-8314
▁hearth	-8315
▁learnt	-8316
▁pencil	-8317
▁rebell	-8318
▁rescue	-8319
▁tempor	-8320
aneously	-8321
▁circles	-8322
▁contain	-8323
▁crystal	-8324
▁fathers	-8325
▁readily	-8326
▁swollen	-8327
▁Clarissa	-8328
▁bursting	-8329
▁frequent	-8330
▁gracious	-8331
▁knocking	-8332
▁reserved	-8333
▁solemnly	-8334
▁protested	-8335
▁statement	-8336
▁transport	-8337
▁intentions	-8338
''	-8339
RE	-8340
fen	-8341
zia	-8342
▁Po	-8343
rian	-8344
rond	-8345
▁Gim	-8346
never	-8347
rious	-8348
urned	-8349
▁gigg	-8350
▁shan	-8351
▁snap	-8352
▁tipt	-8353
▁vale	-8354
illery	-8355
▁Shark	-8356
▁burnt	-8357
▁noisy	-8358
▁potat	-8359
▁advert	-8360
▁openly	-8361
▁patron	-8362
▁permit	-8363
▁robbed	-8364
▁safely	-8365
▁throng	-8366
▁tunnel	-8367
ushworth	-8368
▁Whether	-8369
▁chances	-8370
▁consult	-8371
▁doubted	-8372
▁murderer	-8373
▁pleasing	-8374
▁standard	-8375
▁treacher	-8376
▁Charlotte	-8377
▁including	-8378
▁supported	-8379
▁Jacqueline	-8380
▁Trunchbull	-8381
▁eventually	-8382
▁incredible	-8383
▁suspicions	-8384
▁attentively	-8385
eur	-8386
▁ON	-8387
achi	-8388
berg	-8389
cerf	-8390
cipl	-8391
ueen	-8392
▁Liz	-8393
▁Nas	-8394
▁Pat	-8395
▁Ver	-8396
▁net	-8397
▁rud	-8398
iated	-8399
which	-8400
▁Grim	-8401
▁Hill	-8402
▁Mari	-8403
▁bowl	-8404
▁runs	-8405
▁scow	-8406
▁tips	-8407
▁unin	-8408
▁homes	-8409
▁roots	-8410
▁wrist	-8411
▁Africa	-8412
▁Bagman	-8413
▁bullet	-8414
▁causes	-8415
▁dismay	-8416
▁luxury	-8417
▁needle	-8418
▁prodig	-8419
▁wounds	-8420
▁Anatole	-8421
▁handful	-8422
▁prepare	-8423
▁release	-8424
▁selling	-8425
▁clutched	-8426
▁deserved	-8427
▁knitting	-8428
▁meetings	-8429
▁restrain	-8430
▁sergeant	-8431
▁singular	-8432
▁stumbled	-8433
▁policeman	-8434
▁bitterness	-8435
▁convention	-8436
▁consequences	-8437
abe	-8438
▁Ho	-8439
illo	-8440
ucky	-8441
▁Ona	-8442
▁Pre	-8443
▁ank	-8444
▁nob	-8445
▁stu	-8446
adise	-8447
lying	-8448
▁Cree	-8449
▁Noah	-8450
▁choc	-8451
▁drum	-8452
▁elev	-8453
▁file	-8454
▁hats	-8455
▁mule	-8456
▁wool	-8457
ighted	-8458
▁admin	-8459
▁brist	-8460
▁title	-8461
▁union	-8462
inkling	-8463
▁Sophie	-8464
▁Stuart	-8465
▁beasts	-8466
▁brings	-8467
▁cheese	-8468
▁errant	-8469
▁firing	-8470
▁latest	-8471
▁prayed	-8472
▁wiping	-8473
▁Morcerf	-8474
▁college	-8475
▁stamped	-8476
▁animated	-8477
▁awaiting	-8478
▁embraced	-8479
▁national	-8480
▁overhead	-8481
▁villages	-8482
▁accompany	-8483
▁agreement	-8484
▁decidedly	-8485
▁fantastic	-8486
▁painfully	-8487
▁unnatural	-8488
▁Antoinette	-8489
▁conception	-8490
ero	-8491
oir	-8492
▁Mol	-8493
▁Var	-8494
▁bru	-8495
atson	-8496
oning	-8497
oting	-8498
▁Down	-8499
▁cris	-8500
▁duke	-8501
▁fren	-8502
▁lane	-8503
▁rags	-8504
▁sust	-8505
▁vice	-8506
resses	-8507
▁Hotel	-8508
▁Latin	-8509
▁bloss	-8510
▁holds	-8511
▁moist	-8512
▁revel	-8513
▁snake	-8514
uscript	-8515
▁bishop	-8516
▁bowing	-8517
▁eldest	-8518
▁recent	-8519
▁tragic	-8520
agration	-8521
anderley	-8522
▁element	-8523
▁fatigue	-8524
▁haunted	-8525
▁mankind	-8526
▁phrases	-8527
▁printed	-8528
▁wealthy	-8529
▁capacity	-8530
▁contents	-8531
▁evenings	-8532
▁gigantic	-8533
▁landlord	-8534
▁province	-8535
▁rejoined	-8536
▁whispers	-8537
▁advancing	-8538
▁assurance	-8539
▁compelled	-8540
▁inquiries	-8541
▁distinguish	-8542
▁superiority	-8543
tar	-8544
thr	-8545
zes	-8546
▁Ak	-8547
iana	-8548
plom	-8549
time	-8550
▁Cat	-8551
▁Hal	-8552
▁Ing	-8553
▁Ive	-8554
▁Obl	-8555
▁oak	-8556
icted	-8557
idrig	-8558
▁Sper	-8559
▁duel	-8560
▁vest	-8561
▁Beaut	-8562
▁Stubb	-8563
▁argue	-8564
▁chase	-8565
▁dined	-8566
▁domin	-8567
▁fleet	-8568
▁fools	-8569
▁lodge	-8570
▁rhyth	-8571
▁shift	-8572
▁shove	-8573
▁vigor	-8574
▁youre	-8575
umption	-8576
▁Better	-8577
▁diplom	-8578
▁earned	-8579
▁sobbed	-8580
▁speaks	-8581
▁trifle	-8582
▁Svidrig	-8583
▁filling	-8584
▁galloped	-8585
▁visiting	-8586
▁appearing	-8587
▁clergyman	-8588
▁countries	-8589
▁stillness	-8590
▁appreciate	-8591
▁background	-8592
▁manuscript	-8593
▁overwhelmed	-8594
▁unexpectedly	-8595
nut	-8596
rid	-8597
▁ju	-8598
ilet	-8599
oust	-8600
ules	-8601
▁sul	-8602
arled	-8603
neath	-8604
usive	-8605
▁Auda	-8606
▁Rain	-8607
▁Shar	-8608
▁ripp	-8609
▁wits	-8610
igneur	-8611
ursley	-8612
▁Mamma	-8613
▁Women	-8614
▁exert	-8615
▁indef	-8616
▁nasty	-8617
▁orche	-8618
▁parch	-8619
▁ridge	-8620
▁stubb	-8621
▁veins	-8622
athetic	-8623
itching	-8624
▁backed	-8625
▁buying	-8626
▁critic	-8627
▁errand	-8628
▁meadow	-8629
▁writer	-8630
▁declare	-8631
▁tragedy	-8632
▁accounts	-8633
▁bleeding	-8634
▁honestly	-8635
▁invented	-8636
▁measured	-8637
▁obtained	-8638
▁smelling	-8639
▁Manderley	-8640
▁confirmed	-8641
▁tormented	-8642
▁discussing	-8643
▁excellency	-8644
▁simplicity	-8645
▁Svidrigailov	-8646
ND	-8647
▁Av	-8648
▁gy	-8649
pril	-8650
▁Alp	-8651
gging	-8652
itors	-8653
rying	-8654
uting	-8655
▁Leah	-8656
▁Stan	-8657
▁seam	-8658
▁Among	-8659
▁April	-8660
▁Spain	-8661
▁World	-8662
▁dimin	-8663
▁effic	-8664
▁error	-8665
▁fists	-8666
▁kings	-8667
▁paths	-8668
▁piled	-8669
▁schol	-8670
▁scrup	-8671
ressing	-8672
▁Govern	-8673
▁Mellis	-8674
▁assume	-8675
▁defeat	-8676
▁incess	-8677
▁joking	-8678
▁passes	-8679
▁prejud	-8680
▁serene	-8681
▁urgent	-8682
▁Chicago	-8683
▁behaved	-8684
▁caution	-8685
▁chanced	-8686
▁divorce	-8687
▁ecstasy	-8688
▁winding	-8689
▁Starbuck	-8690
▁peaceful	-8691
▁Churchill	-8692
▁delicious	-8693
▁Revolution	-8694
▁distressed	-8695
▁humiliation	-8696
hev	-8697
him	-8698
ias	-8699
rac	-8700
sey	-8701
▁Sn	-8702
▁tu	-8703
This	-8704
apel	-8705
bons	-8706
hers	-8707
▁apt	-8708
▁jet	-8709
▁nun	-8710
▁psy	-8711
uated	-8712
▁Bolk	-8713
▁Gran	-8714
▁Turn	-8715
▁Volt	-8716
▁Wils	-8717
▁duck	-8718
▁emph	-8719
▁limp	-8720
▁welc	-8721
▁Sharm	-8722
▁adjut	-8723
▁avail	-8724
▁vehic	-8725
▁vivid	-8726
▁Watson	-8727
▁barber	-8728
▁dishes	-8729
▁echoed	-8730
▁expert	-8731
▁mutual	-8732
▁rotten	-8733
▁provide	-8734
▁radiant	-8735
▁stunned	-8736
▁Minister	-8737
▁clearing	-8738
▁numerous	-8739
▁depressed	-8740
▁interfere	-8741
▁introduce	-8742
▁responded	-8743
▁explaining	-8744
▁passengers	-8745
▁consolation	-8746
▁development	-8747
▁exceedingly	-8748
ola	-8749
ops	-8750
cons	-8751
inya	-8752
isco	-8753
rain	-8754
upon	-8755
▁Dod	-8756
▁Fle	-8757
▁Mur	-8758
becca	-8759
lemen	-8760
▁Conn	-8761
▁Prok	-8762
▁borr	-8763
▁clam	-8764
▁curt	-8765
▁lege	-8766
▁mask	-8767
▁peep	-8768
▁tops	-8769
▁Tower	-8770
▁alche	-8771
▁alert	-8772
▁cents	-8773
▁loyal	-8774
▁shots	-8775
▁squad	-8776
version	-8777
▁Accord	-8778
▁Yankee	-8779
▁dreary	-8780
▁emphas	-8781
▁slaves	-8782
▁spells	-8783
▁stores	-8784
▁strode	-8785
▁uproar	-8786
ulations	-8787
▁defence	-8788
▁descend	-8789
▁discipl	-8790
▁liberal	-8791
▁sailing	-8792
▁sleeves	-8793
▁thanked	-8794
▁quantity	-8795
▁released	-8796
▁slipping	-8797
▁centuries	-8798
▁comparison	-8799
▁formidable	-8800
▁unnecessary	-8801
bin	-8802
vis	-8803
▁ga	-8804
alia	-8805
cest	-8806
▁Aye	-8807
▁Got	-8808
▁Tob	-8809
▁tas	-8810
▁tyr	-8811
hings	-8812
idays	-8813
woman	-8814
▁Beat	-8815
▁Frau	-8816
▁Pray	-8817
▁ting	-8818
▁toil	-8819
intend	-8820
oubted	-8821
▁Demon	-8822
▁Fudge	-8823
▁Gimli	-8824
▁blush	-8825
▁couch	-8826
▁infer	-8827
▁overl	-8828
istered	-8829
orthern	-8830
▁Harper	-8831
▁intrig	-8832
▁rhythm	-8833
▁traces	-8834
ications	-8835
seigneur	-8836
▁Whitney	-8837
▁council	-8838
▁granted	-8839
▁pitched	-8840
▁seizing	-8841
▁subdued	-8842
▁tempted	-8843
▁whoever	-8844
▁appetite	-8845
▁attorney	-8846
▁gestures	-8847
▁infantry	-8848
▁inspired	-8849
▁overcoat	-8850
▁probable	-8851
▁resigned	-8852
▁softened	-8853
▁stubborn	-8854
▁artillery	-8855
▁developed	-8856
▁displayed	-8857
▁preserved	-8858
▁scoundrel	-8859
▁surrender	-8860
▁respectful	-8861
▁travelling	-8862
Is	-8863
LE	-8864
mo	-8865
▁Ty	-8866
andy	-8867
neys	-8868
pass	-8869
pses	-8870
▁Bur	-8871
▁Wed	-8872
▁ult	-8873
erson	-8874
▁Army	-8875
▁Stay	-8876
▁bade	-8877
▁dart	-8878
▁spur	-8879
▁toes	-8880
actory	-8881
▁Colia	-8882
▁alter	-8883
▁feroc	-8884
▁hasty	-8885
▁jokes	-8886
▁needn	-8887
▁owing	-8888
assador	-8889
▁Gregor	-8890
▁Marija	-8891
▁Wilson	-8892
▁babies	-8893
▁bachel	-8894
▁closet	-8895
▁escort	-8896
▁gladly	-8897
▁injust	-8898
▁render	-8899
▁review	-8900
▁sovere	-8901
▁spared	-8902
▁studio	-8903
▁suited	-8904
▁Aksinya	-8905
▁cooking	-8906
▁dearest	-8907
▁display	-8908
▁massive	-8909
▁offices	-8910
▁studies	-8911
▁swaying	-8912
▁graceful	-8913
▁heartily	-8914
▁majority	-8915
▁marching	-8916
▁restored	-8917
▁retorted	-8918
▁uneasily	-8919
▁orchestra	-8920
▁senseless	-8921
▁carelessly	-8922
▁complexion	-8923
▁intolerable	-8924
gor	-8925
yss	-8926
▁Bu	-8927
▁Sl	-8928
iard	-8929
inks	-8930
▁Dur	-8931
▁owl	-8932
▁rug	-8933
actor	-8934
ourge	-8935
▁Time	-8936
▁True	-8937
▁beef	-8938
▁heir	-8939
▁pang	-8940
▁tide	-8941
estine	-8942
udence	-8943
▁Irish	-8944
▁Judge	-8945
▁abyss	-8946
▁clust	-8947
▁curls	-8948
▁equip	-8949
▁inval	-8950
▁meals	-8951
▁newly	-8952
▁outst	-8953
▁procl	-8954
▁stops	-8955
▁tents	-8956
▁tires	-8957
ctually	-8958
▁Andrey	-8959
▁Island	-8960
▁School	-8961
▁Victor	-8962
▁advise	-8963
▁indisp	-8964
▁ladder	-8965
▁quarre	-8966
▁rabbit	-8967
▁shrill	-8968
▁tricks	-8969
▁Comrade	-8970
▁briefly	-8971
▁timidly	-8972
▁yielded	-8973
▁disorder	-8974
▁mournful	-8975
▁mourning	-8976
▁polished	-8977
▁suitable	-8978
▁unreason	-8979
▁vigorous	-8980
rehensible	-8981
▁September	-8982
▁encounter	-8983
▁nightmare	-8984
▁sensitive	-8985
▁staggered	-8986
▁weariness	-8987
▁Philipovna	-8988
▁Providence	-8989
▁attentions	-8990
▁convenient	-8991
▁sufferings	-8992
▁expectation	-8993
▁establishment	-8994
Do	-8995
ulp	-8996
▁iv	-8997
iner	-8998
rous	-8999
▁Jon	-9000
▁Off	-9001
▁rav	-9002
▁yer	-9003
adays	-9004
andom	-9005
break	-9006
chell	-9007
▁Hugh	-9008
▁bury	-9009
▁deed	-9010
▁lend	-9011
▁mans	-9012
cribed	-9013
icable	-9014
ucking	-9015
▁Julie	-9016
▁Kolya	-9017
▁Magic	-9018
▁Merwe	-9019
▁blade	-9020
▁cease	-9021
▁femin	-9022
▁gaily	-9023
▁games	-9024
▁lonel	-9025
▁plays	-9026
▁tales	-9027
▁weigh	-9028
▁Prokof	-9029
▁aching	-9030
▁behalf	-9031
▁issued	-9032
▁naught	-9033
▁revolt	-9034
▁shapes	-9035
▁skirts	-9036
▁whales	-9037
▁Dursley	-9038
▁despise	-9039
▁Mitchell	-9040
▁appropri	-9041
▁nostrils	-9042
▁passions	-9043
▁preoccup	-9044
▁thirteen	-9045
▁Slytherin	-9046
▁chocolate	-9047
▁completed	-9048
▁dismissed	-9049
▁accomplish	-9050
▁opposition	-9051
▁politeness	-9052
▁underneath	-9053
▁distinction	-9054
▁instinctively	-9055
aleb	-9056
amir	-9057
itar	-9058
ront	-9059
▁Gem	-9060
▁Hom	-9061
▁Int	-9062
▁Oct	-9063
▁hom	-9064
arged	-9065
inges	-9066
inous	-9067
▁Cont	-9068
▁Know	-9069
▁Last	-9070
▁chor	-9071
▁lump	-9072
itudes	-9073
▁Bonap	-9074
▁dunge	-9075
▁flank	-9076
▁legal	-9077
▁phant	-9078
▁scrut	-9079
▁adding	-9080
▁carved	-9081
▁defect	-9082
▁explod	-9083
▁hissed	-9084
▁perman	-9085
▁purity	-9086
▁resign	-9087
▁Rebecca	-9088
▁drifted	-9089
▁howling	-9090
▁painter	-9091
▁stooped	-9092
Knightley	-9093
▁Fernanda	-9094
▁Sharmila	-9095
▁arriving	-9096
▁bestowed	-9097
▁shepherd	-9098
▁surround	-9099
▁wrinkled	-9100
▁Rushworth	-9101
▁afterward	-9102
▁doubtless	-9103
▁expensive	-9104
▁fireplace	-9105
▁stammered	-9106
▁arrangement	-9107
▁questioning	-9108
sm	-9109
dal	-9110
usc	-9111
emet	-9112
give	-9113
iazh	-9114
quar	-9115
tail	-9116
ural	-9117
▁Ell	-9118
▁Fed	-9119
▁Gen	-9120
▁Roc	-9121
▁Unt	-9122
▁ded	-9123
▁icy	-9124
▁nod	-9125
idity	-9126
mates	-9127
▁Krum	-9128
▁Pope	-9129
▁Raff	-9130
▁Tues	-9131
▁flee	-9132
▁hoof	-9133
▁nail	-9134
▁rosy	-9135
▁Caleb	-9136
▁Melch	-9137
▁Royal	-9138
▁focus	-9139
▁jolly	-9140
▁shrew	-9141
▁snuff	-9142
iazhsky	-9143
writing	-9144
▁Gondor	-9145
▁beggar	-9146
▁claims	-9147
▁crisis	-9148
▁reform	-9149
▁repent	-9150
▁sewing	-9151
▁volume	-9152
▁wretch	-9153
▁yonder	-9154
ceptible	-9155
▁Tuesday	-9156
▁brushed	-9157
▁crimson	-9158
▁defense	-9159
▁virtues	-9160
▁Catholic	-9161
▁Oblonsky	-9162
▁convince	-9163
▁lingered	-9164
▁Blackwell	-9165
▁Sviazhsky	-9166
▁challenge	-9167
▁composure	-9168
▁conducted	-9169
▁enchanted	-9170
▁horseback	-9171
▁injustice	-9172
▁innocence	-9173
▁perpetual	-9174
▁Government	-9175
▁calculated	-9176
▁occupation	-9177
▁surprising	-9178
▁yourselves	-9179
▁Monseigneur	-9180
pa	-9181
ario	-9182
▁pip	-9183
iency	-9184
piece	-9185
▁Slow	-9186
▁sque	-9187
▁unaw	-9188
vision	-9189
▁Varen	-9190
▁dimly	-9191
▁drift	-9192
▁irreg	-9193
▁suite	-9194
▁surge	-9195
oration	-9196
▁Nature	-9197
▁ashore	-9198
▁commit	-9199
▁constr	-9200
▁dollar	-9201
▁insign	-9202
▁invite	-9203
▁judges	-9204
▁random	-9205
▁scenes	-9206
▁shower	-9207
▁smoked	-9208
▁unseen	-9209
▁Raffles	-9210
▁accused	-9211
▁baggage	-9212
▁bargain	-9213
▁drawers	-9214
▁gleamed	-9215
▁ignored	-9216
▁leaders	-9217
▁pouring	-9218
▁section	-9219
▁suicide	-9220
▁thither	-9221
▁likewise	-9222
▁maintain	-9223
▁manifest	-9224
▁shivered	-9225
▁sideways	-9226
▁soothing	-9227
▁tortured	-9228
▁ascertain	-9229
▁messenger	-9230
▁vengeance	-9231
▁definitely	-9232
▁loneliness	-9233
▁procession	-9234
oz	-9235
wor	-9236
ripp	-9237
shaw	-9238
▁Bin	-9239
▁Fer	-9240
▁Fif	-9241
▁jam	-9242
▁rot	-9243
▁Home	-9244
▁Rest	-9245
▁astr	-9246
▁knot	-9247
▁lung	-9248
▁matt	-9249
▁pawn	-9250
▁thie	-9251
oulder	-9252
urable	-9253
▁Agnes	-9254
▁accur	-9255
▁carts	-9256
▁cigar	-9257
▁crash	-9258
▁issue	-9259
▁plump	-9260
▁sighs	-9261
▁swing	-9262
▁witch	-9263
▁Rachel	-9264
▁financ	-9265
▁lament	-9266
▁reveal	-9267
▁shirts	-9268
▁sleepy	-9269
▁spider	-9270
▁tracks	-9271
▁unjust	-9272
umerable	-9273
▁audible	-9274
▁dreaded	-9275
▁forming	-9276
▁largest	-9277
▁lecture	-9278
▁resolve	-9279
▁roughly	-9280
▁spoiled	-9281
▁Governor	-9282
▁Lockhart	-9283
▁clinging	-9284
▁mustache	-9285
▁propriet	-9286
▁sweeping	-9287
▁maintained	-9288
▁acknowledge	-9289
▁passionately	-9290
oos	-9291
uin	-9292
asse	-9293
ataz	-9294
cies	-9295
ench	-9296
ober	-9297
ondo	-9298
otic	-9299
▁Els	-9300
▁liv	-9301
escri	-9302
▁Brad	-9303
▁Lucy	-9304
▁cane	-9305
▁cush	-9306
▁dict	-9307
▁plot	-9308
▁prey	-9309
▁rein	-9310
▁spit	-9311
▁tram	-9312
bishop	-9313
iality	-9314
▁Gemma	-9315
▁Hello	-9316
▁apple	-9317
▁bloom	-9318
▁monot	-9319
▁moves	-9320
▁psych	-9321
▁rifle	-9322
▁seize	-9323
▁vexed	-9324
▁wasnt	-9325
▁ancest	-9326
▁applic	-9327
▁county	-9328
▁cursed	-9329
▁elabor	-9330
▁kisses	-9331
▁precip	-9332
▁swords	-9333
▁thence	-9334
▁uncomm	-9335
▁upward	-9336
▁verses	-9337
oubtedly	-9338
▁Athelny	-9339
▁Capataz	-9340
▁Wickham	-9341
▁beaming	-9342
▁exclaim	-9343
▁gallant	-9344
▁groaned	-9345
▁leagues	-9346
▁muffled	-9347
▁proudly	-9348
▁reports	-9349
▁weighed	-9350
▁Demonata	-9351
▁Melchior	-9352
▁Pavlovna	-9353
▁fiercely	-9354
▁training	-9355
▁vexation	-9356
▁Bolkonski	-9357
▁assembled	-9358
▁discussed	-9359
▁honorable	-9360
▁patiently	-9361
▁fascinated	-9362
▁preparation	-9363
▁mechanically	-9364
OL	-9365
ada	-9366
hol	-9367
ora	-9368
bell	-9369
omir	-9370
pire	-9371
▁Sor	-9372
▁Ted	-9373
▁awe	-9374
▁sou	-9375
▁typ	-9376
▁vap	-9377
essie	-9378
gency	-9379
inity	-9380
▁dece	-9381
▁gods	-9382
▁lion	-9383
▁vibr	-9384
▁ware	-9385
astern	-9386
versed	-9387
▁Flagg	-9388
▁accus	-9389
▁hints	-9390
▁irony	-9391
▁limit	-9392
▁pregn	-9393
▁prize	-9394
▁saint	-9395
▁sheer	-9396
▁wreck	-9397
▁bellow	-9398
▁chains	-9399
▁commer	-9400
▁filthy	-9401
▁infect	-9402
▁liquid	-9403
▁Boromir	-9404
▁October	-9405
▁artific	-9406
▁bullets	-9407
▁comprom	-9408
▁conject	-9409
▁flowing	-9410
▁profess	-9411
▁refusal	-9412
▁smelled	-9413
▁bothered	-9414
▁gleaming	-9415
▁inconven	-9416
▁patients	-9417
▁Gentlemen	-9418
▁annoyance	-9419
▁awkwardly	-9420
▁conceived	-9421
▁criticism	-9422
▁relatives	-9423
▁Maximilian	-9424
▁attachment	-9425
▁celebrated	-9426
▁cheerfully	-9427
▁comprehend	-9428
▁superintend	-9429
▁preparations	-9430
lv	-9431
aky	-9432
avy	-9433
ban	-9434
fey	-9435
ona	-9436
dney	-9437
grim	-9438
inea	-9439
inky	-9440
mity	-9441
oard	-9442
oubt	-9443
rigg	-9444
uffs	-9445
usse	-9446
utch	-9447
▁Boy	-9448
▁Sar	-9449
▁Sav	-9450
▁gut	-9451
ilton	-9452
ishly	-9453
lance	-9454
▁Hare	-9455
▁Lily	-9456
▁beck	-9457
▁fret	-9458
▁urge	-9459
feyrac	-9460
istocr	-9461
nesday	-9462
▁Angel	-9463
▁altar	-9464
▁bliss	-9465
▁palms	-9466
stantin	-9467
ulously	-9468
▁Except	-9469
▁Hannah	-9470
▁Olivia	-9471
▁biting	-9472
▁engage	-9473
▁faults	-9474
▁malice	-9475
▁offend	-9476
▁paraly	-9477
▁repose	-9478
▁ripped	-9479
▁sailed	-9480
▁simult	-9481
▁stated	-9482
▁Faramir	-9483
▁Jessica	-9484
▁awaited	-9485
▁couldnt	-9486
▁courtes	-9487
▁endured	-9488
▁eyelids	-9489
▁harbour	-9490
▁mumbled	-9491
▁notions	-9492
▁workers	-9493
▁Confeder	-9494
▁borrowed	-9495
▁delicacy	-9496
▁discreet	-9497
▁holidays	-9498
▁indescri	-9499
▁rational	-9500
▁shameful	-9501
▁Bagration	-9502
▁Wednesday	-9503
▁muttering	-9504
▁resembled	-9505
▁suspended	-9506
▁Courfeyrac	-9507
▁advantages	-9508
▁complained	-9509
▁expressing	-9510
▁resentment	-9511
▁entertainment	-9512
IG	-9513
mmed	-9514
text	-9515
town	-9516
uick	-9517
▁Jud	-9518
▁Mih	-9519
▁Rat	-9520
▁enl	-9521
avell	-9522
icass	-9523
immed	-9524
oving	-9525
riers	-9526
▁Esme	-9527
▁Pont	-9528
▁fame	-9529
▁gamb	-9530
▁goin	-9531
▁gulf	-9532
▁ungr	-9533
▁wars	-9534
bation	-9535
ternal	-9536
ugging	-9537
▁Brent	-9538
▁Sofya	-9539
▁ambit	-9540
▁lifet	-9541
▁reins	-9542
▁sewer	-9543
ulating	-9544
▁Sydney	-9545
▁Twenty	-9546
▁adored	-9547
▁finest	-9548
▁ignore	-9549
▁ponder	-9550
▁shrewd	-9551
▁soaked	-9552
▁Looking	-9553
▁Macondo	-9554
▁Varenka	-9555
▁buttons	-9556
▁chemist	-9557
▁discern	-9558
▁harmony	-9559
▁packing	-9560
▁priests	-9561
▁prolong	-9562
▁shifted	-9563
▁aristocr	-9564
▁attempts	-9565
▁behavior	-9566
▁distrust	-9567
▁doubtful	-9568
▁expenses	-9569
▁fountain	-9570
▁landlady	-9571
▁measures	-9572
▁proposal	-9573
▁slippers	-9574
▁whiskers	-9575
▁Knightley	-9576
▁dissatisf	-9577
▁pleasures	-9578
▁regularly	-9579
▁insignific	-9580
▁perfection	-9581
▁handwriting	-9582
▁innumerable	-9583
▁reflections	-9584
▁irresistible	-9585
ET	-9586
OW	-9587
▁Ot	-9588
izes	-9589
oral	-9590
raft	-9591
▁Fat	-9592
▁Res	-9593
▁pla	-9594
▁roo	-9595
▁Abbe	-9596
▁Sylv	-9597
▁hood	-9598
▁lazy	-9599
▁sarc	-9600
erving	-9601
verted	-9602
▁Greek	-9603
▁Longb	-9604
▁alley	-9605
▁bears	-9606
▁fairy	-9607
▁muddy	-9608
▁progr	-9609
▁trump	-9610
▁vener	-9611
illings	-9612
rection	-9613
▁Always	-9614
▁denied	-9615
▁fisher	-9616
▁heroic	-9617
▁humans	-9618
▁labour	-9619
▁plants	-9620
▁ribbon	-9621
▁ridden	-9622
▁tasted	-9623
ositions	-9624
▁Hayward	-9625
▁Legolas	-9626
▁Richard	-9627
▁adopted	-9628
▁disdain	-9629
▁effects	-9630
▁emperor	-9631
▁jumping	-9632
▁lawyers	-9633
▁pistols	-9634
▁spotted	-9635
▁superst	-9636
▁upwards	-9637
▁vampire	-9638
▁whipped	-9639
▁bachelor	-9640
▁creeping	-9641
▁critical	-9642
▁piercing	-9643
▁railroad	-9644
▁refusing	-9645
▁sticking	-9646
▁worrying	-9647
▁traveling	-9648
▁exasperated	-9649
▁opportunities	-9650
CE	-9651
igr	-9652
lie	-9653
▁Fo	-9654
amaz	-9655
book	-9656
lime	-9657
uity	-9658
▁Bru	-9659
▁Ern	-9660
▁Sot	-9661
arton	-9662
cloth	-9663
enith	-9664
▁Gard	-9665
▁Loth	-9666
▁anch	-9667
▁bubb	-9668
▁coss	-9669
▁dorm	-9670
▁pled	-9671
▁pots	-9672
▁pref	-9673
▁prem	-9674
▁puts	-9675
▁text	-9676
▁vile	-9677
mistak	-9678
▁Until	-9679
▁clasp	-9680
▁fling	-9681
▁folds	-9682
▁frock	-9683
▁roofs	-9684
▁spoon	-9685
▁Lowick	-9686
▁Parfen	-9687
▁borrow	-9688
▁copper	-9689
▁garage	-9690
▁immort	-9691
▁neatly	-9692
▁orphan	-9693
▁robber	-9694
quarters	-9695
▁Bricass	-9696
▁disconc	-9697
▁envelop	-9698
▁patches	-9699
▁sailors	-9700
▁speaker	-9701
▁whereas	-9702
▁Epanchin	-9703
▁Probably	-9704
▁casually	-9705
▁illusion	-9706
▁tranquil	-9707
▁unmistak	-9708
▁community	-9709
▁shillings	-9710
▁spectacle	-9711
▁undertake	-9712
▁willingly	-9713
▁generosity	-9714
▁infinitely	-9715
▁temptation	-9716
▁acknowledged	-9717
▁characteristic	-9718
bre	-9719
gue	-9720
▁Kl	-9721
▁TV	-9722
▁Vl	-9723
dles	-9724
lest	-9725
this	-9726
▁Gar	-9727
▁Ily	-9728
▁Sit	-9729
▁Tra	-9730
▁pir	-9731
▁tun	-9732
abled	-9733
asses	-9734
champ	-9735
eries	-9736
orthy	-9737
ppers	-9738
udged	-9739
▁Alas	-9740
▁Mann	-9741
▁Okay	-9742
▁bisc	-9743
▁brig	-9744
▁cows	-9745
▁dial	-9746
▁fits	-9747
▁sale	-9748
▁seas	-9749
▁vote	-9750
▁wick	-9751
urious	-9752
▁Being	-9753
▁activ	-9754
▁eloqu	-9755
▁gifts	-9756
▁gorge	-9757
retched	-9758
▁Copper	-9759
▁Damasc	-9760
▁Seeing	-9761
▁Things	-9762
▁boards	-9763
▁guided	-9764
▁mercen	-9765
▁sticks	-9766
▁confirm	-9767
▁culture	-9768
▁failing	-9769
▁gravity	-9770
▁payment	-9771
▁restore	-9772
▁roaring	-9773
▁rubbish	-9774
▁shallow	-9775
▁sternly	-9776
▁sympath	-9777
▁traffic	-9778
▁climbing	-9779
▁creation	-9780
▁feminine	-9781
▁interpre	-9782
▁mistakes	-9783
▁nowadays	-9784
▁purchase	-9785
▁twisting	-9786
▁uncommon	-9787
▁backwards	-9788
▁imagining	-9789
▁sovereign	-9790
▁spreading	-9791
▁encouraged	-9792
▁philosophy	-9793
▁reluctantly	-9794
bru	-9795
vag	-9796
▁cy	-9797
▁Abe	-9798
▁Duc	-9799
▁Sab	-9800
▁kin	-9801
▁umb	-9802
annie	-9803
arant	-9804
riety	-9805
water	-9806
▁grop	-9807
▁soap	-9808
alling	-9809
amazov	-9810
iation	-9811
verend	-9812
▁Cross	-9813
▁Marse	-9814
▁Night	-9815
▁Stroe	-9816
▁creep	-9817
▁debts	-9818
▁grant	-9819
▁squat	-9820
▁Anyway	-9821
▁Elrond	-9822
▁Grubbs	-9823
▁Helene	-9824
▁Lawson	-9825
▁bourge	-9826
▁drinks	-9827
▁hammer	-9828
▁insane	-9829
▁salary	-9830
▁shabby	-9831
▁states	-9832
▁tiptoe	-9833
▁toilet	-9834
ological	-9835
▁Sotillo	-9836
▁biggest	-9837
▁frankly	-9838
▁relaxed	-9839
▁winning	-9840
▁European	-9841
▁Mordaunt	-9842
▁checking	-9843
▁function	-9844
▁generals	-9845
▁punished	-9846
▁rejected	-9847
▁Karamazov	-9848
▁retreated	-9849
▁sincerely	-9850
▁attraction	-9851
▁characters	-9852
▁occasional	-9853
▁resistance	-9854
▁compliments	-9855
uh	-9856
uv	-9857
yr	-9858
aft	-9859
▁Ay	-9860
▁Ut	-9861
maid	-9862
some	-9863
unts	-9864
▁Sol	-9865
▁bee	-9866
▁cul	-9867
▁ray	-9868
phine	-9869
utton	-9870
▁Ever	-9871
▁Mike	-9872
▁bolt	-9873
▁dram	-9874
▁isnt	-9875
▁owed	-9876
▁rats	-9877
▁ribs	-9878
aneous	-9879
▁Akaba	-9880
▁Filch	-9881
▁Nasir	-9882
▁Trans	-9883
▁acute	-9884
▁brute	-9885
▁conve	-9886
▁crush	-9887
▁goose	-9888
▁manuf	-9889
▁pulse	-9890
▁recei	-9891
▁stake	-9892
▁tense	-9893
▁toast	-9894
▁whirl	-9895
▁County	-9896
▁Excell	-9897
▁Guards	-9898
▁Ilusha	-9899
▁barbar	-9900
▁barrel	-9901
▁boiled	-9902
▁chival	-9903
▁induce	-9904
▁insens	-9905
▁masses	-9906
▁oldest	-9907
▁patted	-9908
▁punish	-9909
▁Frannie	-9910
▁Marquis	-9911
▁Stroeve	-9912
▁Vauquer	-9913
▁conquer	-9914
▁conspir	-9915
▁draught	-9916
▁guarded	-9917
▁halfway	-9918
▁magistr	-9919
▁nursery	-9920
▁screams	-9921
▁snarled	-9922
▁Damascus	-9923
▁division	-9924
▁dripping	-9925
▁politely	-9926
▁relative	-9927
▁Beauchamp	-9928
▁admirable	-9929
▁indignant	-9930
▁neglected	-9931
▁published	-9932
▁regarding	-9933
▁proceeding	-9934
pef	-9935
anya	-9936
onsh	-9937
ords	-9938
roll	-9939
▁	-9940
e	-9941
t	-9942
a	-9943
o	-9944
n	-9945
h	-9946
i	-9947
s	-9948
r	-9949
d	-9950
l	-9951
u	-9952
m	-9953
w	-9954
c	-9955
f	-9956
g	-9957
y	-9958
p	-9959
b	-9960
,	-9961
.	-9962
v	-9963
k	-9964
'	-9965
I	-9966
T	-9967
H	-9968
A	-9969
S	-9970
M	-9971
;	-9972
?	-9973
x	-9974
W	-9975
B	-9976
!	-9977
C	-9978
j	-9979
D	-9980
q	-9981
P	-9982
N	-9983
F	-9984
L	-9985
G	-9986
Y	-9987
z	-9988
O	-9989
R	-9990
E	-9991
:	-9992
J	-9993
K	-9994
V	-9995
U	-9996
