<unk>	0
<s>	0
</s>	0
▁ب	-0
▁ا	-1
▁م	-2
▁ک	-3
▁د	-4
▁و	-5
را	-6
ان	-7
▁ه	-8
▁ن	-9
ود	-10
▁خ	-11
▁می	-12
ست	-13
▁ت	-14
ند	-15
▁به	-16
▁آ	-17
رد	-18
▁ش	-19
ین	-20
▁که	-21
ار	-22
▁را	-23
ای	-24
▁در	-25
▁س	-26
▁گ	-27
▁پ	-28
▁از	-29
ید	-30
▁با	-31
▁ر	-32
▁بود	-33
▁چ	-34
فت	-35
اد	-36
▁ی	-37
▁این	-38
▁آن	-39
شت	-40
▁ج	-41
▁هم	-42
▁ز	-43
▁کرد	-44
▁او	-45
▁ح	-46
ال	-47
اه	-48
ری	-49
▁ف	-50
می	-51
▁خو	-52
▁شد	-53
ون	-54
ور	-55
وی	-56
ام	-57
لی	-58
▁من	-59
▁ق	-60
▁ع	-61
▁است	-62
▁خود	-63
ما	-64
▁بی	-65
▁ل	-66
▁ها	-67
▁بر	-68
اب	-69
▁کن	-70
▁یک	-71
اشت	-72
▁های	-73
تی	-74
یر	-75
▁گفت	-76
▁تو	-77
▁ای	-78
▁ص	-79
خت	-80
▁برا	-81
▁رو	-82
لا	-83
یز	-84
گر	-85
▁دو	-86
▁سر	-87
نگ	-88
یم	-89
یش	-90
▁نمی	-91
▁تا	-92
ده	-93
سی	-94
▁دی	-95
▁ط	-96
..	-97
انه	-98
اری	-99
▁داد	-100
▁داشت	-101
▁برای	-102
انی	-103
از	-104
▁دست	-105
رو	-106
▁چه	-107
▁مو	-108
▁هر	-109
اره	-110
اس	-111
▁شده	-112
ره	-113
ران	-114
اق	-115
اید	-116
که	-117
▁تر	-118
ات	-119
▁اما	-120
وش	-121
▁حال	-122
یده	-123
اده	-124
ول	-125
▁رفت	-126
گی	-127
▁کند	-128
مان	-129
▁ام	-130
رف	-131
▁اند	-132
▁نگ	-133
▁گر	-134
ارد	-135
▁خواه	-136
بی	-137
▁روی	-138
▁بد	-139
▁کار	-140
▁باش	-141
▁همه	-142
▁نی	-143
شان	-144
▁آم	-145
له	-146
▁هی	-147
▁چیز	-148
در	-149
▁اش	-150
نی	-151
▁ند	-152
▁غ	-153
▁نا	-154
▁وق	-155
▁ما	-156
▁باز	-157
▁یا	-158
اند	-159
تر	-160
▁ان	-161
▁پر	-162
▁نه	-163
▁مرد	-164
کن	-165
▁کرده	-166
ایی	-167
عد	-168
▁خی	-169
قی	-170
▁شما	-171
جا	-172
ها	-173
▁پس	-174
کی	-175
دی	-176
وان	-177
▁دیگر	-178
ورد	-179
سید	-180
یا	-181
▁گذ	-182
بت	-183
...	-184
▁گرفت	-185
▁پیش	-186
چه	-187
شم	-188
▁بودند	-189
کر	-190
سته	-191
▁اح	-192
انم	-193
اخت	-194
▁کش	-195
▁کو	-196
▁ده	-197
▁هیچ	-198
▁کنم	-199
▁صد	-200
عی	-201
▁روز	-202
▁نش	-203
▁بعد	-204
▁مح	-205
▁دار	-206
وم	-207
▁زی	-208
▁زد	-209
است	-210
▁نب	-211
▁اس	-212
▁پی	-213
▁اگر	-214
نده	-215
عت	-216
انست	-217
▁فر	-218
▁چن	-219
▁نظ	-220
▁مت	-221
وز	-222
▁ولی	-223
▁دید	-224
▁تن	-225
▁راه	-226
▁ات	-227
▁بز	-228
▁تم	-229
جه	-230
به	-231
بر	-232
▁زن	-233
▁باشد	-234
▁دل	-235
▁مع	-236
دم	-237
▁وی	-238
▁نو	-239
اک	-240
▁کل	-241
▁بل	-242
▁نیست	-243
وه	-244
▁فکر	-245
▁بگ	-246
▁ال	-247
رار	-248
اط	-249
▁شن	-250
▁شود	-251
▁نگاه	-252
▁باید	-253
▁برد	-254
▁آمد	-255
خو	-256
نج	-257
▁خیلی	-258
▁کم	-259
▁وقتی	-260
‬‬	-261
الی	-262
رک	-263
▁نظر	-264
▁چون	-265
▁خانه	-266
▁نم	-267
▁لب	-268
▁آق	-269
شن	-270
▁زند	-271
▁چند	-272
اف	-273
رگ	-274
▁چیزی	-275
هم	-276
قه	-277
دا	-278
▁هست	-279
▁همین	-280
وت	-281
▁آورد	-282
▁پای	-283
▁بار	-284
▁همان	-285
رت	-286
▁اف	-287
▁تمام	-288
▁افت	-289
▁حرف	-290
ظه	-291
▁رسید	-292
اش	-293
▁مس	-294
امه	-295
▁جو	-296
▁مث	-297
▁خوش	-298
رم	-299
▁لح	-300
▁نبود	-301
باره	-302
گاه	-303
▁،	-304
ئی	-305
▁سو	-306
رش	-307
▁جا	-308
▁نف	-309
▁مرا	-310
▁آقای	-311
▁.	-312
▁مش	-313
▁دارد	-314
رز	-315
مین	-316
▁دوست	-317
▁شه	-318
▁نز	-319
▁بسی	-320
شته	-321
▁دور	-322
مه	-323
▁مق	-324
قط	-325
▁شک	-326
▁کردند	-327
ورت	-328
▁چشم	-329
▁سال	-330
رون	-331
رب	-332
▁خوب	-333
لو	-334
▁ماد	-335
▁احس	-336
▁یکی	-337
▁مثل	-338
▁کردم	-339
رام	-340
▁صدای	-341
▁نیز	-342
وری	-343
▁دیگ	-344
▁گرد	-345
جود	-346
▁نداشت	-347
▁خانم	-348
رده	-349
▁طور	-350
▁بیرون	-351
وس	-352
وا	-353
▁انگ	-354
▁سی	-355
▁خواهد	-356
▁تص	-357
▁مان	-358
▁مد	-359
▁سا	-360
▁دخت	-361
▁شب	-362
نه	-363
▁احساس	-364
▁توانست	-365
▁آه	-366
▁خواست	-367
گه	-368
▁بسیار	-369
▁فقط	-370
فته	-371
▁چنین	-372
▁گوش	-373
▁اط	-374
▁زیر	-375
یشه	-376
▁کسی	-377
▁کشید	-378
▁بین	-379
▁بالا	-380
های	-381
▁وقت	-382
با	-383
کار	-384
▁اینکه	-385
▁طرف	-386
ادی	-387
▁کنند	-388
▁زندگی	-389
ونه	-390
▁اتاق	-391
▁هن	-392
▁عم	-393
▁نک	-394
صی	-395
▁خودش	-396
شی	-397
▁میان	-398
سم	-399
▁مه	-400
▁کوچ	-401
▁مط	-402
▁یاد	-403
▁اد	-404
ازه	-405
فی	-406
▁تنها	-407
▁ض	-408
▁خاط	-409
▁آنجا	-410
▁حالا	-411
▁واق	-412
وند	-413
▁حتی	-414
▁قرار	-415
▁مج	-416
▁جای	-417
▁بخ	-418
▁پشت	-419
وید	-420
بل	-421
▁بده	-422
▁تع	-423
▁گذاشت	-424
▁وجود	-425
لب	-426
▁رس	-427
زه	-428
فه	-429
▁سپ	-430
▁بلند	-431
▁صورت	-432
اهی	-433
کان	-434
▁کس	-435
ضی	-436
▁بزرگ	-437
▁کنار	-438
▁اص	-439
قت	-440
▁حس	-441
▁پدر	-442
▁صح	-443
▁لحظه	-444
ریست	-445
▁بیشت	-446
ویی	-447
▁پا	-448
▁بودم	-449
▁دن	-450
▁چنان	-451
▁بب	-452
▁سخ	-453
▁نق	-454
▁هنگ	-455
▁دا	-456
▁تح	-457
▁چرا	-458
وب	-459
▁داده	-460
▁ژ	-461
▁بن	-462
ارت	-463
▁سه	-464
▁اینجا	-465
جی	-466
عه	-467
▁نزدی	-468
▁تق	-469
تاب	-470
▁کی	-471
▁قدر	-472
▁برگ	-473
▁عق	-474
▁دیگری	-475
▁پنج	-476
▁آب	-477
▁فرو	-478
▁درست	-479
▁هنوز	-480
جام	-481
▁گرفته	-482
▁اون	-483
رین	-484
▁ساخت	-485
رکت	-486
مت	-487
بان	-488
اص	-489
▁کردن	-490
▁خورد	-491
زی	-492
اً	-493
▁داشته	-494
▁رنگ	-495
▁کام	-496
▁جم	-497
▁انت	-498
▁هایش	-499
رای	-500
▁زمین	-501
یره	-502
▁فری	-503
▁بچه	-504
▁دانست	-505
▁ایست	-506
▁ظ	-507
▁اج	-508
▁شاید	-509
▁نام	-510
▁پید	-511
▁افتاد	-512
▁نزدیک	-513
▁انداخت	-514
▁مم	-515
▁سف	-516
▁خاطر	-517
▁خواب	-518
▁آخ	-519
▁شاه	-520
گز	-521
بال	-522
امی	-523
انو	-524
▁جن	-525
▁راست	-526
▁زیرا	-527
▁بیش	-528
▁درباره	-529
▁بیشتر	-530
▁شم	-531
▁پیر	-532
▁ساعت	-533
‬‬‬‬	-534
▁هری	-535
ارم	-536
▁...	-537
▁جواب	-538
▁دارم	-539
▁گی	-540
▁ذ	-541
نش	-542
▁مخ	-543
▁موق	-544
▁رفته	-545
▁هایی	-546
ویم	-547
حت	-548
▁خط	-549
سه	-550
▁آنکه	-551
وع	-552
نان	-553
▁کنید	-554
▁پیدا	-555
▁کاری	-556
▁همیشه	-557
خواه	-558
▁بدون	-559
▁مل	-560
▁پرسید	-561
خته	-562
▁کوچک	-563
▁بهتر	-564
ایش	-565
▁شدند	-566
وده	-567
لاً	-568
▁دهد	-569
▁آمده	-570
ابل	-571
ایت	-572
شتی	-573
▁جز	-574
▁دیده	-575
▁خواهم	-576
▁برخ	-577
▁چی	-578
▁اول	-579
▁واقع	-580
▁آدم	-581
▁همچ	-582
انش	-583
کنون	-584
▁آیا	-585
تش	-586
▁کنی	-587
▁لا	-588
راز	-589
▁گری	-590
▁نشان	-591
▁سوی	-592
▁حد	-593
▁وح	-594
وق	-595
▁بک	-596
▁گل	-597
راه	-598
ندی	-599
دید	-600
▁مردم	-601
▁توان	-602
▁زده	-603
▁جه	-604
زار	-605
خانه	-606
▁ری	-607
▁بش	-608
▁ممکن	-609
▁حرکت	-610
▁ناگه	-611
▁مورد	-612
▁فی	-613
وار	-614
▁اخ	-615
▁خدا	-616
▁پول	-617
▁حالی	-618
▁خودم	-619
اض	-620
▁جان	-621
لف	-622
▁یه	-623
▁نیم	-624
راف	-625
▁دوباره	-626
▁جوان	-627
▁بت	-628
▁سرش	-629
▁آرام	-630
▁مانند	-631
ینی	-632
▁چهره	-633
▁فران	-634
▁میز	-635
▁صحبت	-636
▁قط	-637
▁اکنون	-638
ونی	-639
▁هرگز	-640
▁اعت	-641
▁لباس	-642
▁اع	-643
کس	-644
▁شنید	-645
▁سنگ	-646
کل	-647
▁لی	-648
▁نس	-649
▁نمود	-650
▁کلی	-651
بور	-652
▁فرا	-653
▁وارد	-654
▁دختر	-655
▁فریاد	-656
تان	-657
▁جنگ	-658
▁زود	-659
کو	-660
▁چش	-661
▁آل	-662
کا	-663
▁آس	-664
نم	-665
▁انجام	-666
جب	-667
▁نامه	-668
▁شی	-669
▁درد	-670
▁کتاب	-671
زاده	-672
▁دنبال	-673
▁اب	-674
▁زم	-675
▁بال	-676
▁اه	-677
▁کا	-678
▁توی	-679
صو	-680
▁ناگهان	-681
▁سپس	-682
▁صب	-683
▁موض	-684
▁پوش	-685
ینه	-686
▁حق	-687
▁کنیم	-688
نا	-689
▁رود	-690
▁متو	-691
▁خر	-692
▁بوده	-693
▁ماند	-694
اح	-695
▁اث	-696
▁روشن	-697
خی	-698
روع	-699
رات	-700
▁آش	-701
▁جل	-702
▁تش	-703
بته	-704
▁کمی	-705
▁یافت	-706
▁سب	-707
▁تازه	-708
▁البته	-709
من	-710
▁تاری	-711
▁ته	-712
▁بگذ	-713
فا	-714
▁عز	-715
▁شان	-716
▁نفر	-717
▁شروع	-718
▁وض	-719
ایه	-720
▁گذشته	-721
▁شاهزاده	-722
▁دریا	-723
▁چشمان	-724
▁ترین	-725
لت	-726
▁شخ	-727
▁گاه	-728
▁دقی	-729
▁غیر	-730
▁دان	-731
▁ین	-732
▁ندارد	-733
گان	-734
بار	-735
▁لبخ	-736
▁گفتم	-737
ستان	-738
▁متوجه	-739
▁بیا	-740
▁صبح	-741
▁ببین	-742
▁آنچه	-743
▁تک	-744
یدی	-745
▁منت	-746
▁ادامه	-747
▁آز	-748
▁لو	-749
▁:	-750
▁ست	-751
ازم	-752
▁پایین	-753
▁خیال	-754
▁نارا	-755
غی	-756
▁آید	-757
▁نشست	-758
▁جلو	-759
▁شهر	-760
▁گفته	-761
▁نخ	-762
رق	-763
▁ماه	-764
▁بازی	-765
▁ث	-766
▁آنان	-767
▁گذشت	-768
▁عش	-769
▁قب	-770
▁داشتند	-771
سان	-772
▁وحشت	-773
▁درآ	-774
▁بله	-775
▁قبل	-776
▁علا	-777
▁روح	-778
▁خواند	-779
تم	-780
▁جی	-781
▁موضوع	-782
▁فهم	-783
▁خوبی	-784
▁پو	-785
▁گونه	-786
وط	-787
▁دنی	-788
▁کریست	-789
▁مست	-790
▁وال	-791
▁قد	-792
▁خار	-793
▁نگه	-794
▁کاره	-795
قدر	-796
▁دم	-797
ایل	-798
▁سخن	-799
▁ظاه	-800
▁بع	-801
▁بو	-802
▁خانو	-803
▁اسب	-804
▁ون	-805
▁نشسته	-806
▁کریستف	-807
▁سن	-808
▁حقی	-809
تما	-810
میز	-811
▁مادر	-812
عنی	-813
▁حم	-814
▁مر	-815
▁هنگام	-816
▁توجه	-817
▁منظ	-818
▁شدن	-819
▁چهار	-820
ابی	-821
▁موقع	-822
▁یعنی	-823
▁گه	-824
▁ره	-825
▁مدت	-826
▁بلکه	-827
یه	-828
ایست	-829
لم	-830
خره	-831
▁فرد	-832
طور	-833
▁تواند	-834
▁بست	-835
▁تما	-836
لام	-837
▁افتاده	-838
▁اندازه	-839
▁سخت	-840
▁سیاه	-841
▁تاب	-842
▁صدا	-843
▁تب	-844
▁صند	-845
▁کشتی	-846
یزه	-847
▁کجا	-848
خل	-849
▁شوه	-850
▁رد	-851
▁برایش	-852
ودی	-853
▁تأ	-854
▁ناپ	-855
▁لرز	-856
▁نخواه	-857
▁زیاد	-858
▁همراه	-859
▁زبان	-860
سر	-861
▁خش	-862
میم	-863
▁تکان	-864
▁دک	-865
وف	-866
▁بسته	-867
خش	-868
▁آی	-869
▁هوا	-870
▁دانم	-871
▁عص	-872
▁پرو	-873
▁نسبت	-874
میت	-875
▁گو	-876
اله	-877
راب	-878
▁شدم	-879
▁برداشت	-880
کم	-881
دام	-882
صوص	-883
▁دوش	-884
▁انتظ	-885
▁مغ	-886
▁نیر	-887
▁حی	-888
▁عجی	-889
یدن	-890
▁دیو	-891
مو	-892
▁خشم	-893
▁خبر	-894
گو	-895
▁پاس	-896
▁ور	-897
ناک	-898
عیت	-899
▁طول	-900
▁عزیز	-901
▁حاض	-902
▁هستند	-903
▁گویی	-904
▁مردی	-905
فاق	-906
▁طب	-907
ذیر	-908
▁خوشح	-909
▁سرخ	-910
▁وس	-911
▁ایشان	-912
یدند	-913
صد	-914
▁آتش	-915
▁بس	-916
اج	-917
▁خانواده	-918
▁په	-919
ذی	-920
▁پنجره	-921
▁ذه	-922
▁خویش	-923
▁ملا	-924
▁هنگامی	-925
▁عشق	-926
▁دع	-927
ویش	-928
▁کال	-929
▁ساز	-930
▁ترس	-931
▁تقری	-932
▁خند	-933
▁برمی	-934
رانی	-935
▁داخل	-936
▁امید	-937
▁ایستاده	-938
مد	-939
▁نت	-940
▁سرد	-941
▁میل	-942
▁بپ	-943
▁اتفاق	-944
▁همچنان	-945
▁چر	-946
▁دلی	-947
▁تصور	-948
▁خون	-949
مئ	-950
▁پرد	-951
▁سعی	-952
راد	-953
▁تف	-954
▁عقب	-955
▁اسم	-956
▁دارند	-957
▁نگریست	-958
▁سرا	-959
▁زمان	-960
▁کود	-961
▁فش	-962
▁انتظار	-963
▁دراز	-964
▁کف	-965
▁کمک	-966
▁کوت	-967
▁نمای	-968
▁مرگ	-969
ظر	-970
▁دستش	-971
▁حض	-972
▁تقریبا	-973
▁مال	-974
▁بایست	-975
▁عن	-976
▁آهسته	-977
▁پسر	-978
▁حالت	-979
▁نفس	-980
▁نقش	-981
▁مطمئ	-982
▁قیا	-983
▁جمع	-984
▁برابر	-985
▁تل	-986
▁گشت	-987
▁قدم	-988
▁لبخند	-989
روز	-990
▁بخش	-991
▁خب	-992
اصله	-993
▁رفتار	-994
▁بیم	-995
▁آخر	-996
رها	-997
▁وضع	-998
رانه	-999
▁قلب	-1000
انت	-1001
قات	-1002
▁سفید	-1003
گونه	-1004
اتی	-1005
سکی	-1006
▁توانم	-1007
افی	-1008
▁قیافه	-1009
ریف	-1010
▁گرو	-1011
لاف	-1012
▁هستم	-1013
▁باد	-1014
▁گوید	-1015
▁داری	-1016
▁مسی	-1017
▁حقیقت	-1018
ضا	-1019
واج	-1020
▁غذ	-1021
دیگر	-1022
ورم	-1023
▁شر	-1024
▁دیدن	-1025
▁ترک	-1026
فر	-1027
▁جور	-1028
▁دقیقه	-1029
▁مقابل	-1030
نگی	-1031
▁مید	-1032
ونم	-1033
زد	-1034
▁لذ	-1035
ابان	-1036
▁شوند	-1037
▁پیچ	-1038
▁ماری	-1039
رس	-1040
▁بگی	-1041
▁برود	-1042
مل	-1043
ادت	-1044
▁خارج	-1045
▁خیره	-1046
دمت	-1047
ازی	-1048
▁سک	-1049
▁ازد	-1050
▁مار	-1051
▁شو	-1052
▁بدهد	-1053
▁مهم	-1054
▁درخت	-1055
▁حو	-1056
▁نکرده	-1057
▁اق	-1058
▁دکتر	-1059
▁رنج	-1060
ابت	-1061
▁مک	-1062
لوم	-1063
▁آورده	-1064
▁بند	-1065
▁دری	-1066
▁مشغ	-1067
▁تصمیم	-1068
▁قسم	-1069
اهای	-1070
▁پایان	-1071
▁رفتن	-1072
▁دادند	-1073
▁مص	-1074
▁خاک	-1075
▁نور	-1076
▁اجازه	-1077
▁مگر	-1078
▁خنده	-1079
▁صندلی	-1080
▁پل	-1081
▁تغی	-1082
▁جایی	-1083
▁انگیز	-1084
▁طوری	-1085
▁کشیده	-1086
▁نگاهی	-1087
▁هفته	-1088
▁رفتند	-1089
▁داشتم	-1090
▁کلاید	-1091
مات	-1092
▁کات	-1093
▁کنه	-1094
الت	-1095
▁آغ	-1096
▁درو	-1097
▁نکرد	-1098
▁خم	-1099
اسی	-1100
▁نتی	-1101
▁مرت	-1102
▁سمت	-1103
▁کلاه	-1104
▁آرا	-1105
▁برگشت	-1106
▁ایستاد	-1107
▁برادر	-1108
دار	-1109
▁مشغول	-1110
▁ندارم	-1111
▁حاضر	-1112
▁له	-1113
▁لازم	-1114
▁چطور	-1115
▁بکن	-1116
▁دیر	-1117
▁اگه	-1118
▁دیگران	-1119
▁گم	-1120
▁دسته	-1121
‬‬‬‬‬‬‬‬	-1122
▁عو	-1123
لات	-1124
▁باشم	-1125
▁نتیجه	-1126
▁باشند	-1127
ریم	-1128
▁گیر	-1129
▁امروز	-1130
▁فرمان	-1131
تا	-1132
▁شا	-1133
▁ارت	-1134
▁مانده	-1135
▁یی	-1136
کت	-1137
هایی	-1138
▁ازدواج	-1139
▁دیدم	-1140
▁برگرد	-1141
▁مشت	-1142
▁کلمه	-1143
▁دوشیزه	-1144
▁خوشحال	-1145
▁ناراحت	-1146
گرد	-1147
ختی	-1148
▁کوش	-1149
▁تری	-1150
کش	-1151
▁حل	-1152
▁پار	-1153
▁کنت	-1154
حتی	-1155
▁بخو	-1156
▁پاسخ	-1157
ندان	-1158
▁جر	-1159
▁اثر	-1160
▁فرام	-1161
▁زیادی	-1162
بانی	-1163
▁مز	-1164
▁سرعت	-1165
نین	-1166
یدم	-1167
▁اشت	-1168
▁فراموش	-1169
▁دلش	-1170
▁خودت	-1171
▁انگار	-1172
▁چگونه	-1173
▁دام	-1174
▁آخرین	-1175
▁عمل	-1176
▁پرداخت	-1177
▁اطلا	-1178
▁شع	-1179
▁اید	-1180
▁درون	-1181
▁شام	-1182
▁داست	-1183
▁خیابان	-1184
صل	-1185
▁تس	-1186
▁پاک	-1187
▁زنان	-1188
▁گن	-1189
نامه	-1190
▁هزار	-1191
جان	-1192
▁شانه	-1193
لیپ	-1194
▁اطراف	-1195
چی	-1196
▁نشده	-1197
▁منتظر	-1198
▁انسان	-1199
▁قه	-1200
▁علاقه	-1201
▁خدمت	-1202
ستی	-1203
▁نج	-1204
▁آشن	-1205
ته	-1206
چار	-1207
▁رق	-1208
▁زنده	-1209
▁بالای	-1210
سد	-1211
▁افراد	-1212
▁اشک	-1213
▁گذاشته	-1214
▁چقدر	-1215
▁فیلیپ	-1216
▁ارز	-1217
رهای	-1218
▁آنگاه	-1219
▁نکن	-1220
▁احتی	-1221
ابد	-1222
ایق	-1223
▁نزد	-1224
▁افس	-1225
▁سری	-1226
وای	-1227
▁نخست	-1228
▁انگشت	-1229
▁دنیا	-1230
طی	-1231
▁زدن	-1232
▁شوم	-1233
▁تماش	-1234
▁رسیده	-1235
▁گوی	-1236
▁کشیش	-1237
▁قطع	-1238
▁خام	-1239
▁استف	-1240
▁معلوم	-1241
لق	-1242
▁آری	-1243
▁حتما	-1244
▁یکدیگر	-1245
▁کافی	-1246
▁شخص	-1247
▁باور	-1248
▁صرف	-1249
▁زمانی	-1250
▁لت	-1251
▁زیب	-1252
ولی	-1253
▁فرست	-1254
▁پنه	-1255
▁زنی	-1256
▁الی	-1257
▁بید	-1258
▁مدتی	-1259
▁هرچه	-1260
▁دف	-1261
▁عنوان	-1262
▁پن	-1263
▁دهم	-1264
▁تی	-1265
▁راج	-1266
ونا	-1267
پی	-1268
▁دادن	-1269
حه	-1270
▁طبی	-1271
ادر	-1272
▁فل	-1273
▁باری	-1274
▁مطمئن	-1275
▁ساخته	-1276
▁گوشه	-1277
شد	-1278
▁بگوید	-1279
بیل	-1280
▁استفاده	-1281
ظی	-1282
▁عجیب	-1283
▁گاهی	-1284
▁تج	-1285
▁رون	-1286
▁ژان	-1287
▁اطاق	-1288
بیند	-1289
▁جست	-1290
▁خواهند	-1291
▁شنیده	-1292
ایم	-1293
▁زح	-1294
▁سگ	-1295
▁وز	-1296
▁گرم	-1297
▁کسانی	-1298
▁سرب	-1299
▁آماده	-1300
▁آور	-1301
▁بیست	-1302
▁فرص	-1303
▁سوار	-1304
مرد	-1305
▁بان	-1306
▁بالاخره	-1307
▁مب	-1308
▁سکوت	-1309
پا	-1310
▁موجود	-1311
▁خاموش	-1312
▁تغییر	-1313
▁جاده	-1314
▁کاترین	-1315
▁شناخت	-1316
▁ترتی	-1317
▁نوشته	-1318
▁راجع	-1319
قف	-1320
▁دادم	-1321
▁ـ	-1322
▁مجبور	-1323
▁باقی	-1324
دای	-1325
▁اسکار	-1326
▁بگیر	-1327
▁شکل	-1328
زل	-1329
شین	-1330
▁جهت	-1331
وله	-1332
▁سران	-1333
▁مدر	-1334
▁عالی	-1335
▁اض	-1336
▁بمان	-1337
▁نر	-1338
داری	-1339
▁اندکی	-1340
تون	-1341
ریان	-1342
رگی	-1343
▁گروه	-1344
▁گمان	-1345
▁اطلاع	-1346
▁دلیل	-1347
▁خواهی	-1348
▁برق	-1349
▁کردیم	-1350
▁داستان	-1351
▁کاملاً	-1352
قیه	-1353
▁بینی	-1354
راین	-1355
سا	-1356
▁چندان	-1357
▁آفت	-1358
▁مادرش	-1359
▁سرانجام	-1360
ارها	-1361
▁شبی	-1362
▁غم	-1363
▁باع	-1364
رض	-1365
▁برو	-1366
▁جدا	-1367
اها	-1368
▁تند	-1369
▁روزی	-1370
▁ببینم	-1371
▁بگیرد	-1372
مق	-1373
▁گش	-1374
▁واقعاً	-1375
▁اولین	-1376
حی	-1377
▁تپ	-1378
▁ببیند	-1379
▁هد	-1380
▁نخواهد	-1381
▁اولی	-1382
▁پدرش	-1383
راند	-1384
▁جدید	-1385
▁برخاست	-1386
▁بقیه	-1387
ائ	-1388
سکه	-1389
▁بعضی	-1390
▁بزرگی	-1391
▁نباید	-1392
▁باعث	-1393
اکت	-1394
▁سینه	-1395
▁فرود	-1396
تل	-1397
▁اشاره	-1398
▁اختی	-1399
▁بناب	-1400
▁زدند	-1401
▁مخصوص	-1402
▁شیر	-1403
▁عین	-1404
▁کننده	-1405
▁ضر	-1406
▁بدان	-1407
▁اندیش	-1408
▁اصلا	-1409
لد	-1410
▁خالی	-1411
▁بدین	-1412
▁شش	-1413
▁زیبا	-1414
انده	-1415
لیس	-1416
▁خطر	-1417
▁برده	-1418
▁چرخ	-1419
▁بگویم	-1420
صه	-1421
گار	-1422
▁غر	-1423
▁تعجب	-1424
▁صف	-1425
▁وا	-1426
▁غری	-1427
▁آرز	-1428
▁شاد	-1429
گین	-1430
▁ناخ	-1431
▁ارا	-1432
▁سخنان	-1433
▁ترد	-1434
▁کالسکه	-1435
▁جدی	-1436
▁مرده	-1437
▁مسئ	-1438
▁بودن	-1439
▁پنهان	-1440
▁حضور	-1441
▁مهرب	-1442
واند	-1443
▁افز	-1444
▁همس	-1445
▁بازگ	-1446
ازد	-1447
▁تخت	-1448
▁زحمت	-1449
▁شخصی	-1450
▁دارید	-1451
ثی	-1452
▁ندار	-1453
▁کر	-1454
▁اندیشه	-1455
▁بزند	-1456
▁بگذار	-1457
▁تون	-1458
▁ترتیب	-1459
▁اشتب	-1460
▁جاد	-1461
▁حمله	-1462
▁قش	-1463
▁لحن	-1464
▁آمیز	-1465
▁کدام	-1466
▁دیوار	-1467
▁بنابراین	-1468
▁قدرت	-1469
▁کوتاه	-1470
▁بیاید	-1471
▁بهت	-1472
▁خسته	-1473
▁عوض	-1474
▁اصلاً	-1475
▁پوست	-1476
اشق	-1477
▁بح	-1478
▁تحمل	-1479
▁هیجان	-1480
▁گفتند	-1481
▁راحت	-1482
▁غذا	-1483
فق	-1484
▁شدت	-1485
کند	-1486
نت	-1487
ضای	-1488
▁آند	-1489
▁حساب	-1490
نو	-1491
الب	-1492
▁دلم	-1493
▁سرز	-1494
▁؟	-1495
▁اختیار	-1496
▁درک	-1497
▁آقا	-1498
▁عزیزم	-1499
حل	-1500
ورا	-1501
ترین	-1502
▁دریافت	-1503
▁سرم	-1504
▁بف	-1505
▁نقشه	-1506
▁ار	-1507
▁گردید	-1508
ظهر	-1509
▁چپ	-1510
▁بیدار	-1511
▁پذیر	-1512
▁آد	-1513
▁اوه	-1514
▁بشود	-1515
▁افکار	-1516
▁احت	-1517
▁نیمه	-1518
▁خواهید	-1519
▁مدرسه	-1520
▁آسمان	-1521
▁قل	-1522
▁ارب	-1523
▁برآ	-1524
▁چوب	-1525
▁ظاهر	-1526
▁فردا	-1527
▁سایه	-1528
▁فرانک	-1529
▁احتم	-1530
▁قول	-1531
▁لط	-1532
▁مری	-1533
▁دقت	-1534
▁جلوی	-1535
▁خورده	-1536
▁آنا	-1537
▁راستی	-1538
▁اینک	-1539
مند	-1540
▁تلف	-1541
▁ریخت	-1542
▁کاغ	-1543
▁توضی	-1544
لاس	-1545
▁نتوان	-1546
▁امکان	-1547
▁دستم	-1548
▁نوشت	-1549
▁صدایی	-1550
▁یافته	-1551
احب	-1552
▁توانستم	-1553
▁گریه	-1554
▁نوع	-1555
▁مارت	-1556
▁یر	-1557
▁سرباز	-1558
امت	-1559
▁وین	-1560
▁ماج	-1561
▁ساده	-1562
▁ماهی	-1563
▁فع	-1564
▁نات	-1565
▁شور	-1566
▁پیرمرد	-1567
▁لذت	-1568
▁مخت	-1569
▁فرار	-1570
▁برخورد	-1571
ومی	-1572
▁قابل	-1573
▁محکم	-1574
▁تام	-1575
▁ضمن	-1576
▁عقیده	-1577
▁موهای	-1578
▁سان	-1579
▁قسمت	-1580
ویچ	-1581
▁آمدند	-1582
▁تاریکی	-1583
▁خواستم	-1584
▁خا	-1585
▁دون	-1586
▁خل	-1587
▁باشید	-1588
گفت	-1589
ائی	-1590
▁بیند	-1591
▁آفتاب	-1592
▁نخستین	-1593
▁خیر	-1594
▁نماید	-1595
▁آینده	-1596
▁قایق	-1597
▁درس	-1598
▁کامل	-1599
▁کوچه	-1600
▁محل	-1601
▁مادام	-1602
▁بوی	-1603
▁باغ	-1604
▁بدب	-1605
▁دشم	-1606
▁اِ	-1607
▁کردی	-1608
▁شکست	-1609
▁بتوان	-1610
▁مرب	-1611
ارهای	-1612
ایر	-1613
ظیم	-1614
▁پیو	-1615
▁دهند	-1616
▁اشتباه	-1617
یرت	-1618
آن	-1619
▁رقص	-1620
▁مردان	-1621
▁مسل	-1622
▁عاشق	-1623
▁نباش	-1624
▁اطمین	-1625
▁شناس	-1626
▁گویم	-1627
▁جهان	-1628
▁توضیح	-1629
▁فاصله	-1630
▁بگو	-1631
وزی	-1632
▁مهمان	-1633
مانی	-1634
▁کوه	-1635
میون	-1636
▁فرصت	-1637
▁هستی	-1638
وانی	-1639
▁چشمانش	-1640
▁وسی	-1641
▁شرکت	-1642
▁کمال	-1643
▁احتمال	-1644
رال	-1645
▁داره	-1646
▁عج	-1647
▁چیزها	-1648
▁ترا	-1649
▁پرت	-1650
▁سل	-1651
▁احمق	-1652
ابق	-1653
▁پیاده	-1654
▁هفت	-1655
▁سفر	-1656
▁بتواند	-1657
رایی	-1658
▁آمی	-1659
▁بخواه	-1660
▁ظاهرا	-1661
ارش	-1662
▁شبیه	-1663
▁ساکت	-1664
▁محض	-1665
▁خندید	-1666
▁الع	-1667
▁نوی	-1668
▁ملاقات	-1669
اپ	-1670
▁پله	-1671
▁رسد	-1672
▁بازگشت	-1673
▁حک	-1674
▁رها	-1675
فس	-1676
واره	-1677
▁واقعا	-1678
▁بزن	-1679
▁ذهن	-1680
▁موقعی	-1681
▁ویل	-1682
▁دستور	-1683
▁ول	-1684
▁کشت	-1685
▁نیستم	-1686
▁درآورد	-1687
▁اطمینان	-1688
▁گیرد	-1689
▁نیک	-1690
▁ژن	-1691
▁آبی	-1692
▁نشد	-1693
▁وسط	-1694
▁محبت	-1695
▁مارتین	-1696
وهای	-1697
▁بری	-1698
▁دانش	-1699
ایید	-1700
▁بیمار	-1701
▁خشک	-1702
▁صاحب	-1703
▁بودیم	-1704
▁بدی	-1705
▁شدید	-1706
▁خواهش	-1707
▁حف	-1708
▁فک	-1709
استه	-1710
▁قصد	-1711
▁شوهر	-1712
▁خلا	-1713
▁صورتش	-1714
▁پیشنه	-1715
▁دیوانه	-1716
▁آرامش	-1717
▁آوی	-1718
▁قدی	-1719
وال	-1720
گیر	-1721
▁پند	-1722
▁عبور	-1723
▁دفت	-1724
زش	-1725
▁امر	-1726
▁درح	-1727
▁شیط	-1728
▁معمو	-1729
▁تکرار	-1730
▁ایم	-1731
▁طل	-1732
▁وار	-1733
▁آزاد	-1734
▁کلمات	-1735
▁علت	-1736
▁شادی	-1737
▁تماشا	-1738
▁قبول	-1739
▁آغاز	-1740
▁طبقه	-1741
زا	-1742
▁پهل	-1743
▁ایوان	-1744
▁بط	-1745
▁تلا	-1746
فل	-1747
اقل	-1748
▁شتاب	-1749
▁درخش	-1750
▁دهان	-1751
▁شنیدن	-1752
ضیه	-1753
▁تاریک	-1754
▁ندیده	-1755
ینگ	-1756
▁هرمیون	-1757
▁مشاه	-1758
▁نجات	-1759
▁ارباب	-1760
▁جریان	-1761
▁عصبانی	-1762
▁مناس	-1763
▁انتخ	-1764
زمه	-1765
▁بج	-1766
▁منزل	-1767
▁تکه	-1768
تس	-1769
▁روش	-1770
▁حلقه	-1771
قل	-1772
▁عمی	-1773
▁ناه	-1774
▁خدای	-1775
▁داند	-1776
▁سلام	-1777
▁شوهرش	-1778
خواب	-1779
▁رفتم	-1780
▁قان	-1781
▁داریم	-1782
▁چیست	-1783
ریک	-1784
سوی	-1785
▁پوشیده	-1786
▁سوز	-1787
▁درنگ	-1788
▁صبر	-1789
▁احساسات	-1790
تن	-1791
▁کوچکی	-1792
▁هستید	-1793
▁نهاد	-1794
وین	-1795
▁اغ	-1796
▁دانی	-1797
لیم	-1798
▁اظه	-1799
▁وجه	-1800
▁فانی	-1801
▁پاره	-1802
▁جیب	-1803
▁انتخاب	-1804
▁انداخته	-1805
▁دستی	-1806
▁فروش	-1807
▁تیره	-1808
▁نگران	-1809
▁ناراحتی	-1810
▁عب	-1811
▁کاغذ	-1812
▁مشاهده	-1813
اظ	-1814
گون	-1815
▁اشخ	-1816
▁بشن	-1817
▁‬	-1818
روب	-1819
▁قدری	-1820
▁نیا	-1821
▁اظهار	-1822
▁واقعی	-1823
▁درحالی	-1824
▁دوم	-1825
▁مقد	-1826
سب	-1827
کف	-1828
▁دندان	-1829
شو	-1830
▁برایم	-1831
او	-1832
▁گفتی	-1833
صف	-1834
طه	-1835
یاط	-1836
▁لکن	-1837
▁فهمید	-1838
▁کودک	-1839
▁تردید	-1840
▁زودتر	-1841
ادث	-1842
▁دعوت	-1843
خر	-1844
کیه	-1845
▁چار	-1846
▁کور	-1847
▁نداشته	-1848
▁گفتن	-1849
▁اِما	-1850
▁قضیه	-1851
زن	-1852
ستگی	-1853
خه	-1854
▁گردد	-1855
▁دخترک	-1856
▁اندوه	-1857
▁ژنرال	-1858
▁زنگ	-1859
▁دروغ	-1860
▁بهترین	-1861
▁ناب	-1862
▁سون	-1863
▁ماشین	-1864
▁بکند	-1865
▁پیشنهاد	-1866
▁پست	-1867
▁جمله	-1868
▁بابا	-1869
▁بدهم	-1870
▁بلاف	-1871
▁حتماً	-1872
▁نیروی	-1873
▁تنگ	-1874
▁کت	-1875
▁ثرو	-1876
▁طرز	-1877
داشت	-1878
▁روم	-1879
▁عادت	-1880
▁بدن	-1881
▁متع	-1882
▁حدود	-1883
▁بروم	-1884
افه	-1885
▁عه	-1886
قین	-1887
▁حالتی	-1888
▁بلافاصله	-1889
▁حیرت	-1890
▁شگفت	-1891
▁نوش	-1892
▁باشی	-1893
وبی	-1894
▁پاری	-1895
لاق	-1896
▁پرده	-1897
▁همچون	-1898
ورتی	-1899
▁امت	-1900
▁هشت	-1901
▁آندره	-1902
▁خوشب	-1903
▁تپه	-1904
▁شرم	-1905
▁فورا	-1906
ویه	-1907
راس	-1908
▁درهم	-1909
▁احترام	-1910
▁مساف	-1911
▁آدمی	-1912
▁مراق	-1913
سف	-1914
▁فشار	-1915
▁خاکست	-1916
خم	-1917
▁برس	-1918
▁غرق	-1919
▁قدیمی	-1920
▁روزنامه	-1921
▁نفرت	-1922
▁آرامی	-1923
▁تعریف	-1924
▁مربوط	-1925
▁تیر	-1926
اور	-1927
▁گناه	-1928
▁سط	-1929
▁موسی	-1930
▁فرانسوی	-1931
▁نظرش	-1932
▁هوای	-1933
خص	-1934
▁بگوی	-1935
▁معنی	-1936
▁اهمیت	-1937
ادگی	-1938
▁وج	-1939
▁خصوص	-1940
▁قهوه	-1941
▁میدان	-1942
غل	-1943
عداد	-1944
▁حرک	-1945
▁حیوان	-1946
▁پذی	-1947
▁چنگ	-1948
▁بینم	-1949
▁دفعه	-1950
▁طولانی	-1951
ئون	-1952
▁رودخانه	-1953
▁شلو	-1954
▁بیچ	-1955
▁پان	-1956
▁شای	-1957
▁منظور	-1958
▁علی	-1959
▁ترسید	-1960
کاری	-1961
▁اعتم	-1962
▁اتوم	-1963
▁الان	-1964
▁کارهای	-1965
▁بیل	-1966
▁مبه	-1967
ثر	-1968
ویر	-1969
▁کری	-1970
▁دفتر	-1971
▁چیزهای	-1972
▁آنقدر	-1973
▁خواهیم	-1974
▁مایل	-1975
▁جمعیت	-1976
▁خودشان	-1977
▁زیبایی	-1978
ونت	-1979
▁گردن	-1980
▁بیچاره	-1981
▁ماریا	-1982
▁چیزهایی	-1983
▁جوانی	-1984
▁انب	-1985
▁بیشتری	-1986
ازده	-1987
▁حفظ	-1988
▁خواندن	-1989
▁عده	-1990
اشا	-1991
گیری	-1992
▁فرز	-1993
▁هدف	-1994
▁دقیق	-1995
▁تریسی	-1996
ریق	-1997
▁العاده	-1998
دها	-1999
زابت	-2000
الم	-2001
اتر	-2002
ثیر	-2003
▁بیان	-2004
▁ورز	-2005
▁نکته	-2006
▁آگاه	-2007
▁مسئله	-2008
▁بهش	-2009
▁ورود	-2010
رسی	-2011
▁رم	-2012
▁یقین	-2013
راک	-2014
▁دشمن	-2015
▁عرو	-2016
▁تکیه	-2017
▁سابق	-2018
▁رسیدند	-2019
▁موسیقی	-2020
▁تحت	-2021
▁ساحل	-2022
▁رز	-2023
▁لحنی	-2024
اشی	-2025
▁سبز	-2026
لیسی	-2027
▁آشپ	-2028
▁راس	-2029
▁ریز	-2030
▁قرا	-2031
قطه	-2032
▁رف	-2033
▁خوردن	-2034
▁رب	-2035
▁فق	-2036
▁عکس	-2037
▁دین	-2038
▁کلیسا	-2039
▁طی	-2040
▁سبب	-2041
▁پاریس	-2042
رح	-2043
▁عی	-2044
▁فرانسه	-2045
▁ربر	-2046
ردی	-2047
▁جین	-2048
▁حدس	-2049
▁صدایش	-2050
▁سازد	-2051
▁بحث	-2052
▁کنج	-2053
▁فوق	-2054
گذ	-2055
▁نقطه	-2056
▁نگرانی	-2057
▁حرفی	-2058
▁بسیاری	-2059
▁کوشید	-2060
ارو	-2061
▁کنان	-2062
▁درآمد	-2063
▁مذ	-2064
▁چراغ	-2065
شب	-2066
▁بره	-2067
▁پیراه	-2068
▁نح	-2069
صر	-2070
▁یان	-2071
▁ربرتا	-2072
▁استرا	-2073
▁بماند	-2074
▁برج	-2075
▁بلا	-2076
▁هایم	-2077
▁مف	-2078
▁نیام	-2079
▁ارزش	-2080
▁دانستم	-2081
رفی	-2082
▁دچار	-2083
▁نشانه	-2084
▁ببر	-2085
▁سرگر	-2086
▁گوشت	-2087
▁تقریباً	-2088
ورده	-2089
جو	-2090
ولو	-2091
ومت	-2092
▁فرستاد	-2093
▁مطلب	-2094
▁جلب	-2095
▁نگذ	-2096
▁منط	-2097
▁ریش	-2098
▁کاش	-2099
▁آشنا	-2100
▁عجله	-2101
▁ساله	-2102
▁دوستان	-2103
▁اندیشید	-2104
▁سع	-2105
▁نان	-2106
▁آلود	-2107
یمت	-2108
▁آو	-2109
▁سم	-2110
▁مواف	-2111
▁نتوانست	-2112
▁بم	-2113
▁طبیعی	-2114
▁میخ	-2115
میتری	-2116
▁درمی	-2117
▁باران	-2118
▁مور	-2119
▁الیزابت	-2120
فاع	-2121
▁جادو	-2122
▁مطال	-2123
▁نداد	-2124
▁نهایت	-2125
▁دود	-2126
▁شار	-2127
▁متأ	-2128
ندن	-2129
▁هرچ	-2130
▁گرفتند	-2131
▁عرض	-2132
▁لطف	-2133
▁پیوسته	-2134
▁انگلیسی	-2135
▁ضربه	-2136
▁کارش	-2137
▁پری	-2138
▁افکند	-2139
ولد	-2140
▁جیم	-2141
▁کارها	-2142
▁اعتماد	-2143
▁امشب	-2144
▁موجب	-2145
▁خودتان	-2146
دیل	-2147
▁رت	-2148
▁وحشی	-2149
▁عذ	-2150
▁کشور	-2151
▁لرزید	-2152
▁چنانکه	-2153
▁خاصی	-2154
▁رساند	-2155
▁زمزمه	-2156
▁مض	-2157
▁افزود	-2158
▁نگاهش	-2159
لس	-2160
▁زدم	-2161
ئیس	-2162
▁ناز	-2163
▁هایشان	-2164
ایند	-2165
کز	-2166
▁لبخندی	-2167
▁مأ	-2168
▁منو	-2169
▁مگی	-2170
▁خاص	-2171
▁جنگل	-2172
▁زودی	-2173
▁سریع	-2174
▁ادو	-2175
▁آشپز	-2176
▁گفتگو	-2177
ناب	-2178
▁ابت	-2179
دری	-2180
کیل	-2181
▁گست	-2182
▁دوید	-2183
▁کمتر	-2184
▁دانید	-2185
▁ماجرا	-2186
▁اشخاص	-2187
▁مام	-2188
▁گند	-2189
▁بکنم	-2190
▁خواهر	-2191
▁اجتما	-2192
▁زندان	-2193
ریح	-2194
رانسکی	-2195
▁احتیاج	-2196
▁خداوند	-2197
▁راضی	-2198
▁شیشه	-2199
ائل	-2200
حم	-2201
▁اخت	-2202
▁آمدن	-2203
مده	-2204
صوصی	-2205
▁مقام	-2206
▁تال	-2207
▁معم	-2208
▁دونم	-2209
▁سنگین	-2210
▁برم	-2211
▁سختی	-2212
گانه	-2213
▁نیاز	-2214
▁صورتی	-2215
▁کهنه	-2216
▁گرفتن	-2217
ژه	-2218
▁جذ	-2219
▁بدهید	-2220
▁توانی	-2221
▁ناتاشا	-2222
▁عقل	-2223
ئت	-2224
▁کنجکا	-2225
▁اتومبیل	-2226
▁آهن	-2227
▁خرید	-2228
▁درختان	-2229
▁ساع	-2230
بری	-2231
زرگ	-2232
▁پاد	-2233
زده	-2234
رافت	-2235
▁دره	-2236
▁تبدیل	-2237
▁نشن	-2238
▁تلاش	-2239
▁زور	-2240
▁سرس	-2241
▁صحنه	-2242
▁بخاری	-2243
▁ضعی	-2244
▁عجیبی	-2245
ئه	-2246
▁سوم	-2247
ادا	-2248
▁انتق	-2249
▁سام	-2250
▁عظیم	-2251
▁مخال	-2252
▁وسیله	-2253
▁مبل	-2254
▁هرچند	-2255
▁توس	-2256
▁قوی	-2257
▁نرم	-2258
▁نوعی	-2259
ستر	-2260
▁افتخ	-2261
▁خشن	-2262
▁گرس	-2263
▁چشمش	-2264
▁پریده	-2265
▁نظرم	-2266
▁ساختمان	-2267
▁راز	-2268
▁هوش	-2269
▁دش	-2270
▁وظی	-2271
لاح	-2272
▁رئیس	-2273
▁حسابی	-2274
▁ناهار	-2275
▁مهربان	-2276
▁خاکستری	-2277
آمیز	-2278
▁چین	-2279
مانده	-2280
▁تقاض	-2281
▁دیمیتری	-2282
▁ورانسکی	-2283
▁جام	-2284
▁بیت	-2285
▁عادی	-2286
▁سرو	-2287
▁بدست	-2288
▁موفق	-2289
باط	-2290
▁جناب	-2291
▁ادوارد	-2292
▁کشد	-2293
▁زا	-2294
ئین	-2295
▁روزهای	-2296
▁سالن	-2297
▁فشرد	-2298
▁وم	-2299
▁پرست	-2300
▁امیدو	-2301
▁وظیفه	-2302
ابه	-2303
▁امپ	-2304
▁واد	-2305
▁تلفن	-2306
▁راهی	-2307
دان	-2308
▁محب	-2309
▁مبار	-2310
▁میلی	-2311
▁ظهر	-2312
▁واس	-2313
▁ببرد	-2314
▁برویم	-2315
▁فرودو	-2316
افت	-2317
▁آهنگ	-2318
روف	-2319
▁کیش	-2320
▁فرمانده	-2321
خیص	-2322
▁ندا	-2323
▁رخت	-2324
▁سراغ	-2325
▁بزنم	-2326
▁شکسته	-2327
▁چندین	-2328
کرد	-2329
▁زنم	-2330
▁کیت	-2331
▁مخفی	-2332
جر	-2333
شنبه	-2334
▁اراده	-2335
▁پنداشت	-2336
ستن	-2337
▁خان	-2338
▁گذارد	-2339
▁خرد	-2340
▁ایج	-2341
▁سیا	-2342
▁احتیاط	-2343
▁قرب	-2344
▁بایستی	-2345
▁چای	-2346
▁چسب	-2347
▁استخ	-2348
▁برسد	-2349
▁بودی	-2350
▁عمیق	-2351
▁دوستی	-2352
▁بگذارد	-2353
▁توانید	-2354
▁عل	-2355
▁توپ	-2356
▁خوی	-2357
▁بیفت	-2358
▁خورش	-2359
▁!	-2360
▁داشتن	-2361
▁دیدار	-2362
‬‬‬‬‬‬‬‬‬‬‬‬‬‬‬‬	-2363
▁آرزو	-2364
▁جانب	-2365
نس	-2366
کده	-2367
فاوت	-2368
▁فصل	-2369
▁آموز	-2370
▁نده	-2371
▁عهده	-2372
▁نکند	-2373
▁دزد	-2374
▁آغوش	-2375
▁حیاط	-2376
▁درویش	-2377
▁بول	-2378
▁پناه	-2379
▁آوردند	-2380
▁ماریوس	-2381
فیق	-2382
ردو	-2383
▁اضافه	-2384
▁یخ	-2385
ثار	-2386
ایده	-2387
▁قر	-2388
▁بکشد	-2389
▁تشخیص	-2390
دل	-2391
▁پنجاه	-2392
▁اعتراف	-2393
▁خرج	-2394
▁آوری	-2395
▁ناپدید	-2396
▁نع	-2397
▁آشکار	-2398
▁مشکل	-2399
▁گردش	-2400
▁مناسب	-2401
▁ملاح	-2402
▁گران	-2403
▁کشیدند	-2404
▁فکری	-2405
▁ناپذیر	-2406
▁نداشتند	-2407
غه	-2408
▁روب	-2409
ندگان	-2410
▁ناچار	-2411
▁نمایش	-2412
▁ران	-2413
▁عمه	-2414
▁بفهم	-2415
▁پایش	-2416
▁گلوله	-2417
بود	-2418
ولا	-2419
▁شرح	-2420
▁نگفت	-2421
▁همچنین	-2422
▁محک	-2423
▁نداشتم	-2424
▁گز	-2425
▁جلوه	-2426
▁دلار	-2427
▁تاریخ	-2428
▁علاوه	-2429
▁توانستند	-2430
▁اصلی	-2431
▁پرید	-2432
رکز	-2433
گس	-2434
▁آست	-2435
▁انس	-2436
▁مرتب	-2437
حاف	-2438
▁وای	-2439
▁اغلب	-2440
▁دوران	-2441
▁اتفاقی	-2442
صیل	-2443
▁ذهنش	-2444
▁کشته	-2445
وسه	-2446
▁صاف	-2447
▁قرم	-2448
▁خوشش	-2449
▁گشود	-2450
▁همسرش	-2451
▁کیشوت	-2452
▁سورا	-2453
▁فایده	-2454
▁نباشد	-2455
سین	-2456
▁تیز	-2457
▁مایه	-2458
▁دیدند	-2459
▁راحتی	-2460
▁برف	-2461
▁ثابت	-2462
ناکی	-2463
▁لندن	-2464
ضاع	-2465
▁کان	-2466
▁الف	-2467
▁برن	-2468
▁بیماری	-2469
▁تونی	-2470
▁خج	-2471
▁چک	-2472
▁بیه	-2473
▁پدرم	-2474
▁اوست	-2475
▁نقره	-2476
نای	-2477
▁یکه	-2478
▁خواسته	-2479
▁پذیرایی	-2480
بش	-2481
▁باره	-2482
▁اعلام	-2483
▁پرس	-2484
▁خورشید	-2485
وتی	-2486
▁جع	-2487
▁ایجاد	-2488
▁خداحاف	-2489
▁مغز	-2490
▁یور	-2491
▁پزش	-2492
▁بیاورد	-2493
▁کیف	-2494
▁شدیم	-2495
تری	-2496
▁اهل	-2497
▁جرأ	-2498
▁قلم	-2499
▁همواره	-2500
پر	-2501
▁بدتر	-2502
▁برخی	-2503
▁لهوین	-2504
▁اضط	-2505
▁زرد	-2506
▁گرگ	-2507
▁آیند	-2508
▁توصی	-2509
▁پرواز	-2510
▁گویند	-2511
ورن	-2512
▁سبک	-2513
▁سراسر	-2514
▁روست	-2515
▁تأثیر	-2516
▁آلی	-2517
▁رید	-2518
▁نواز	-2519
تین	-2520
ستانی	-2521
▁آواز	-2522
▁پسرش	-2523
▁رسیدن	-2524
▁خاله	-2525
▁شوخی	-2526
▁علام	-2527
▁معت	-2528
▁محت	-2529
▁اوقات	-2530
▁درخ	-2531
▁پلیس	-2532
▁عاق	-2533
▁ارتش	-2534
نیکف	-2535
▁نوک	-2536
▁ترجی	-2537
▁مبادا	-2538
▁پیراهن	-2539
▁رض	-2540
▁خصوصی	-2541
مم	-2542
وشا	-2543
▁دعا	-2544
شه	-2545
اشته	-2546
▁راب	-2547
▁شمش	-2548
▁خوشی	-2549
بیت	-2550
▁چاق	-2551
▁غرور	-2552
▁منظره	-2553
لز	-2554
▁کفش	-2555
▁رخ	-2556
نایی	-2557
گران	-2558
▁متن	-2559
▁هنر	-2560
▁پتر	-2561
▁روشنایی	-2562
غر	-2563
گری	-2564
ندگی	-2565
▁قبلا	-2566
▁تصویر	-2567
▁سرزمین	-2568
غال	-2569
▁کج	-2570
▁متش	-2571
▁کنن	-2572
▁روزها	-2573
▁مقدس	-2574
▁نبرد	-2575
▁اوضاع	-2576
▁تحق	-2577
▁عمر	-2578
▁غی	-2579
▁هار	-2580
▁رویش	-2581
▁ترجیح	-2582
▁نخواهم	-2583
▁یل	-2584
▁تونم	-2585
▁شکار	-2586
▁مادرم	-2587
ستم	-2588
▁مات	-2589
▁دوخت	-2590
▁ضعیف	-2591
▁قادر	-2592
▁بردند	-2593
▁تسلیم	-2594
▁گرفتم	-2595
ئید	-2596
▁ناپل	-2597
▁پاهای	-2598
▁سود	-2599
▁طبق	-2600
▁ستون	-2601
▁اصرار	-2602
▁هرگاه	-2603
▁رام	-2604
▁مسکو	-2605
▁انداز	-2606
کب	-2607
کین	-2608
▁عمو	-2609
▁تصاد	-2610
▁حادث	-2611
زان	-2612
▁آزادی	-2613
▁باشیم	-2614
زت	-2615
ماً	-2616
ماند	-2617
▁توقف	-2618
▁افتخار	-2619
▁سیم	-2620
رفت	-2621
▁روت	-2622
▁راند	-2623
▁سرگرم	-2624
▁یادداشت	-2625
▁پولی	-2626
▁گیری	-2627
▁آت	-2628
▁دوستش	-2629
▁رضایت	-2630
گوی	-2631
▁کیتی	-2632
▁مطالعه	-2633
▁حکم	-2634
▁غل	-2635
▁مشک	-2636
▁نظری	-2637
▁ضرب	-2638
▁ملت	-2639
▁ناله	-2640
▁عض	-2641
تو	-2642
▁پیم	-2643
▁شنیدم	-2644
▁لیکن	-2645
▁مانع	-2646
▁کشان	-2647
▁اداره	-2648
▁آشپزخانه	-2649
▁اسپ	-2650
▁جرأت	-2651
▁روسی	-2652
▁ایمان	-2653
▁ید	-2654
▁لبه	-2655
▁کوب	-2656
▁گوری	-2657
▁سوراخ	-2658
اصل	-2659
▁جس	-2660
▁لع	-2661
▁بفر	-2662
▁نقل	-2663
▁کثی	-2664
▁ناد	-2665
▁کلاس	-2666
▁امیدوارم	-2667
▁برگرداند	-2668
▁حضرت	-2669
▁هائی	-2670
▁دنیای	-2671
▁بدبختی	-2672
ینو	-2673
▁توانند	-2674
▁درش	-2675
▁قلبش	-2676
▁دوازده	-2677
▁متح	-2678
▁شرای	-2679
▁قرمز	-2680
▁برنامه	-2681
▁فه	-2682
▁زان	-2683
▁خشمگین	-2684
▁ناپلئون	-2685
عکس	-2686
▁مون	-2687
▁مختلف	-2688
▁رشته	-2689
کلنیکف	-2690
▁پیچید	-2691
▁راسکلنیکف	-2692
▁لای	-2693
▁مای	-2694
▁علف	-2695
▁تالار	-2696
▁نقاشی	-2697
▁برادرش	-2698
میر	-2699
▁دهانش	-2700
▁مرغ	-2701
▁کاز	-2702
▁امور	-2703
▁عالم	-2704
▁بداند	-2705
▁معمول	-2706
▁جالب	-2707
▁هاست	-2708
▁حادثه	-2709
▁وحشتناک	-2710
اع	-2711
▁ارتباط	-2712
▁گاو	-2713
▁فراوان	-2714
▁بور	-2715
▁ناشی	-2716
▁تهدید	-2717
▁نهاده	-2718
▁امیدوار	-2719
قد	-2720
▁اک	-2721
▁آثار	-2722
▁نموده	-2723
▁دائ	-2724
▁جایش	-2725
ثا	-2726
▁زانو	-2727
▁ندارند	-2728
طن	-2729
▁آر	-2730
میتی	-2731
▁اسل	-2732
▁روبه	-2733
▁خواهرش	-2734
▁فرس	-2735
▁گور	-2736
خواهی	-2737
▁گزار	-2738
▁مسخره	-2739
▁همهٔ	-2740
▁مرح	-2741
▁هول	-2742
جوی	-2743
▁خرو	-2744
▁نیش	-2745
▁حواس	-2746
▁لم	-2747
رارت	-2748
▁نگر	-2749
▁صفحه	-2750
▁گرچه	-2751
▁ابراز	-2752
▁ارو	-2753
▁تنه	-2754
▁رفیق	-2755
فور	-2756
▁بچ	-2757
▁خبری	-2758
▁عملی	-2759
▁دفاع	-2760
▁طریق	-2761
▁عمومی	-2762
▁حالیکه	-2763
دور	-2764
▁سنت	-2765
▁شکن	-2766
▁شباه	-2767
▁قضا	-2768
▁نویس	-2769
▁تنهایی	-2770
▁استراحت	-2771
▁تهیه	-2772
▁خوان	-2773
▁گوئی	-2774
▁مطب	-2775
▁کوزت	-2776
▁بخت	-2777
▁خوشبخت	-2778
▁زنش	-2779
▁باریک	-2780
▁مأم	-2781
گردان	-2782
▁اشلی	-2783
▁جنوب	-2784
▁هستیم	-2785
▁پائین	-2786
گاری	-2787
▁حالش	-2788
▁کارد	-2789
▁دوخته	-2790
▁صندوق	-2791
▁قانون	-2792
▁مغازه	-2793
▁موف	-2794
▁بخواهد	-2795
ویل	-2796
▁حمل	-2797
▁خرم	-2798
▁میه	-2799
▁قطار	-2800
▁بوسید	-2801
▁مبارزه	-2802
▁ناگهانی	-2803
▁باب	-2804
▁خفه	-2805
▁عرق	-2806
▁لری	-2807
▁افتد	-2808
▁توده	-2809
▁سوال	-2810
▁فکرش	-2811
▁درخشید	-2812
▁پهلوان	-2813
▁لگ	-2814
اخته	-2815
▁سرنو	-2816
▁فریب	-2817
▁طلب	-2818
▁فرم	-2819
اقت	-2820
لند	-2821
تمند	-2822
▁متأسف	-2823
▁کردید	-2824
مال	-2825
▁گام	-2826
▁ابتدا	-2827
▁پیشانی	-2828
▁سلی	-2829
▁گنج	-2830
▁پروفس	-2831
▁آزم	-2832
▁جون	-2833
▁شاخه	-2834
▁اندام	-2835
▁عاقبت	-2836
سک	-2837
کلای	-2838
▁پذیرفت	-2839
▁جوش	-2840
▁مهر	-2841
▁هاگ	-2842
▁روند	-2843
▁مسیر	-2844
▁دختری	-2845
▁پیچیده	-2846
▁آسی	-2847
▁اندک	-2848
▁سوخت	-2849
▁هنری	-2850
▁تمامی	-2851
▁موفقی	-2852
▁واقعیت	-2853
▁دانستند	-2854
▁بلندی	-2855
▁شجا	-2856
▁ببخش	-2857
▁خوشم	-2858
▁قیمت	-2859
▁راستش	-2860
▁علامت	-2861
▁فرزند	-2862
▁خوشحالی	-2863
▁قاط	-2864
▁شمار	-2865
▁شیوه	-2866
▁آمیزی	-2867
▁ریخته	-2868
▁شمشیر	-2869
▁نبوده	-2870
▁دروازه	-2871
▁دوی	-2872
▁دختران	-2873
▁مهربانی	-2874
شیم	-2875
▁رای	-2876
▁مجلس	-2877
▁ملکه	-2878
گیس	-2879
▁رک	-2880
▁درجه	-2881
▁سانکو	-2882
▁آقایان	-2883
▁خوانده	-2884
▁نبودند	-2885
▁عجب	-2886
▁گله	-2887
▁غروب	-2888
▁اسرار	-2889
▁امپرا	-2890
▁تعداد	-2891
ومند	-2892
▁بنا	-2893
▁سره	-2894
▁کشیدن	-2895
▁آلیوشا	-2896
▁یورگیس	-2897
▁جعبه	-2898
▁قشنگ	-2899
▁پدید	-2900
▁جزیره	-2901
▁درخشان	-2902
▁لرد	-2903
▁حرفه	-2904
▁بعداز	-2905
▁پروفسور	-2906
سل	-2907
▁انسانی	-2908
▁جک	-2909
▁رغ	-2910
▁هو	-2911
▁بگیرم	-2912
▁لغ	-2913
▁خور	-2914
▁سای	-2915
▁سقف	-2916
▁مواظ	-2917
▁آوردن	-2918
▁تحقیر	-2919
▁طبیعت	-2920
کسی	-2921
▁حدی	-2922
طر	-2923
▁سونیا	-2924
▁پارچه	-2925
▁چاره	-2926
▁دشوار	-2927
▁تختخواب	-2928
▁سربازان	-2929
▁قی	-2930
▁قبلاً	-2931
▁نگهبان	-2932
▁زخم	-2933
▁چهل	-2934
▁زندگ	-2935
▁ناشن	-2936
▁پسرک	-2937
▁سعادت	-2938
▁مخصوصا	-2939
ربه	-2940
▁جوی	-2941
▁فرق	-2942
▁حاصل	-2943
▁اضطراب	-2944
کنان	-2945
▁هتل	-2946
▁کله	-2947
خواست	-2948
▁جاست	-2949
▁سالم	-2950
▁سایر	-2951
▁سطح	-2952
▁خلاصه	-2953
▁نای	-2954
▁بنوی	-2955
اران	-2956
▁سیل	-2957
▁لاس	-2958
▁دهید	-2959
▁دوره	-2960
▁شمال	-2961
▁لابد	-2962
چین	-2963
▁حا	-2964
▁ظرف	-2965
▁شوید	-2966
▁بارها	-2967
▁دهکده	-2968
▁کنجکاوی	-2969
قیب	-2970
▁محو	-2971
▁پیرزن	-2972
▁بدم	-2973
▁ردی	-2974
▁تفنگ	-2975
▁درشت	-2976
▁اهمیتی	-2977
▁تور	-2978
نمایی	-2979
▁سالی	-2980
▁فوری	-2981
▁دارای	-2982
▁زب	-2983
▁انبوه	-2984
▁دارتین	-2985
▁معمولی	-2986
▁کلبه	-2987
▁دیروز	-2988
▁راستوف	-2989
▁مراج	-2990
▁نمایان	-2991
▁فرستاده	-2992
▁ادم	-2993
▁جشن	-2994
▁خرا	-2995
▁چیه	-2996
▁رنگی	-2997
▁مستق	-2998
▁طرح	-2999
▁خراب	-3000
▁شراب	-3001
▁شیطان	-3002
دیه	-3003
بات	-3004
فتی	-3005
وزه	-3006
▁نشود	-3007
▁دخترش	-3008
▁لرزان	-3009
▁آئ	-3010
▁زار	-3011
▁لذا	-3012
▁آسان	-3013
▁محاف	-3014
▁بروند	-3015
▁توانیم	-3016
▁سرنوشت	-3017
▁پیروزی	-3018
هی	-3019
▁دونی	-3020
وعی	-3021
ورند	-3022
▁جیغ	-3023
▁روحی	-3024
▁برآورد	-3025
▁گذراند	-3026
حان	-3027
▁افسر	-3028
شتیاق	-3029
▁نیستند	-3030
این	-3031
ویت	-3032
▁متم	-3033
▁تشکیل	-3034
▁مذه	-3035
▁مزاح	-3036
▁نیمکت	-3037
نون	-3038
وته	-3039
بلان	-3040
▁حرکات	-3041
▁خاطره	-3042
▁فوراً	-3043
▁اشتیاق	-3044
▁بتوانم	-3045
کوب	-3046
▁سنگی	-3047
▁کودکی	-3048
▁سرهنگ	-3049
▁خواستند	-3050
▁یادم	-3051
▁تماشای	-3052
▁وب	-3053
ابقه	-3054
▁تحسین	-3055
▁احمقانه	-3056
▁برداشته	-3057
وشی	-3058
▁توجهی	-3059
▁سرزنش	-3060
▁شماره	-3061
ستون	-3062
▁عصر	-3063
▁خوردند	-3064
▁نیکلای	-3065
▁خز	-3066
▁موج	-3067
▁اعترا	-3068
▁کلام	-3069
▁بذ	-3070
▁حقوق	-3071
▁چارلز	-3072
▁گذاشتند	-3073
▁بانک	-3074
▁لاری	-3075
▁نشاط	-3076
لاک	-3077
وطه	-3078
▁اصل	-3079
▁شکم	-3080
▁جزئی	-3081
▁بهانه	-3082
اعد	-3083
بیر	-3084
▁بمی	-3085
▁موی	-3086
▁رالف	-3087
▁اقدام	-3088
▁خستگی	-3089
▁عروسی	-3090
▁خودمان	-3091
▁اگرچه	-3092
▁فعالی	-3093
▁کجاست	-3094
▁دریاچه	-3095
▁مهمانی	-3096
▁شرط	-3097
▁همسر	-3098
▁بدهند	-3099
▁نزدیکی	-3100
▁مجد	-3101
▁بدبخت	-3102
▁حکایت	-3103
▁آرت	-3104
▁مطل	-3105
▁گیج	-3106
▁دنا	-3107
▁پایه	-3108
▁کراف	-3109
▁زشت	-3110
▁سیگار	-3111
یح	-3112
▁زه	-3113
▁بستر	-3114
▁ضع	-3115
ارند	-3116
▁بازوی	-3117
▁درشکه	-3118
▁مراسم	-3119
▁بیهوده	-3120
▁مراقبت	-3121
▁مقداری	-3122
شید	-3123
▁اولیویه	-3124
▁خودداری	-3125
روم	-3126
شتن	-3127
ولیت	-3128
▁بام	-3129
▁بغل	-3130
▁مقا	-3131
▁پیشخ	-3132
▁رابطه	-3133
لاقی	-3134
▁بررسی	-3135
▁گزارش	-3136
▁داغ	-3137
▁پاه	-3138
▁دامبل	-3139
▁شیرین	-3140
سیم	-3141
شون	-3142
▁میس	-3143
▁متوق	-3144
▁بگویید	-3145
▁ظاهراً	-3146
▁هل	-3147
خوری	-3148
▁روس	-3149
▁شمع	-3150
▁مقص	-3151
▁روان	-3152
▁غریب	-3153
▁ملاحظه	-3154
▁موفقیت	-3155
▁دز	-3156
انیا	-3157
▁کشم	-3158
▁جیمی	-3159
▁آسوده	-3160
▁بلی	-3161
▁نصف	-3162
▁گوس	-3163
یزی	-3164
باری	-3165
▁هدیه	-3166
▁اونجا	-3167
▁شانون	-3168
▁طلایی	-3169
وران	-3170
▁اثری	-3171
▁محلی	-3172
▁راهرو	-3173
▁طلا	-3174
▁کشف	-3175
▁شعله	-3176
▁ناخدا	-3177
▁نمانده	-3178
▁کوتاهی	-3179
▁دامبلدور	-3180
▁استی	-3181
▁قشون	-3182
▁بالاتر	-3183
▁شارل	-3184
▁فراهم	-3185
▁گرفتار	-3186
▁افتادند	-3187
اهر	-3188
انید	-3189
▁تقد	-3190
▁نفو	-3191
انتین	-3192
▁خونس	-3193
▁عبارت	-3194
▁اندازد	-3195
▁جورج	-3196
▁چوبی	-3197
▁کثیف	-3198
▁تابستان	-3199
▁باه	-3200
▁رحم	-3201
▁بعدی	-3202
▁لاغر	-3203
▁شباهت	-3204
▁اولیور	-3205
راتی	-3206
▁عصبی	-3207
▁مشخص	-3208
▁نوری	-3209
▁کرافرد	-3210
▁افرا	-3211
▁خطاب	-3212
▁ملانی	-3213
▁پلکان	-3214
▁انتهای	-3215
سند	-3216
▁شف	-3217
▁متر	-3218
▁گیت	-3219
▁کلیس	-3220
▁گرداند	-3221
گل	-3222
انوس	-3223
▁ملی	-3224
▁بندی	-3225
▁سرما	-3226
▁قدیم	-3227
▁لحاظ	-3228
▁دانتس	-3229
▁نظامی	-3230
▁نواخت	-3231
▁آمیخته	-3232
▁یکشنبه	-3233
▁معذ	-3234
▁بپرد	-3235
▁همیش	-3236
▁تجربه	-3237
▁عمارت	-3238
▁تار	-3239
▁ممکنه	-3240
فند	-3241
▁جد	-3242
▁نوم	-3243
▁آزار	-3244
▁جیمز	-3245
▁تاکنون	-3246
▁کلا	-3247
▁تخته	-3248
▁اعضای	-3249
▁شرایط	-3250
▁نداده	-3251
▁دربارهٔ	-3252
▁اعتق	-3253
▁بدنش	-3254
▁جوری	-3255
▁مزر	-3256
▁قطعه	-3257
▁معرفی	-3258
▁سنگینی	-3259
▁بعدازظهر	-3260
گاهی	-3261
▁جنب	-3262
▁بخوان	-3263
▁تفاوت	-3264
▁شدیدی	-3265
▁مطمئنم	-3266
عا	-3267
▁شعر	-3268
▁چمن	-3269
▁تدری	-3270
▁روبل	-3271
▁بروید	-3272
▁گرا	-3273
▁نبودم	-3274
▁مگه	-3275
▁هراس	-3276
▁شلوار	-3277
▁سیر	-3278
▁آنها	-3279
▁ردیف	-3280
▁آویخته	-3281
▁خویشتن	-3282
▁ایز	-3283
▁تان	-3284
▁مین	-3285
▁کلیف	-3286
داد	-3287
کاران	-3288
▁زنند	-3289
▁ساعتی	-3290
ئل	-3291
▁ماس	-3292
▁تمیز	-3293
▁توسط	-3294
▁رسمی	-3295
▁دریایی	-3296
▁نار	-3297
▁واض	-3298
▁همگی	-3299
▁کنتس	-3300
▁مسائل	-3301
▁زندانی	-3302
▁همدیگر	-3303
▁استخوان	-3304
▁جرا	-3305
▁ورق	-3306
▁صخره	-3307
▁وجودش	-3308
▁احساسی	-3309
▁جامه	-3310
▁متوقف	-3311
▁کنارش	-3312
▁فعالیت	-3313
صله	-3314
لیک	-3315
▁لکه	-3316
▁فهمم	-3317
▁پشتی	-3318
▁مرتبه	-3319
▁کارگر	-3320
▁نیامده	-3321
▁پانزده	-3322
▁شل	-3323
▁گون	-3324
▁وضعی	-3325
▁شناسی	-3326
بین	-3327
البا	-3328
ورلی	-3329
▁دولت	-3330
▁صحیح	-3331
▁یابد	-3332
▁منظورم	-3333
▁امپراطور	-3334
▁یو	-3335
انیه	-3336
▁اصط	-3337
▁معد	-3338
▁خطرناک	-3339
کرم	-3340
▁مگ	-3341
▁محس	-3342
▁منص	-3343
▁کنده	-3344
▁خجالت	-3345
▁نوازش	-3346
▁موافقت	-3347
لیا	-3348
▁نصی	-3349
▁پین	-3350
▁برند	-3351
▁بخورد	-3352
▁دنبالش	-3353
حش	-3354
▁وف	-3355
فهوم	-3356
▁حرفش	-3357
▁ناگز	-3358
▁آئورلی	-3359
▁استق	-3360
▁رفتیم	-3361
▁مراقب	-3362
▁نداری	-3363
▁کشیدم	-3364
▁شایسته	-3365
▁وتی	-3366
▁ابرو	-3367
▁مجسم	-3368
▁گذرد	-3369
▁انبار	-3370
▁محکوم	-3371
▁ناگزیر	-3372
اعت	-3373
ماس	-3374
▁هان	-3375
▁هیت	-3376
▁گیرم	-3377
▁بیفتد	-3378
▁خاطرات	-3379
▁شتا	-3380
▁ثروت	-3381
▁گشته	-3382
▁موقعیت	-3383
▁نفوذ	-3384
▁اسلحه	-3385
▁بابت	-3386
▁شخصیت	-3387
▁گرسنگی	-3388
وپ	-3389
صیر	-3390
▁ادا	-3391
▁درا	-3392
▁نرس	-3393
▁بوته	-3394
▁مامان	-3395
▁منطقه	-3396
▁حب	-3397
کنده	-3398
▁ادب	-3399
▁لحظ	-3400
▁تندی	-3401
▁عاقل	-3402
▁حرارت	-3403
▁همیشگی	-3404
▁آهی	-3405
▁بروی	-3406
▁فراز	-3407
▁کیست	-3408
▁قربان	-3409
▁وسایل	-3410
ژی	-3411
بهه	-3412
کزیم	-3413
کلار	-3414
▁فرض	-3415
▁پره	-3416
▁بریم	-3417
▁ظریف	-3418
▁بخشید	-3419
▁بخواب	-3420
▁پهلوی	-3421
▁حیوانات	-3422
ارید	-3423
▁زنج	-3424
▁هوس	-3425
▁میهمان	-3426
▁تئ	-3427
▁شوی	-3428
▁امان	-3429
▁دامن	-3430
▁محتر	-3431
▁مهمی	-3432
▁میاد	-3433
▁آشفته	-3434
▁مشتاق	-3435
▁پرتاب	-3436
▁کوچولو	-3437
▁وع	-3438
▁دما	-3439
▁رسم	-3440
▁آمدم	-3441
▁هردو	-3442
▁کلید	-3443
▁اعتنا	-3444
▁ماکزیم	-3445
▁مقاومت	-3446
▁چاپ	-3447
▁کیسه	-3448
▁کودکان	-3449
▁دانکلار	-3450
روی	-3451
▁دای	-3452
▁صمی	-3453
▁گره	-3454
▁مالی	-3455
▁بنشین	-3456
▁شکر	-3457
▁فیر	-3458
▁قفل	-3459
▁نحوی	-3460
▁نما	-3461
▁خلوت	-3462
▁عذاب	-3463
▁قلعه	-3464
▁گوشش	-3465
▁تعقیب	-3466
▁غالبا	-3467
▁پرنده	-3468
▁دستمال	-3469
ــ	-3470
▁محی	-3471
خوف	-3472
▁ضعف	-3473
▁خوام	-3474
▁سینی	-3475
▁فهمیدم	-3476
▁رختخواب	-3477
▁عصبانیت	-3478
وطی	-3479
▁تعطی	-3480
▁شویم	-3481
▁ابلان	-3482
▁دربار	-3483
▁مقصود	-3484
▁ابلانسکی	-3485
▁رست	-3486
ادهای	-3487
▁دادگاه	-3488
▁صبحانه	-3489
▁کد	-3490
▁تأی	-3491
▁مرم	-3492
▁منق	-3493
▁قبیل	-3494
▁آوردم	-3495
▁اعمال	-3496
حق	-3497
ژن	-3498
▁خیس	-3499
▁درآمده	-3500
▁خوابیده	-3501
▁بق	-3502
▁رل	-3503
▁اجرا	-3504
▁بانو	-3505
▁هرکس	-3506
▁نابود	-3507
▁سوء	-3508
▁شلیک	-3509
▁شرافت	-3510
▁شناسم	-3511
▁آویزان	-3512
▁اعتراض	-3513
▁داشتیم	-3514
ورش	-3515
کشی	-3516
▁پهن	-3517
▁آورم	-3518
▁انقل	-3519
▁وانم	-3520
▁اقامت	-3521
▁جوابی	-3522
▁بردارد	-3523
▁نشستند	-3524
بران	-3525
ویدا	-3526
▁تعلق	-3527
▁ایستگاه	-3528
امل	-3529
وقت	-3530
▁دال	-3531
▁شوق	-3532
▁خلاف	-3533
▁متهم	-3534
▁نشینی	-3535
▁آلمانی	-3536
▁ادموند	-3537
▁متشکرم	-3538
▁میلیون	-3539
▁اجتماعی	-3540
میل	-3541
▁عد	-3542
ماتی	-3543
▁مدام	-3544
▁کامی	-3545
▁تصادف	-3546
▁مزرعه	-3547
▁آشنایی	-3548
▁وانمود	-3549
حر	-3550
برت	-3551
وسی	-3552
▁تیم	-3553
▁کاه	-3554
▁واضح	-3555
▁پزشک	-3556
▁پهلو	-3557
▁گویا	-3558
ماق	-3559
▁زین	-3560
▁ابری	-3561
▁بپوش	-3562
▁نکنید	-3563
▁انگیزی	-3564
▁برساند	-3565
▁جسد	-3566
▁دیش	-3567
▁پاش	-3568
▁مکان	-3569
▁احوال	-3570
▁تأیید	-3571
▁زمستان	-3572
پوش	-3573
▁طفل	-3574
▁برقرار	-3575
▁احتمالا	-3576
▁غول	-3577
▁برعکس	-3578
▁قضاوت	-3579
▁مشروب	-3580
▁امتحان	-3581
▁ناق	-3582
▁کمر	-3583
▁مبهم	-3584
▁استاد	-3585
بزرگ	-3586
هائی	-3587
▁قهر	-3588
▁شاهد	-3589
▁دلیلی	-3590
▁متعجب	-3591
▁دخترها	-3592
▁کارخانه	-3593
لید	-3594
▁باک	-3595
اموند	-3596
▁جف	-3597
▁لین	-3598
▁موش	-3599
▁جنایت	-3600
▁ملایم	-3601
▁اجتماع	-3602
▁توانسته	-3603
ارا	-3604
داً	-3605
لوب	-3606
▁دخ	-3607
▁مدا	-3608
▁تحقی	-3609
▁تغیی	-3610
▁فضای	-3611
▁کوشش	-3612
وبن	-3613
▁هج	-3614
توان	-3615
▁تلخ	-3616
▁بردن	-3617
▁چشمه	-3618
▁خدایا	-3619
▁رع	-3620
▁جنبه	-3621
▁هیئت	-3622
▁گربه	-3623
▁شکنجه	-3624
▁خوشحالم	-3625
▁فاج	-3626
▁تفریح	-3627
▁برگشته	-3628
▁خد	-3629
▁سق	-3630
▁جسم	-3631
▁مکث	-3632
▁غذای	-3633
▁معام	-3634
▁کینه	-3635
▁آورند	-3636
▁مردها	-3637
▁نوشتن	-3638
تب	-3639
فو	-3640
▁لک	-3641
▁ایت	-3642
▁بجز	-3643
▁تمس	-3644
▁توم	-3645
▁مند	-3646
▁کسب	-3647
▁فرصتی	-3648
▁گریفی	-3649
▁اعتقاد	-3650
▁منم	-3651
▁شکوه	-3652
▁مدیر	-3653
▁پرسیدم	-3654
مون	-3655
▁ازش	-3656
▁رغم	-3657
▁برید	-3658
▁خلاص	-3659
▁سردی	-3660
▁هریت	-3661
سمی	-3662
قاب	-3663
▁برت	-3664
مندانه	-3665
▁بریده	-3666
▁گریفیث	-3667
▁بیمارستان	-3668
▁تلی	-3669
▁زلی	-3670
▁حرکتی	-3671
▁مواظب	-3672
▁کازوبن	-3673
▁مریض	-3674
▁تقصیر	-3675
▁لااقل	-3676
▁پدربزرگ	-3677
▁روزاموند	-3678
امد	-3679
میزی	-3680
▁معج	-3681
▁کاب	-3682
▁فلور	-3683
▁لاید	-3684
▁مصمم	-3685
▁کارت	-3686
▁مرحله	-3687
▁پاهایش	-3688
▁گذشتند	-3689
▁آف	-3690
بورگ	-3691
▁مرک	-3692
▁بوسه	-3693
▁پیرام	-3694
▁اطلاعات	-3695
▁اسک	-3696
▁پارک	-3697
▁آسانی	-3698
▁ثانیه	-3699
▁حوادث	-3700
▁معروف	-3701
▁جفت	-3702
▁صاد	-3703
▁ببند	-3704
▁زاده	-3705
▁شنبه	-3706
▁برخلاف	-3707
راق	-3708
▁راش	-3709
▁قرن	-3710
▁مشه	-3711
▁کول	-3712
▁پیکر	-3713
▁گریست	-3714
▁بگذارید	-3715
▁تخ	-3716
لاند	-3717
▁دشت	-3718
▁شدی	-3719
▁شنا	-3720
▁کاس	-3721
▁اخیر	-3722
▁اسقف	-3723
▁سادگی	-3724
اسف	-3725
ریت	-3726
نکا	-3727
▁خلق	-3728
▁وصف	-3729
▁کوی	-3730
لستان	-3731
▁بطری	-3732
▁تماس	-3733
▁طناب	-3734
▁پراک	-3735
▁برایت	-3736
اث	-3737
▁خرده	-3738
▁نظیر	-3739
▁براناب	-3740
▁دیک	-3741
▁سرت	-3742
▁یون	-3743
▁اوژن	-3744
▁جاری	-3745
▁نیمی	-3746
▁موافق	-3747
▁اخلاقی	-3748
سون	-3749
▁تاز	-3750
▁ذوق	-3751
▁براف	-3752
▁مجاز	-3753
▁میکن	-3754
▁ساختن	-3755
▁مخالف	-3756
▁پیرامون	-3757
▁برانابوس	-3758
ادل	-3759
خند	-3760
▁رأ	-3761
▁گود	-3762
▁حاکی	-3763
▁روحیه	-3764
▁خداحافظی	-3765
ریب	-3766
ویق	-3767
▁آپ	-3768
▁دلت	-3769
▁لنگ	-3770
▁گاز	-3771
▁شمرد	-3772
▁قدمی	-3773
▁یادآ	-3774
▁اسباب	-3775
▁رسیدیم	-3776
▁شیطانی	-3777
افل	-3778
▁کرا	-3779
▁بدهی	-3780
▁بردم	-3781
▁بعدا	-3782
▁گولد	-3783
▁ارابه	-3784
▁خشونت	-3785
وک	-3786
لین	-3787
▁واسه	-3788
▁پادش	-3789
▁ستاره	-3790
▁جاستین	-3791
▁برایشان	-3792
دن	-3793
نیپ	-3794
▁آگ	-3795
▁حسن	-3796
▁ذره	-3797
▁الآن	-3798
▁بکنی	-3799
▁آرزوی	-3800
ارف	-3801
▁تمج	-3802
▁نیرو	-3803
▁پشیم	-3804
▁زمینه	-3805
▁معتقد	-3806
▁ماجرای	-3807
▁خدمتکار	-3808
▁یس	-3809
▁بدر	-3810
▁فرط	-3811
▁لطی	-3812
▁حیات	-3813
▁سپرد	-3814
▁سرشان	-3815
▁ورودی	-3816
▁طع	-3817
تور	-3818
خیر	-3819
دیق	-3820
▁اسنیپ	-3821
▁مقدار	-3822
▁کارگران	-3823
حال	-3824
▁خص	-3825
▁خن	-3826
لاوه	-3827
▁آلیس	-3828
▁مثلا	-3829
▁میخو	-3830
▁پیتر	-3831
▁وادار	-3832
ردست	-3833
▁سنج	-3834
▁صلی	-3835
▁غصه	-3836
▁محد	-3837
▁ناس	-3838
▁ناچ	-3839
▁اسمش	-3840
▁بکار	-3841
▁دیشب	-3842
▁رواب	-3843
▁سیاهی	-3844
روک	-3845
▁خال	-3846
▁دول	-3847
▁علم	-3848
▁حز	-3849
ایسه	-3850
▁الا	-3851
▁الن	-3852
▁توه	-3853
▁همد	-3854
▁اخلاق	-3855
▁نیستی	-3856
▁انتقام	-3857
▁پریشان	-3858
▁اعتنایی	-3859
▁خانوادگی	-3860
بتی	-3861
▁سهم	-3862
▁پتی	-3863
▁پیک	-3864
▁تمسخر	-3865
▁روسیه	-3866
▁بعلاوه	-3867
▁تشکر	-3868
▁بزودی	-3869
▁آئورلیانو	-3870
دهای	-3871
▁آمو	-3872
▁ابر	-3873
▁اله	-3874
▁لوک	-3875
▁غافل	-3876
▁سالگی	-3877
▁یافتن	-3878
▁موجودات	-3879
▁جمه	-3880
▁عدم	-3881
▁پلک	-3882
▁کاد	-3883
▁زنجیر	-3884
▁مادرب	-3885
▁خوشبختی	-3886
عات	-3887
▁لش	-3888
رافی	-3889
▁تعی	-3890
▁خیز	-3891
▁شتر	-3892
▁جنگی	-3893
▁ویژه	-3894
▁تربیت	-3895
▁گذاشتم	-3896
روری	-3897
▁جما	-3898
▁خاست	-3899
▁قطره	-3900
▁کارم	-3901
▁توصیه	-3902
▁مسافر	-3903
▁مقایسه	-3904
▁نیرومند	-3905
حیه	-3906
شنه	-3907
صاب	-3908
گویی	-3909
▁ناام	-3910
▁یادش	-3911
▁دوستانه	-3912
تز	-3913
اکس	-3914
▁تد	-3915
▁شکی	-3916
▁بدانم	-3917
▁شبانه	-3918
بد	-3919
▁مدی	-3920
▁شگفتی	-3921
▁مأمور	-3922
▁نکردم	-3923
▁پوشید	-3924
▁راهنمایی	-3925
شا	-3926
ودور	-3927
▁تخم	-3928
▁نجی	-3929
▁استو	-3930
▁صادق	-3931
▁مارچ	-3932
▁چانه	-3933
▁بعدها	-3934
▁گیرند	-3935
▁مسابقه	-3936
گن	-3937
▁معط	-3938
▁بشوم	-3939
▁چادر	-3940
▁عمیقی	-3941
▁محترم	-3942
▁ناحیه	-3943
▁مستقیم	-3944
▁ژو	-3945
▁اوم	-3946
▁متف	-3947
▁تاخت	-3948
▁سوند	-3949
▁سپری	-3950
▁محیط	-3951
▁بیایید	-3952
▁مادربزرگ	-3953
▁شغل	-3954
▁مقر	-3955
▁آتوز	-3956
▁ابله	-3957
▁پراکنده	-3958
▁طنین	-3959
▁قبلی	-3960
▁برنمی	-3961
سال	-3962
▁قا	-3963
▁کشی	-3964
▁رمزی	-3965
▁رنگش	-3966
▁رویم	-3967
▁بفرست	-3968
▁تعیین	-3969
▁سواری	-3970
▁آزمایش	-3971
▁استعداد	-3972
▁ضم	-3973
▁قتل	-3974
▁جنون	-3975
▁خواد	-3976
▁وعده	-3977
▁پنجه	-3978
▁گاری	-3979
▁نشانی	-3980
▁واقعه	-3981
▁انگلستان	-3982
▁گلی	-3983
▁بفرم	-3984
▁علیه	-3985
▁اطاعت	-3986
▁بزنند	-3987
▁نوشید	-3988
▁سکه	-3989
▁دالی	-3990
▁نشین	-3991
▁گونا	-3992
▁تصدیق	-3993
▁مرتکب	-3994
▁مواق	-3995
▁جدیدی	-3996
▁سرشار	-3997
یمن	-3998
▁منف	-3999
▁میر	-4000
▁یقه	-4001
▁سرود	-4002
▁شهرت	-4003
▁گشوده	-4004
طرب	-4005
▁موس	-4006
▁اثاث	-4007
▁ترسم	-4008
▁جذاب	-4009
▁دیدی	-4010
▁سنگر	-4011
▁ارلاند	-4012
▁سوندرا	-4013
غن	-4014
ازند	-4015
▁ریا	-4016
▁سیب	-4017
▁وام	-4018
▁جلسه	-4019
▁تقاضا	-4020
▁شماست	-4021
▁دستگیر	-4022
▁نمایند	-4023
▁زمینی	-4024
▁نیازی	-4025
▁منظورت	-4026
▁سرگردان	-4027
ریه	-4028
▁هق	-4029
▁شاخ	-4030
▁مخاط	-4031
▁براند	-4032
▁بشنود	-4033
▁تحصیل	-4034
▁خانهٔ	-4035
▁عقاید	-4036
▁مضطرب	-4037
▁نداریم	-4038
▁غرب	-4039
▁بودید	-4040
▁درستی	-4041
▁مطبوع	-4042
▁تقاضای	-4043
▁میدانست	-4044
نل	-4045
ظیمی	-4046
▁بدو	-4047
▁خوک	-4048
▁سحر	-4049
▁وگر	-4050
▁نگفته	-4051
▁چرخید	-4052
▁میخانه	-4053
صب	-4054
▁مچ	-4055
▁شاع	-4056
زاران	-4057
▁دارن	-4058
▁دردسر	-4059
▁چارلی	-4060
▁گرسنه	-4061
▁بیگانه	-4062
▁مسافرت	-4063
▁هیج	-4064
▁برهنه	-4065
▁حوصله	-4066
▁فروشگاه	-4067
▁مهمانخانه	-4068
ظم	-4069
فوی	-4070
▁اساس	-4071
▁اصلاح	-4072
▁اینست	-4073
▁ارلاندو	-4074
لح	-4075
▁زو	-4076
▁عط	-4077
▁لق	-4078
▁پد	-4079
▁درم	-4080
▁شرق	-4081
ماران	-4082
▁بهره	-4083
▁ماده	-4084
▁پسند	-4085
▁لیوان	-4086
▁مبهوت	-4087
▁قهرمان	-4088
▁موهایش	-4089
ومه	-4090
▁همة	-4091
▁وان	-4092
▁هیکل	-4093
▁محوطه	-4094
▁ثروتمند	-4095
▁پیشخدمت	-4096
نتی	-4097
▁تیل	-4098
▁غرش	-4099
▁میت	-4100
▁مسلم	-4101
▁ملای	-4102
▁کاپی	-4103
▁بفهمد	-4104
▁معمولا	-4105
نگر	-4106
▁کره	-4107
▁تمرین	-4108
▁حقیقی	-4109
▁مطالب	-4110
▁نمایم	-4111
▁استقبال	-4112
وچ	-4113
جار	-4114
راج	-4115
▁زر	-4116
▁بدل	-4117
▁دلس	-4118
▁یادت	-4119
▁اجرای	-4120
▁سروان	-4121
▁ماندند	-4122
▁انف	-4123
▁بانگ	-4124
▁نجیب	-4125
▁مذهبی	-4126
▁فهمیده	-4127
▁مرز	-4128
▁موا	-4129
▁سپاس	-4130
▁فیصل	-4131
▁مجرو	-4132
▁پاول	-4133
▁دانند	-4134
▁برگردد	-4135
▁فرانسویان	-4136
▁پت	-4137
▁نفهم	-4138
▁اعراب	-4139
▁روابط	-4140
▁وگرنه	-4141
▁همسایه	-4142
▁برات	-4143
▁منتظ	-4144
▁نوبت	-4145
▁حمایت	-4146
▁فروشی	-4147
▁محافظ	-4148
▁شتابان	-4149
▁مخالفت	-4150
▁هزاران	-4151
▁کلیسای	-4152
▁فض	-4153
▁سپر	-4154
▁امتی	-4155
▁بجای	-4156
▁نیفت	-4157
▁بانوی	-4158
▁متاسف	-4159
▁میکرد	-4160
▁کلاهش	-4161
▁دردناک	-4162
▁فیودور	-4163
▁نرسیده	-4164
▁همچنانکه	-4165
بیه	-4166
▁بپر	-4167
▁مبت	-4168
▁جائی	-4169
▁کلفت	-4170
▁کنتر	-4171
▁یونی	-4172
▁تنارد	-4173
▁مفهوم	-4174
▁نیامد	-4175
▁بازوان	-4176
▁بگیرند	-4177
▁پوشاند	-4178
▁روستایی	-4179
▁عضو	-4180
▁ایام	-4181
▁جمعی	-4182
▁ناست	-4183
▁نکنم	-4184
▁چکمه	-4185
▁شتافت	-4186
▁مالفوی	-4187
▁نشنیده	-4188
▁تناردیه	-4189
اندرا	-4190
▁لفور	-4191
▁بکنید	-4192
▁جامعه	-4193
▁دیوان	-4194
▁مهارت	-4195
▁ناخوش	-4196
▁هدایت	-4197
▁انداختند	-4198
ریز	-4199
▁تز	-4200
▁رپ	-4201
▁اخم	-4202
▁پخش	-4203
▁پوز	-4204
▁آینه	-4205
▁لرزه	-4206
▁بهتره	-4207
▁دیوید	-4208
▁منتهی	-4209
▁بیاورم	-4210
▁کب	-4211
اندر	-4212
فتگی	-4213
▁واح	-4214
▁پرش	-4215
▁دوری	-4216
▁سقوط	-4217
▁فرور	-4218
▁آستین	-4219
▁ستایش	-4220
▁غمگین	-4221
▁مردمی	-4222
▁آستانه	-4223
▁بخواند	-4224
▁کتابخانه	-4225
▁امری	-4226
▁هیول	-4227
▁پوند	-4228
▁سفیدی	-4229
▁اپ	-4230
▁هز	-4231
ردار	-4232
فیلد	-4233
▁بشر	-4234
▁عیب	-4235
▁صمیم	-4236
▁مرکز	-4237
▁نفری	-4238
▁جنوبی	-4239
▁نرفته	-4240
مار	-4241
امبر	-4242
▁آیم	-4243
▁حسب	-4244
▁دهی	-4245
▁متق	-4246
▁منشی	-4247
▁مزاحم	-4248
▁مسیحی	-4249
▁شناخته	-4250
▁کارهنین	-4251
▁غض	-4252
▁سوگ	-4253
▁شرف	-4254
▁عرش	-4255
▁آلکس	-4256
▁لوسی	-4257
▁نرمی	-4258
▁آلوده	-4259
▁متعلق	-4260
▁موارد	-4261
رور	-4262
گارت	-4263
▁دگر	-4264
▁سوف	-4265
▁وقوع	-4266
▁چکار	-4267
▁گیاه	-4268
▁بازار	-4269
سو	-4270
پای	-4271
وایی	-4272
ینیا	-4273
▁اوج	-4274
▁سین	-4275
▁دانه	-4276
▁جستجوی	-4277
!...	-4278
▁قبر	-4279
▁مصی	-4280
▁نزن	-4281
▁وطن	-4282
▁اسکن	-4283
▁امضا	-4284
▁لیدی	-4285
▁نظام	-4286
▁کوره	-4287
▁وجدان	-4288
▁ببینید	-4289
▁یکباره	-4290
حک	-4291
وغ	-4292
اخر	-4293
ایع	-4294
گیت	-4295
▁ضد	-4296
▁قف	-4297
شیند	-4298
ورات	-4299
▁گول	-4300
▁سپید	-4301
▁صلیب	-4302
▁پرسش	-4303
▁گستا	-4304
▁شاگرد	-4305
▁معذرت	-4306
▁نمونه	-4307
▁پیانو	-4308
▁افتادم	-4309
▁دستگاه	-4310
▁مراجعت	-4311
په	-4312
▁لمس	-4313
▁گذر	-4314
▁گیل	-4315
▁پورت	-4316
▁مواجه	-4317
▁چهارم	-4318
▁جزئیات	-4319
هاش	-4320
▁تض	-4321
▁منح	-4322
▁پرچ	-4323
▁امنی	-4324
▁اورس	-4325
▁جانش	-4326
▁میرم	-4327
▁وفاد	-4328
▁حوالی	-4329
بانه	-4330
هایش	-4331
▁تابل	-4332
▁راهش	-4333
▁روید	-4334
▁فقیر	-4335
▁قلبی	-4336
▁مسیح	-4337
▁آریثا	-4338
▁استری	-4339
▁زیبای	-4340
▁گسترده	-4341
▁انگشتان	-4342
▁بفرمایید	-4343
جم	-4344
▁تلگ	-4345
▁اینو	-4346
▁فیلم	-4347
▁گردم	-4348
▁تابوت	-4349
▁نمایید	-4350
ینز	-4351
▁بخشی	-4352
▁تلخی	-4353
▁سراز	-4354
▁تابلو	-4355
▁تشریف	-4356
▁تشویق	-4357
▁دورتر	-4358
▁سفارش	-4359
▁سیاسی	-4360
▁محبوب	-4361
▁ندارید	-4362
▁کاترینا	-4363
زم	-4364
اصی	-4365
▁بیک	-4366
▁جری	-4367
▁ملک	-4368
▁تلقی	-4369
▁ریشه	-4370
▁نرده	-4371
▁یاری	-4372
▁آسایش	-4373
▁بولست	-4374
▁تدریج	-4375
▁ببینند	-4376
▁خداحافظ	-4377
پس	-4378
شمی	-4379
اریم	-4380
▁بکش	-4381
▁بامد	-4382
▁بزنی	-4383
▁خشکی	-4384
▁پرتو	-4385
▁کارل	-4386
▁خاطرش	-4387
▁یازده	-4388
▁بازگرد	-4389
▁معامله	-4390
▁زخ	-4391
الات	-4392
▁رفق	-4393
▁التن	-4394
▁تفکر	-4395
▁نوار	-4396
▁بشقاب	-4397
▁تمجید	-4398
▁بنشیند	-4399
▁موضوعی	-4400
▁ناشناس	-4401
ناس	-4402
▁نپ	-4403
▁چاک	-4404
▁میله	-4405
▁وسیع	-4406
▁‬‬‬‬	-4407
▁بینید	-4408
▁دویست	-4409
▁مستقی	-4410
▁سرازیر	-4411
▁پیشرفت	-4412
ایلی	-4413
▁ایل	-4414
▁بلد	-4415
▁تبر	-4416
▁حین	-4417
▁کنترل	-4418
▁گذاری	-4419
▁جادوگر	-4420
▁همراهی	-4421
فتن	-4422
▁لز	-4423
▁مجا	-4424
▁خورم	-4425
▁دادی	-4426
▁قوان	-4427
▁معاش	-4428
▁نازک	-4429
▁خیالی	-4430
▁بیندازد	-4431
▁لایدگیت	-4432
روس	-4433
رایه	-4434
▁ژاک	-4435
▁لوله	-4436
▁وستن	-4437
▁نشیمن	-4438
▁خونسردی	-4439
▁شادمانی	-4440
دمه	-4441
▁درب	-4442
▁بروک	-4443
▁تبسم	-4444
▁شکلی	-4445
▁پاتر	-4446
▁تقسیم	-4447
▁خیانت	-4448
▁گروهی	-4449
افع	-4450
سیون	-4451
▁فنج	-4452
▁نحو	-4453
▁نظم	-4454
▁بیشه	-4455
▁عرشه	-4456
▁سوخته	-4457
▁کتابی	-4458
صت	-4459
▁رگ	-4460
▁قص	-4461
اشیه	-4462
▁جاس	-4463
▁ساق	-4464
▁قصه	-4465
▁روغن	-4466
▁محال	-4467
▁ندید	-4468
▁اروپا	-4469
▁التما	-4470
▁تازگی	-4471
▁توصیف	-4472
▁ساعات	-4473
▁گیلاس	-4474
▁دیواری	-4475
یچ	-4476
▁نژ	-4477
خونه	-4478
زمین	-4479
▁ترش	-4480
▁میش	-4481
▁عمرش	-4482
▁پالت	-4483
▁اجاره	-4484
▁لعنتی	-4485
▁هرگونه	-4486
▁چشمانی	-4487
▁درخواست	-4488
▁مارگارت	-4489
ذل	-4490
▁عرب	-4491
▁پلا	-4492
یاطین	-4493
▁بروز	-4494
▁برپا	-4495
▁دوان	-4496
▁اتاقی	-4497
▁تعارف	-4498
▁جیکوب	-4499
▁وضعیت	-4500
▁یانکی	-4501
▁نخورده	-4502
▁شست	-4503
▁طوف	-4504
▁براد	-4505
▁حاشیه	-4506
▁گریخت	-4507
▁جمهوری	-4508
▁هارولد	-4509
▁گوناگون	-4510
واع	-4511
▁دق	-4512
▁حبس	-4513
▁طبع	-4514
▁استا	-4515
▁معلم	-4516
▁چینی	-4517
▁روبرو	-4518
▁نیاورد	-4519
وح	-4520
ضار	-4521
عتی	-4522
وزوف	-4523
▁ترن	-4524
▁رشد	-4525
▁عذر	-4526
▁ممن	-4527
▁ندر	-4528
▁چمد	-4529
▁حمام	-4530
▁زوزه	-4531
▁شکاف	-4532
▁صحرا	-4533
▁اتاقش	-4534
▁سیاست	-4535
▁انقلاب	-4536
▁بگذارم	-4537
▁جلوگیری	-4538
▁غضب	-4539
▁شانس	-4540
▁ماست	-4541
▁بازمی	-4542
▁دومین	-4543
▁مشکلی	-4544
▁گشتند	-4545
▁آراسته	-4546
▁راننده	-4547
▁اره	-4548
▁لاک	-4549
▁منز	-4550
▁کاخ	-4551
▁خارجی	-4552
▁دادیم	-4553
▁گردنش	-4554
▁امتیاز	-4555
▁ببخشید	-4556
▁بگیرید	-4557
▁موجودی	-4558
▁توانایی	-4559
▁احتمالاً	-4560
وها	-4561
▁فن	-4562
▁آرک	-4563
▁اهب	-4564
▁تولد	-4565
▁خوشگل	-4566
▁درونی	-4567
▁رسیدم	-4568
▁پدیدار	-4569
▁نتوانسته	-4570
چر	-4571
کوه	-4572
▁رح	-4573
طوری	-4574
▁الو	-4575
▁قاب	-4576
▁قرض	-4577
▁اشیا	-4578
▁شلاق	-4579
▁اشکالی	-4580
▁التماس	-4581
▁چرخاند	-4582
▁کوتوزوف	-4583
خصی	-4584
نمی	-4585
▁حاک	-4586
▁نوز	-4587
▁کون	-4588
اهایی	-4589
▁آرنج	-4590
▁ادای	-4591
▁اصول	-4592
▁بوسی	-4593
▁افسون	-4594
▁الماس	-4595
▁انواع	-4596
▁درازی	-4597
▁آنی	-4598
▁معا	-4599
▁آلبر	-4600
▁غیرق	-4601
▁بودکه	-4602
▁شادمان	-4603
▁لینتون	-4604
ژین	-4605
▁شت	-4606
ورید	-4607
▁بای	-4608
▁ذکر	-4609
▁غار	-4610
▁اثنا	-4611
▁بهار	-4612
▁سخنی	-4613
▁مادی	-4614
▁متنفر	-4615
▁پیوست	-4616
▁انگیزه	-4617
▁جوانان	-4618
▁پوشانده	-4619
▁تظ	-4620
▁قوت	-4621
▁خوار	-4622
▁پترز	-4623
▁تحقیق	-4624
▁داشتی	-4625
▁مجروح	-4626
▁میانه	-4627
▁بلندتر	-4628
▁فلورنت	-4629
▁کاروان	-4630
▁خواندند	-4631
سن	-4632
ندیا	-4633
ودگی	-4634
▁انع	-4635
▁نفع	-4636
▁تسلی	-4637
▁ذهنم	-4638
▁سلاح	-4639
▁مفید	-4640
▁چیره	-4641
▁کشتن	-4642
▁جبران	-4643
▁غریبی	-4644
▁برخاسته	-4645
▁دیوارهای	-4646
ئن	-4647
لیل	-4648
▁ظل	-4649
▁سلط	-4650
▁اسیر	-4651
▁مطلق	-4652
▁جلوتر	-4653
▁حکومت	-4654
▁شکایت	-4655
▁دوردست	-4656
▁نمودند	-4657
▁زل	-4658
▁مجس	-4659
▁مزه	-4660
▁بکشم	-4661
▁والانتین	-4662
ساد	-4663
نما	-4664
▁طن	-4665
لیام	-4666
▁دلب	-4667
▁سکو	-4668
▁وجد	-4669
▁ادبی	-4670
▁جارو	-4671
▁خوزه	-4672
▁دهیم	-4673
▁لنگر	-4674
▁هجوم	-4675
ناپ	-4676
ارده	-4677
▁رین	-4678
▁فعلا	-4679
▁مدار	-4680
▁یواش	-4681
▁بگذرد	-4682
▁دلایل	-4683
▁پاولو	-4684
▁فریادی	-4685
▁چسبیده	-4686
▁رستوران	-4687
▁وحشتناکی	-4688
آب	-4689
▁تعد	-4690
▁ناک	-4691
▁لطیف	-4692
▁جستجو	-4693
▁خاموشی	-4694
▁اورسولا	-4695
ازل	-4696
التی	-4697
▁صلح	-4698
▁لغز	-4699
▁میگ	-4700
▁گیس	-4701
▁بپرس	-4702
▁مصاح	-4703
▁حداقل	-4704
▁پیروز	-4705
▁یهودی	-4706
▁بدانید	-4707
▁رفتارش	-4708
▁روزگار	-4709
▁قوانین	-4710
▁پادشاه	-4711
▁دخترهای	-4712
▁معمولاً	-4713
▁فلورنتینو	-4714
رست	-4715
پار	-4716
▁سئ	-4717
▁فد	-4718
گانی	-4719
▁حزب	-4720
▁شصت	-4721
▁پشم	-4722
▁تصوی	-4723
▁خطوط	-4724
▁داثا	-4725
▁واسطه	-4726
▁برجسته	-4727
▁بوسیله	-4728
▁شیاطین	-4729
▁جال	-4730
▁وود	-4731
▁بالش	-4732
▁بمانم	-4733
▁دایره	-4734
▁افسرده	-4735
▁بامداد	-4736
▁مسلماً	-4737
▁بتوانند	-4738
ِن	-4739
لیف	-4740
▁سوت	-4741
▁لخت	-4742
▁مسأ	-4743
▁مطرح	-4744
▁مواد	-4745
▁پاکت	-4746
▁پرسی	-4747
▁آگاهی	-4748
▁بیایم	-4749
▁خرمگس	-4750
▁فرانی	-4751
▁فشرده	-4752
▁قسمتی	-4753
▁آرکادی	-4754
اتل	-4755
▁لف	-4756
▁اردو	-4757
▁استث	-4758
▁طاقت	-4759
▁روشنی	-4760
▁شجاعت	-4761
▁مقاله	-4762
▁افسران	-4763
خین	-4764
▁امی	-4765
▁یکس	-4766
▁بگرد	-4767
▁متوس	-4768
▁وکیل	-4769
▁انکار	-4770
▁خریده	-4771
▁مثلاً	-4772
▁مسأله	-4773
▁پیوند	-4774
▁نیروهای	-4775
صول	-4776
▁طاق	-4777
▁ورا	-4778
▁اعلی	-4779
▁سعاد	-4780
▁طلسم	-4781
▁قشنگی	-4782
▁لحظات	-4783
▁پیمود	-4784
▁اسکناس	-4785
▁یافتند	-4786
▁خوابگاه	-4787
▁یادآوری	-4788
لیه	-4789
▁آخه	-4790
▁تنش	-4791
▁غلت	-4792
▁باهم	-4793
▁ترکی	-4794
▁نامش	-4795
▁امواج	-4796
▁توهین	-4797
▁زننده	-4798
▁گذارم	-4799
▁فرسوده	-4800
▁خندیدند	-4801
راع	-4802
▁عر	-4803
▁چل	-4804
▁یاب	-4805
آمیزی	-4806
▁مسلح	-4807
▁نگرد	-4808
▁آشنای	-4809
▁اواخر	-4810
▁رعایت	-4811
▁سرسرا	-4812
▁مجسمه	-4813
▁خوابید	-4814
▁بهر	-4815
▁باخت	-4816
▁بنده	-4817
▁سیری	-4818
▁نجوا	-4819
▁ژاور	-4820
ارتمان	-4821
▁جوراب	-4822
▁خندان	-4823
▁مطلبی	-4824
▁اصطلاح	-4825
▁باشگاه	-4826
▁عاشقانه	-4827
لائه	-4828
چستر	-4829
▁بفه	-4830
▁خلال	-4831
▁لعنت	-4832
▁مستخ	-4833
▁نعره	-4834
▁متفاوت	-4835
▁نویسنده	-4836
لای	-4837
نجی	-4838
▁پگ	-4839
....	-4840
▁بنی	-4841
▁جرج	-4842
▁دوک	-4843
▁ولو	-4844
▁کرم	-4845
ورتمه	-4846
▁لئون	-4847
▁تعظیم	-4848
▁بگویند	-4849
▁پترزبورگ	-4850
▁اقی	-4851
▁توف	-4852
▁ببرم	-4853
▁وقار	-4854
▁اهالی	-4855
▁ببرند	-4856
▁بکنیم	-4857
▁مادمو	-4858
▁محسوب	-4859
▁قربانی	-4860
▁گفتگوی	-4861
▁غیرقابل	-4862
▁بغ	-4863
▁ایر	-4864
▁حما	-4865
▁رقت	-4866
▁فوت	-4867
▁قیم	-4868
▁بعید	-4869
▁نادر	-4870
▁پرسه	-4871
▁حسادت	-4872
▁دریای	-4873
▁سوزان	-4874
▁زندگیش	-4875
مر	-4876
▁شنل	-4877
▁لان	-4878
▁پیپ	-4879
▁تأسف	-4880
▁دماغ	-4881
▁زخمی	-4882
▁علاق	-4883
▁غبار	-4884
▁مجله	-4885
▁اخبار	-4886
▁تحویل	-4887
▁فرشته	-4888
▁جادویی	-4889
▁شیرینی	-4890
گهی	-4891
▁جغ	-4892
▁پچ	-4893
▁بسا	-4894
▁خات	-4895
▁بیوه	-4896
▁فرقی	-4897
▁لیزی	-4898
▁آفرین	-4899
▁بهتری	-4900
▁بکنند	-4901
▁سوگند	-4902
▁هیولا	-4903
▁وسوسه	-4904
▁آگلائه	-4905
▁ایوانونا	-4906
▁نرو	-4907
▁حالم	-4908
▁اونها	-4909
▁تخی	-4910
▁عبوس	-4911
▁منطقی	-4912
▁ارتفاع	-4913
انتا	-4914
▁دهق	-4915
▁رأی	-4916
▁یار	-4917
گوارت	-4918
▁غریزه	-4919
▁پگاتی	-4920
▁فت	-4921
▁حاف	-4922
▁محق	-4923
گرفته	-4924
▁مبلغ	-4925
▁هستن	-4926
▁پیام	-4927
▁تیراند	-4928
▁ناستازی	-4929
▁کارهایی	-4930
▁اقت	-4931
▁باط	-4932
▁فیل	-4933
▁مخلو	-4934
▁پستی	-4935
▁اعماق	-4936
▁نهفته	-4937
▁پرورش	-4938
▁گفتید	-4939
▁ببینیم	-4940
▁بیاورند	-4941
▁مهمانان	-4942
ناع	-4943
▁وخ	-4944
▁لات	-4945
▁بوری	-4946
▁خوشت	-4947
▁عشقی	-4948
▁هیاه	-4949
▁کلند	-4950
▁آرایش	-4951
▁باهوش	-4952
▁تحریک	-4953
▁سپرده	-4954
▁مختصر	-4955
▁کشاند	-4956
▁رفتاری	-4957
پان	-4958
مینا	-4959
▁غلط	-4960
▁لگد	-4961
روخته	-4962
▁قانع	-4963
▁قفسه	-4964
▁قمار	-4965
▁معدن	-4966
▁دیدیم	-4967
▁زنانه	-4968
▁مجاور	-4969
▁کاغذی	-4970
▁انباشته	-4971
▁پاولوویچ	-4972
لن	-4973
لک	-4974
▁هش	-4975
نگیز	-4976
▁ابد	-4977
▁بوئ	-4978
▁میوه	-4979
▁واکن	-4980
▁امیدی	-4981
▁ضروری	-4982
▁مراتب	-4983
▁ورزید	-4984
▁برانگی	-4985
▁فرمینا	-4986
▁سخنرانی	-4987
▁مادموازل	-4988
▁باخ	-4989
▁دند	-4990
▁هند	-4991
▁صدائی	-4992
▁کوچول	-4993
▁قانونی	-4994
اطی	-4995
طرف	-4996
گرفت	-4997
▁سلول	-4998
▁شریف	-4999
▁مغزش	-5000
▁نیزه	-5001
▁پیری	-5002
▁بگیری	-5003
▁درمان	-5004
▁عظیمی	-5005
▁ماندن	-5006
▁مشهور	-5007
▁اشخاصی	-5008
▁بیایند	-5009
▁بگذارند	-5010
▁هاگوارت	-5011
▁وحشیانه	-5012
اسد	-5013
▁رن	-5014
الیا	-5015
▁عمق	-5016
▁مفر	-5017
▁نیس	-5018
▁شجاع	-5019
▁حاضرم	-5020
▁نیافت	-5021
▁کریسم	-5022
▁افکارش	-5023
▁داشتنی	-5024
▁راچستر	-5025
▁سرمایه	-5026
▁عظ	-5027
ابلا	-5028
▁بخار	-5029
▁روزه	-5030
▁سازی	-5031
▁سبیل	-5032
▁پدرت	-5033
▁تونیم	-5034
▁خاتمه	-5035
▁فنجان	-5036
ذا	-5037
شیده	-5038
▁توق	-5039
▁عاج	-5040
▁هال	-5041
▁آشام	-5042
▁افسوس	-5043
▁کوبید	-5044
▁متأسفم	-5045
▁مجازات	-5046
▁خوشایند	-5047
ثه	-5048
▁سد	-5049
▁اکت	-5050
▁بنت	-5051
▁نسل	-5052
▁چاه	-5053
▁آنست	-5054
▁بعدش	-5055
▁قاضی	-5056
▁محاک	-5057
▁هایت	-5058
▁پشتش	-5059
▁سلامت	-5060
▁مادرت	-5061
▁آنتوان	-5062
▁اختلاف	-5063
▁برداری	-5064
▁روحانی	-5065
▁مناسبی	-5066
▁نومیدی	-5067
ونو	-5068
▁بدج	-5069
▁کهن	-5070
▁شهری	-5071
▁فلان	-5072
▁نصیب	-5073
▁چندی	-5074
▁تظاهر	-5075
▁ضمناً	-5076
▁چنگال	-5077
▁افزایش	-5078
▁ایزابلا	-5079
▁توانستیم	-5080
فش	-5081
ارین	-5082
▁انج	-5083
▁حاکم	-5084
▁راحل	-5085
▁احضار	-5086
▁براون	-5087
▁بشنوم	-5088
▁مسئول	-5089
▁میزان	-5090
▁نگرفته	-5091
▁چنانچه	-5092
▁نگهداری	-5093
باح	-5094
چیل	-5095
▁آکس	-5096
▁بدش	-5097
▁تاج	-5098
▁تنی	-5099
▁خرس	-5100
▁غرو	-5101
▁فرن	-5102
▁مزخ	-5103
▁سرفه	-5104
▁باخته	-5105
▁دهنده	-5106
▁مشکلات	-5107
▁میدانم	-5108
▁فرزندان	-5109
ذیری	-5110
وخوف	-5111
▁جنس	-5112
▁خنک	-5113
▁ابدی	-5114
▁جرئت	-5115
▁دزدی	-5116
▁مسرت	-5117
▁مصرف	-5118
▁گارد	-5119
▁دقیقا	-5120
▁دیدنش	-5121
▁ناچیز	-5122
▁چرچیل	-5123
▁کشاور	-5124
▁یکسره	-5125
کارا	-5126
یافت	-5127
▁بنگ	-5128
▁خلی	-5129
▁خطری	-5130
▁آزرده	-5131
▁غریبه	-5132
▁افرادی	-5133
▁دربارة	-5134
▁هاگوارتز	-5135
عل	-5136
▁رج	-5137
▁قز	-5138
▁تهی	-5139
▁عهد	-5140
▁ایده	-5141
▁آرتور	-5142
▁جولیا	-5143
▁درهای	-5144
▁محروم	-5145
▁موتور	-5146
▁سلامتی	-5147
▁پذیرفته	-5148
▁ایستادند	-5149
مش	-5150
▁دشو	-5151
▁چاب	-5152
▁تصمی	-5153
▁ساکن	-5154
▁شرقی	-5155
▁گروچ	-5156
▁تبسمی	-5157
▁سلیقه	-5158
▁مصیبت	-5159
▁کوچکش	-5160
▁بدترین	-5161
▁مردانی	-5162
▁کارگاه	-5163
▁صادقانه	-5164
▁مخصوصاً	-5165
▁کاپیتان	-5166
یب	-5167
پیم	-5168
▁حج	-5169
مناک	-5170
▁سست	-5171
▁فضا	-5172
▁میک	-5173
▁کتک	-5174
▁گریس	-5175
▁خوابی	-5176
▁خوراک	-5177
▁قرارد	-5178
▁آفتابی	-5179
▁تردیدی	-5180
▁کامیون	-5181
▁کنجکاو	-5182
سیس	-5183
فرم	-5184
▁ژی	-5185
▁آتل	-5186
خورده	-5187
▁درصد	-5188
▁سرپر	-5189
▁مسیو	-5190
▁اشیاء	-5191
▁بستگی	-5192
▁جاهای	-5193
▁زبانش	-5194
▁ضرورت	-5195
▁نماند	-5196
▁جایگاه	-5197
▁سپاسگز	-5198
▁کریسمس	-5199
▁مسئولیت	-5200
اجی	-5201
▁جود	-5202
▁ماز	-5203
▁وند	-5204
رهایی	-5205
▁تدار	-5206
▁ایراد	-5207
▁جالبی	-5208
▁سئوال	-5209
▁شناسد	-5210
▁کرایه	-5211
▁گلویش	-5212
▁امتداد	-5213
دست	-5214
کوئ	-5215
گلی	-5216
▁آسم	-5217
▁تای	-5218
▁خفی	-5219
▁سور	-5220
▁ترحم	-5221
▁نفسش	-5222
▁وزید	-5223
▁کاست	-5224
▁جنازه	-5225
▁وظ	-5226
وریت	-5227
▁قید	-5228
▁پیغ	-5229
▁آراگ	-5230
▁آهنی	-5231
▁دعوا	-5232
▁گیره	-5233
▁اعصاب	-5234
▁اینان	-5235
▁تاثیر	-5236
▁تقدیر	-5237
▁دریچه	-5238
▁لبانش	-5239
▁کناره	-5240
▁بخوابد	-5241
▁هولناک	-5242
▁گروچنکا	-5243
خود	-5244
شناس	-5245
▁انز	-5246
▁حیث	-5247
▁دوز	-5248
▁جیبش	-5249
▁ووده	-5250
▁پنبه	-5251
▁گرما	-5252
▁گنده	-5253
▁اومده	-5254
▁صمیمی	-5255
زون	-5256
ایتی	-5257
ِزمه	-5258
▁نیت	-5259
▁آسیب	-5260
▁براق	-5261
▁شبهه	-5262
▁طرفی	-5263
▁غربی	-5264
▁هارت	-5265
▁گرین	-5266
▁حماقت	-5267
▁دشواری	-5268
▁رسیدگی	-5269
▁میخواد	-5270
▁درآورده	-5271
▁تیراندازی	-5272
ابر	-5273
جمه	-5274
دین	-5275
ریا	-5276
▁ناگ	-5277
▁قزاق	-5278
▁محله	-5279
▁مردک	-5280
▁استدل	-5281
▁اشکال	-5282
▁بگویی	-5283
▁سازند	-5284
▁لباسش	-5285
▁مشترک	-5286
▁گوسفند	-5287
ریر	-5288
▁رِن	-5289
▁قوم	-5290
▁ناآ	-5291
▁ناش	-5292
▁هرک	-5293
▁کنس	-5294
▁اقای	-5295
▁خوری	-5296
▁ذهنی	-5297
▁غیبت	-5298
▁لیره	-5299
▁نماز	-5300
▁گرمی	-5301
▁دونیا	-5302
▁آشکارا	-5303
▁اینکار	-5304
▁سرگرمی	-5305
▁محاکمه	-5306
▁پرداختند	-5307
اپیش	-5308
گذشت	-5309
▁خرگ	-5310
▁فقر	-5311
▁قفس	-5312
▁خاکی	-5313
▁صریح	-5314
▁عروس	-5315
▁عظمت	-5316
▁معین	-5317
▁شمالی	-5318
▁مطابق	-5319
▁اطلاعی	-5320
▁برایتان	-5321
▁آپارتمان	-5322
▁نگریستند	-5323
اتش	-5324
▁آذ	-5325
▁دوب	-5326
▁شبح	-5327
▁بادی	-5328
▁عاری	-5329
▁هیچی	-5330
▁برسان	-5331
▁مشتری	-5332
▁دوربین	-5333
▁شنیدند	-5334
▁نخواهی	-5335
▁رِنِزمه	-5336
▁فراوانی	-5337
▁برخوردار	-5338
▁تذ	-5339
▁اشع	-5340
▁فلس	-5341
▁پتو	-5342
▁نامط	-5343
▁کارا	-5344
▁اثبات	-5345
▁بزنیم	-5346
▁حواسش	-5347
▁عمویش	-5348
▁نشستن	-5349
▁گویید	-5350
▁دنباله	-5351
▁وودهاس	-5352
▁انداختم	-5353
▁زیرزمین	-5354
▁پیشاپیش	-5355
اوند	-5356
لتون	-5357
مانه	-5358
پیما	-5359
▁حقه	-5360
▁هرا	-5361
▁اختص	-5362
▁تنفر	-5363
▁خارق	-5364
▁روحش	-5365
▁فهمی	-5366
▁نزده	-5367
▁نیکو	-5368
▁بزنید	-5369
▁دهقان	-5370
▁ظاهری	-5371
▁معنای	-5372
▁نادیده	-5373
▁دریافته	-5374
▁دیوارها	-5375
▁نماینده	-5376
لوع	-5377
ورک	-5378
▁پژ	-5379
▁عاد	-5380
▁معن	-5381
▁پیا	-5382
رانده	-5383
▁برگز	-5384
▁مسلط	-5385
▁نقاط	-5386
▁بینوا	-5387
▁مشورت	-5388
▁هابیت	-5389
▁آراگورن	-5390
ارن	-5391
بند	-5392
بروی	-5393
▁ازت	-5394
▁صدها	-5395
▁قطعی	-5396
▁مالک	-5397
▁ملکی	-5398
▁بهبود	-5399
▁همهمه	-5400
▁دقیقاً	-5401
رئی	-5402
رامی	-5403
▁اتح	-5404
▁افق	-5405
▁تصا	-5406
▁صرا	-5407
▁عطر	-5408
▁بافت	-5409
▁دردی	-5410
▁صدمه	-5411
▁فربه	-5412
▁مجال	-5413
▁معرض	-5414
▁پسرم	-5415
▁تسکین	-5416
▁پیشین	-5417
▁ساختند	-5418
▁صداهای	-5419
لاتی	-5420
▁زاد	-5421
▁بیلی	-5422
▁خراش	-5423
▁هنرم	-5424
▁پرچم	-5425
▁برخیز	-5426
▁افکنده	-5427
▁تغییری	-5428
یع	-5429
مام	-5430
▁اسن	-5431
▁نال	-5432
▁الکس	-5433
▁تارا	-5434
▁نوبه	-5435
▁وزیر	-5436
▁گنجه	-5437
▁بارون	-5438
▁باهاش	-5439
▁خوردم	-5440
▁هشدار	-5441
▁افسانه	-5442
▁فرناند	-5443
▁متقاعد	-5444
▁ویلیام	-5445
▁دانشگاه	-5446
▁خویشاوند	-5447
▁دس	-5448
رگاه	-5449
▁انص	-5450
▁ساح	-5451
▁شال	-5452
▁موع	-5453
▁نصب	-5454
▁تلوی	-5455
▁دوام	-5456
▁دورو	-5457
▁مارک	-5458
▁مشکی	-5459
▁حافظه	-5460
▁نومید	-5461
▁پرهیز	-5462
▁گردند	-5463
▁زیبائی	-5464
▁شناختم	-5465
▁آتلانتا	-5466
▁هواپیما	-5467
دهم	-5468
▁غلی	-5469
▁عنکب	-5470
▁تئاتر	-5471
▁خرسند	-5472
▁متحیر	-5473
▁نامزد	-5474
▁نکشید	-5475
▁کاملا	-5476
▁پنهانی	-5477
▁تعطیلات	-5478
▁دوستانش	-5479
▁بشم	-5480
▁تسل	-5481
▁ربع	-5482
▁قصر	-5483
▁جبهه	-5484
▁جواه	-5485
▁فداک	-5486
▁قامت	-5487
▁دستپا	-5488
▁عزیمت	-5489
▁فانوس	-5490
▁تعدادی	-5491
▁گذارند	-5492
▁اقیانوس	-5493
▁پرداخته	-5494
پو	-5495
لاکت	-5496
چیان	-5497
▁عزم	-5498
▁کین	-5499
▁استع	-5500
▁بفرو	-5501
▁طلوع	-5502
▁کاسه	-5503
▁تأمین	-5504
▁تکلیف	-5505
▁سایکس	-5506
▁گردان	-5507
▁استوار	-5508
▁دلسوزی	-5509
▁پرندگان	-5510
یاکف	-5511
▁آبجو	-5512
▁انگی	-5513
▁حساس	-5514
▁زیست	-5515
▁شلوغ	-5516
▁قلبم	-5517
▁قوای	-5518
▁مطلع	-5519
▁ندرت	-5520
▁وضوح	-5521
▁انجمن	-5522
▁آموزان	-5523
▁همدردی	-5524
▁کودکانه	-5525
▁؛	-5526
زمان	-5527
یدها	-5528
▁آنج	-5529
▁ممت	-5530
▁مکر	-5531
▁بلوط	-5532
▁سرخی	-5533
▁مذاک	-5534
▁کشند	-5535
▁کمکی	-5536
▁کوفت	-5537
▁تدارک	-5538
▁دامنه	-5539
▁منتقل	-5540
▁باشکوه	-5541
▁دیواره	-5542
▁ملایمت	-5543
ایف	-5544
▁جاه	-5545
▁فاش	-5546
▁مزد	-5547
▁دائم	-5548
▁سرور	-5549
▁ملحق	-5550
▁واحد	-5551
▁واگن	-5552
▁تقدیم	-5553
▁خوابش	-5554
▁نیکول	-5555
▁پرچین	-5556
▁اسپانی	-5557
▁مردانه	-5558
▁گردیده	-5559
▁بوئندیا	-5560
مید	-5561
▁خطا	-5562
▁نسب	-5563
▁برقی	-5564
▁خوره	-5565
▁صادر	-5566
▁عینک	-5567
▁مرکب	-5568
▁ملال	-5569
▁نامع	-5570
▁نسیم	-5571
▁وقتش	-5572
▁کافه	-5573
ردیاکف	-5574
▁بارید	-5575
▁دربان	-5576
▁دیگرش	-5577
▁سپیده	-5578
▁عملیات	-5579
▁‬‬	-5580
▁عفو	-5581
فاوتی	-5582
▁برهم	-5583
▁قهقه	-5584
▁مختص	-5585
▁گشاد	-5586
▁باخبر	-5587
▁بپرسم	-5588
▁دخالت	-5589
▁مالید	-5590
▁پاسخی	-5591
▁امتناع	-5592
▁ترسیدم	-5593
▁دویدند	-5594
▁شانزده	-5595
▁کارشان	-5596
▁ایتالیا	-5597
▁اسمردیاکف	-5598
اسب	-5599
؟...	-5600
▁اذی	-5601
▁سید	-5602
▁ترسی	-5603
▁جویی	-5604
▁دارو	-5605
▁سرکار	-5606
▁شرمنده	-5607
شده	-5608
رادر	-5609
▁طرا	-5610
▁وصی	-5611
▁آمدی	-5612
▁دکان	-5613
▁لوئی	-5614
▁مردن	-5615
▁چیده	-5616
▁اولیه	-5617
▁محدود	-5618
▁مسافت	-5619
▁مهتاب	-5620
▁گفتار	-5621
تیم	-5622
ختن	-5623
فین	-5624
جاوز	-5625
▁ارث	-5626
▁عاط	-5627
▁مها	-5628
▁هام	-5629
▁الهی	-5630
▁بخور	-5631
▁نفسی	-5632
▁هورت	-5633
▁بدهیم	-5634
▁بعداً	-5635
▁تولید	-5636
▁کشیشی	-5637
▁سورتمه	-5638
▁نسبتاً	-5639
▁پشیمان	-5640
▁ستم	-5641
▁نقص	-5642
▁بندر	-5643
▁توست	-5644
▁پسری	-5645
▁آلمان	-5646
▁باغچه	-5647
▁بیابد	-5648
▁مزخرف	-5649
▁گذران	-5650
▁بخواهم	-5651
▁متمرکز	-5652
▁استخدام	-5653
▁بازگشته	-5654
بیله	-5655
▁جزو	-5656
▁نگو	-5657
▁بهشت	-5658
▁شریک	-5659
▁قوطی	-5660
▁مزار	-5661
▁گوشی	-5662
▁بردار	-5663
▁تشویش	-5664
▁صرفاً	-5665
▁ملتفت	-5666
▁منتها	-5667
▁میکنن	-5668
▁درویدا	-5669
▁کمترین	-5670
قا	-5671
▁اژ	-5672
▁یأ	-5673
▁چال	-5674
داران	-5675
وهایش	-5676
▁بنوش	-5677
▁صلاح	-5678
▁فردی	-5679
▁قالی	-5680
▁پرسد	-5681
▁چشمم	-5682
▁یلدا	-5683
▁امنیت	-5684
▁بمیرد	-5685
▁تمایل	-5686
▁جانور	-5687
▁هزینه	-5688
▁وقایع	-5689
▁گناهی	-5690
▁گودال	-5691
▁بخواهید	-5692
▁خواننده	-5693
▁صمیمانه	-5694
▁احساساتی	-5695
مع	-5696
چشم	-5697
▁حقیق	-5698
▁خروج	-5699
▁خطور	-5700
▁نژاد	-5701
▁وقفه	-5702
▁پرسم	-5703
▁صراحت	-5704
▁لطفاً	-5705
▁نامید	-5706
▁چمدان	-5707
▁گریفند	-5708
▁فریادهای	-5709
مز	-5710
اطه	-5711
▁اگ	-5712
▁دفن	-5713
▁مجل	-5714
▁منه	-5715
▁نمک	-5716
▁کاک	-5717
▁رسان	-5718
▁زیاده	-5719
▁گانیا	-5720
▁یکسان	-5721
▁برگردم	-5722
▁بمانند	-5723
▁بنویسد	-5724
▁تلگراف	-5725
▁ناتوان	-5726
▁کلماتی	-5727
▁بپردازد	-5728
▁اسرارآمیز	-5729
ئان	-5730
خور	-5731
کید	-5732
ینا	-5733
▁حش	-5734
راری	-5735
عالی	-5736
نشین	-5737
نمای	-5738
▁قاه	-5739
▁قرص	-5740
▁آشوب	-5741
▁جهنم	-5742
▁عرضه	-5743
▁قائل	-5744
▁ورزش	-5745
▁دولتی	-5746
▁لباسی	-5747
▁کابوس	-5748
▁گرمای	-5749
▁اطرافش	-5750
▁انگلیس	-5751
▁دگرگون	-5752
▁ناامید	-5753
▁چندانی	-5754
▁کالینز	-5755
▁مرس	-5756
▁شامل	-5757
▁غیرع	-5758
▁مضحک	-5759
▁نشون	-5760
▁خشنود	-5761
▁صداها	-5762
▁صورتم	-5763
▁محتاط	-5764
▁مواقع	-5765
▁وزارت	-5766
▁سیریوس	-5767
▁غرولند	-5768
▁نامرئی	-5769
▁نیستید	-5770
▁چشمانم	-5771
▁استدلال	-5772
▁غافلگیر	-5773
▁انگشتانش	-5774
ودا	-5775
گال	-5776
▁ود	-5777
چنان	-5778
کرده	-5779
▁ربه	-5780
▁سلا	-5781
▁مفت	-5782
▁کیک	-5783
▁هانی	-5784
▁احاطه	-5785
▁برنده	-5786
▁تنبیه	-5787
▁خمیده	-5788
▁متأثر	-5789
▁ممنون	-5790
▁بخواهی	-5791
▁تلویزی	-5792
▁مونتان	-5793
▁انداختن	-5794
▁دادستان	-5795
▁نخواهند	-5796
▁گرفتاری	-5797
▁نتوانستم	-5798
یای	-5799
ارتی	-5800
▁ارک	-5801
▁لوی	-5802
▁دعای	-5803
▁دنده	-5804
▁مامی	-5805
▁وصیت	-5806
▁بخورم	-5807
▁بشوند	-5808
▁خرگوش	-5809
▁طوفان	-5810
▁معجزه	-5811
▁نزاکت	-5812
▁آموخته	-5813
▁اینجاست	-5814
▁مونتانلی	-5815
برگ	-5816
تلر	-5817
واس	-5818
▁کث	-5819
▁جبر	-5820
▁شبه	-5821
▁فار	-5822
▁فحش	-5823
▁کلک	-5824
دبانه	-5825
▁بنای	-5826
▁قطعا	-5827
▁لرزش	-5828
▁منظم	-5829
▁وامی	-5830
▁کلیه	-5831
▁گریز	-5832
▁سکوتی	-5833
▁مادلن	-5834
▁مجددا	-5835
▁مرتبا	-5836
▁ملامت	-5837
▁مکانی	-5838
▁کمیته	-5839
▁سوزاند	-5840
▁وش	-5841
▁گا	-5842
▁اعی	-5843
▁داش	-5844
▁مقت	-5845
▁گتس	-5846
▁بیاب	-5847
▁ظلمت	-5848
▁عموی	-5849
▁گوشم	-5850
▁ببینی	-5851
▁تقلید	-5852
▁جذابی	-5853
▁شناور	-5854
▁قبیله	-5855
▁گفتیم	-5856
▁تونستم	-5857
▁علاقمند	-5858
▁مازارین	-5859
▁متأسفانه	-5860
ضه	-5861
صوم	-5862
ورس	-5863
یزم	-5864
▁چم	-5865
شانی	-5866
▁راد	-5867
▁رفع	-5868
▁قله	-5869
▁گال	-5870
▁اکثر	-5871
▁جرعه	-5872
▁سرای	-5873
▁واژه	-5874
▁کیفی	-5875
▁بستند	-5876
▁بلایی	-5877
▁نشستم	-5878
▁کشتار	-5879
▁بگیریم	-5880
▁ناپذیری	-5881
▁خوشبختانه	-5882
لان	-5883
کون	-5884
▁دلا	-5885
▁رلی	-5886
▁زهر	-5887
▁سیز	-5888
کننده	-5889
▁رادی	-5890
▁رمان	-5891
▁سولا	-5892
▁قاتل	-5893
▁ندهد	-5894
▁واسی	-5895
▁واگذ	-5896
▁ژوئن	-5897
▁بکشند	-5898
▁جرالد	-5899
▁جسارت	-5900
▁فعلاً	-5901
▁معصوم	-5902
▁نوریس	-5903
▁پانصد	-5904
▁افزوده	-5905
▁بادبان	-5906
▁بازویش	-5907
▁کاردین	-5908
▁فداکاری	-5909
ارج	-5910
▁رش	-5911
ثیری	-5912
رتان	-5913
▁الل	-5914
▁حیا	-5915
▁واب	-5916
▁دایی	-5917
▁دکمه	-5918
▁زشتی	-5919
▁مملو	-5920
ومیخین	-5921
▁ارزان	-5922
▁بازرس	-5923
▁بیزار	-5924
▁سرحال	-5925
▁سواره	-5926
▁چهرهٔ	-5927
▁روزانه	-5928
▁مصاحبت	-5929
▁هواپیم	-5930
▁وه	-5931
▁خدم	-5932
▁داخ	-5933
گوژین	-5934
یدهای	-5935
▁بندم	-5936
▁تران	-5937
▁خفته	-5938
▁ریزی	-5939
▁مقصد	-5940
▁پولش	-5941
▁شهامت	-5942
▁فردای	-5943
▁بارانی	-5944
▁سولاکو	-5945
▁رازومیخین	-5946
کری	-5947
▁چس	-5948
▁فلز	-5949
▁یأس	-5950
▁حضار	-5951
▁غیره	-5952
▁لیکر	-5953
▁نیوی	-5954
▁چروک	-5955
▁بوریس	-5956
▁ترانه	-5957
▁تیلنی	-5958
▁دستکش	-5959
▁محبوس	-5960
▁نخورد	-5961
▁ورنون	-5962
▁انفجار	-5963
▁تصاویر	-5964
▁خونسرد	-5965
▁مراجعه	-5966
▁والدین	-5967
▁برداشتم	-5968
▁برافروخته	-5969
▁خدمتکاران	-5970
رع	-5971
کلی	-5972
▁صن	-5973
▁ضخ	-5974
▁غش	-5975
▁لر	-5976
سمان	-5977
نشان	-5978
ومعه	-5979
▁بتر	-5980
▁برش	-5981
▁ندو	-5982
▁هلن	-5983
▁گرک	-5984
▁آتشی	-5985
▁زرین	-5986
▁سفره	-5987
▁شعور	-5988
▁میرا	-5989
▁گندم	-5990
▁تنظیم	-5991
▁دوستم	-5992
▁گتسبی	-5993
▁متاسفم	-5994
▁معاشرت	-5995
▁گذاشتن	-5996
▁دالوخوف	-5997
گا	-5998
داع	-5999
ملی	-6000
▁جنج	-6001
▁حیف	-6002
▁رگه	-6003
▁سفت	-6004
▁فرش	-6005
▁مرط	-6006
▁آداب	-6007
▁بشوی	-6008
▁جانی	-6009
▁حیله	-6010
▁خاصه	-6011
▁خلیج	-6012
▁خیاب	-6013
▁رامی	-6014
▁لذتی	-6015
▁مثبت	-6016
▁مذهب	-6017
▁مشکو	-6018
▁بفهمم	-6019
▁صومعه	-6020
▁قراری	-6021
▁ویران	-6022
▁پیکار	-6023
▁احتیاجی	-6024
▁روگوژین	-6025
▁ماهیگیری	-6026
رة	-6027
باد	-6028
فرش	-6029
گرم	-6030
▁ذخ	-6031
ردگی	-6032
فاکس	-6033
موعه	-6034
▁ازم	-6035
▁بات	-6036
▁شطر	-6037
▁شون	-6038
▁بهای	-6039
▁تنفس	-6040
▁ستار	-6041
▁شویی	-6042
▁قالب	-6043
▁مرور	-6044
▁پوشی	-6045
▁تجدید	-6046
▁جهانی	-6047
▁خورند	-6048
▁رهبری	-6049
▁ظرافت	-6050
▁قیمتی	-6051
▁مانست	-6052
▁مغرور	-6053
▁کنایه	-6054
▁فرمانرو	-6055
▁گریفندور	-6056
▁آلکساندرا	-6057
عید	-6058
فاظ	-6059
لیغ	-6060
وقی	-6061
▁چو	-6062
▁جار	-6063
▁جرم	-6064
▁چرت	-6065
▁بینه	-6066
▁عازم	-6067
▁عمرم	-6068
▁مستی	-6069
▁ناخن	-6070
▁نوست	-6071
▁والا	-6072
▁تعلیم	-6073
▁دارسی	-6074
▁درگیر	-6075
▁دسترس	-6076
▁روانه	-6077
▁منعکس	-6078
▁یگانه	-6079
▁آسودگی	-6080
▁انتقال	-6081
▁حیوانی	-6082
▁سرسرای	-6083
▁پرستار	-6084
▁فیرفاکس	-6085
فار	-6086
وات	-6087
ربچه	-6088
▁ولد	-6089
▁وگو	-6090
▁پوت	-6091
▁چاد	-6092
نواخت	-6093
▁اعظم	-6094
▁ربطی	-6095
▁زناش	-6096
▁لیلی	-6097
▁مردد	-6098
▁آکنده	-6099
▁اشراف	-6100
▁تفصیل	-6101
▁تمرکز	-6102
▁تکانی	-6103
▁خیالش	-6104
▁صداقت	-6105
▁پاداش	-6106
▁گوریو	-6107
▁انتقاد	-6108
▁رسانده	-6109
▁هورتنس	-6110
▁غیرعادی	-6111
یدا	-6112
▁دب	-6113
▁وت	-6114
▁الم	-6115
▁اوت	-6116
▁طری	-6117
▁فوش	-6118
▁مجذ	-6119
▁مجه	-6120
▁محاص	-6121
▁پایت	-6122
▁کمین	-6123
▁اساسی	-6124
▁اشغال	-6125
▁تأخیر	-6126
▁درختی	-6127
▁ناقوس	-6128
▁آسمانی	-6129
▁ایتالی	-6130
▁بانوان	-6131
▁برگشتم	-6132
▁راهنما	-6133
▁مجدداً	-6134
▁کادروس	-6135
▁مستقیما	-6136
▁کوچولوی	-6137
▁غن	-6138
▁گد	-6139
رائی	-6140
پایی	-6141
▁بیف	-6142
▁جزء	-6143
▁فره	-6144
▁هذا	-6145
▁وات	-6146
▁فیلد	-6147
▁میزی	-6148
▁نویل	-6149
ریکایی	-6150
▁تابید	-6151
▁ضربات	-6152
▁قهقهه	-6153
▁نرسید	-6154
▁بخورند	-6155
▁دفترچه	-6156
▁سواران	-6157
▁فانتین	-6158
▁مجموعه	-6159
▁نوشیدن	-6160
▁انتظارش	-6161
▁نیویورک	-6162
▁یکنواخت	-6163
رکه	-6164
▁خس	-6165
ختیم	-6166
▁ادع	-6167
▁تواف	-6168
▁سبزی	-6169
▁نامی	-6170
▁تجاوز	-6171
▁ترکیب	-6172
▁تشریح	-6173
▁شخصاً	-6174
▁عدالت	-6175
▁قلمرو	-6176
▁مخاطب	-6177
▁مدیدی	-6178
▁هاشان	-6179
▁پیاپی	-6180
▁دیوانگی	-6181
یند	-6182
لینگ	-6183
ممکن	-6184
▁ژرف	-6185
اترین	-6186
▁بشری	-6187
▁حفره	-6188
▁فیرب	-6189
▁ازاین	-6190
▁بازرگ	-6191
▁بپرسد	-6192
▁بیایی	-6193
▁سلطنت	-6194
▁لوازم	-6195
▁منفجر	-6196
▁میزند	-6197
▁نشاند	-6198
▁کناری	-6199
▁انگیخت	-6200
▁بدانند	-6201
▁لیکرگس	-6202
▁مردمان	-6203
▁پوشیدن	-6204
▁گونگال	-6205
یک	-6206
هام	-6207
▁..	-6208
▁ظه	-6209
ادها	-6210
مندی	-6211
▁ابه	-6212
▁بوس	-6213
▁سطل	-6214
▁آشتی	-6215
▁بستن	-6216
▁درها	-6217
▁شخصا	-6218
▁مبال	-6219
▁نرفت	-6220
▁برآمد	-6221
▁دویدن	-6222
▁شماری	-6223
▁مزارع	-6224
▁محاصره	-6225
▁محافظت	-6226
▁واسیلی	-6227
▁نگهبانی	-6228
▁پهلوانان	-6229
أم	-6230
شق	-6231
اهد	-6232
پیچ	-6233
ذیرد	-6234
رومو	-6235
ولان	-6236
وویچ	-6237
چرخه	-6238
▁انش	-6239
▁متص	-6240
▁معل	-6241
▁وزن	-6242
▁بخشد	-6243
▁بخند	-6244
▁حروف	-6245
▁لبان	-6246
▁گلوی	-6247
▁ارزشی	-6248
▁املاک	-6249
▁ایالت	-6250
▁شترها	-6251
▁غذایی	-6252
▁قدرها	-6253
▁نگفتم	-6254
▁پوستی	-6255
▁آنچنان	-6256
▁دشمنان	-6257
▁دلخواه	-6258
▁عنکبوت	-6259
▁نامیده	-6260
▁نیافته	-6261
▁عاقلانه	-6262
▁نوسترومو	-6263
▁خواستگاری	-6264
احی	-6265
میا	-6266
فارژ	-6267
وندو	-6268
▁بتن	-6269
▁بدگ	-6270
▁جلد	-6271
▁هاک	-6272
▁هیس	-6273
▁استن	-6274
▁خزید	-6275
▁سوفی	-6276
▁سیصد	-6277
▁طبیب	-6278
▁محرم	-6279
▁منفی	-6280
▁پاها	-6281
▁چرمی	-6282
▁اقرار	-6283
▁پسرها	-6284
▁برگزار	-6285
▁رسانید	-6286
▁سربازی	-6287
▁بازداشت	-6288
▁برانداز	-6289
▁تشریفات	-6290
▁کاردینال	-6291
سیر	-6292
نیف	-6293
کتی	-6294
تناب	-6295
رانش	-6296
هاتی	-6297
▁ارغ	-6298
▁اعد	-6299
▁جلی	-6300
▁خمی	-6301
▁نخو	-6302
▁آمری	-6303
▁آنهم	-6304
▁ببوس	-6305
▁تسلط	-6306
▁توجی	-6307
▁سویش	-6308
▁غوطه	-6309
▁بشمار	-6310
▁جاسوس	-6311
▁خودمو	-6312
▁سرچشم	-6313
▁شایست	-6314
▁محتوی	-6315
▁مخارج	-6316
▁مرطوب	-6317
▁آمادگی	-6318
▁آماران	-6319
▁بازدید	-6320
▁برادرم	-6321
▁دوفارژ	-6322
▁ساختگی	-6323
▁سگوندو	-6324
▁پترویچ	-6325
▁اسبی	-6326
▁زیرک	-6327
▁علمی	-6328
▁قاطع	-6329
▁قایم	-6330
▁مختل	-6331
▁نسخه	-6332
▁اصطبل	-6333
▁مجذوب	-6334
▁هفتاد	-6335
▁پزشکی	-6336
▁امپرات	-6337
▁بخشیده	-6338
▁مقامات	-6339
▁اشتباهی	-6340
▁برگشتند	-6341
▁زندگانی	-6342
▁گذرانده	-6343
آمد	-6344
▁سِ	-6345
شمند	-6346
▁آفر	-6347
▁ارد	-6348
▁بعض	-6349
▁ناف	-6350
▁ننگ	-6351
▁هشی	-6352
▁بدیه	-6353
▁زاری	-6354
▁زورق	-6355
▁لهجه	-6356
▁اخراج	-6357
▁باتلر	-6358
▁داخلی	-6359
▁پاشنه	-6360
▁بخوانم	-6361
▁خواستی	-6362
▁سرچشمه	-6363
▁میگویم	-6364
▁نتواند	-6365
▁پسربچه	-6366
▁آنتوانت	-6367
▁غیرممکن	-6368
▁تلویزیون	-6369
سرا	-6370
شار	-6371
▁آرم	-6372
▁دله	-6373
▁سیخ	-6374
▁ادعا	-6375
▁بلور	-6376
▁تازی	-6377
▁حقیر	-6378
▁رویی	-6379
▁قریب	-6380
▁نقاش	-6381
▁گارت	-6382
▁آموزش	-6383
▁توافق	-6384
▁سراپا	-6385
▁هموار	-6386
▁افتادن	-6387
▁بیمناک	-6388
▁ساکنان	-6389
▁مختصری	-6390
▁نیرویی	-6391
▁چهارده	-6392
▁اردوگاه	-6393
کاس	-6394
▁حص	-6395
▁طف	-6396
صیری	-6397
لوان	-6398
وبین	-6399
▁سگی	-6400
▁پدی	-6401
▁چوپ	-6402
▁توأم	-6403
▁غیرم	-6404
▁قبال	-6405
▁همچو	-6406
▁بزرگش	-6407
▁بینند	-6408
▁جوابش	-6409
▁سیمای	-6410
▁مایلی	-6411
▁نبرده	-6412
▁اجتناب	-6413
▁بگوییم	-6414
▁داشتید	-6415
▁سنگفرش	-6416
▁پیدایش	-6417
▁پنداشتی	-6418
جت	-6419
حس	-6420
متی	-6421
ایقی	-6422
گونی	-6423
▁بمو	-6424
▁دکل	-6425
▁بازو	-6426
▁بران	-6427
▁تقلا	-6428
▁حریف	-6429
▁رسند	-6430
▁قلاب	-6431
▁مخوف	-6432
▁پیتی	-6433
▁بپوشد	-6434
▁درونش	-6435
▁دهانه	-6436
▁شیطنت	-6437
▁ملوان	-6438
▁گمانم	-6439
▁آشفتگی	-6440
▁آمریکا	-6441
▁اختراع	-6442
▁بیندیش	-6443
▁دوچرخه	-6444
▁دیوونه	-6445
▁آکسینیا	-6446
▁فیربرادر	-6447
سیا	-6448
نوع	-6449
ویس	-6450
▁نغ	-6451
ارات	-6452
بایی	-6453
زاری	-6454
▁لاد	-6455
▁مدل	-6456
▁پوس	-6457
▁ازدح	-6458
▁سفری	-6459
▁طرزی	-6460
▁عمده	-6461
▁عواط	-6462
▁معال	-6463
▁کانر	-6464
▁برتری	-6465
▁برطرف	-6466
▁بطوری	-6467
▁دوستت	-6468
▁ذخیره	-6469
▁شمرده	-6470
▁شهادت	-6471
▁ترسناک	-6472
▁مستخدم	-6473
▁گیسوان	-6474
باک	-6475
▁آسا	-6476
▁انح	-6477
▁کسل	-6478
▁آجود	-6479
▁شفاف	-6480
▁مبدل	-6481
▁معشو	-6482
▁مهره	-6483
▁مکرر	-6484
▁اعدام	-6485
▁زبانی	-6486
▁میگوی	-6487
▁وظایف	-6488
▁کفایت	-6489
▁نکردند	-6490
▁ارتباطی	-6491
▁بتوانیم	-6492
▁میدانید	-6493
▁سالخورده	-6494
اقب	-6495
غلی	-6496
ویز	-6497
▁حر	-6498
▁آنژ	-6499
▁عام	-6500
▁فین	-6501
▁آهای	-6502
▁ریزد	-6503
▁نکنی	-6504
▁پدری	-6505
▁یارو	-6506
رانداز	-6507
▁ادراک	-6508
▁استان	-6509
▁ببندد	-6510
▁جدایی	-6511
▁دلشان	-6512
▁نیازم	-6513
▁نیاید	-6514
▁دریابد	-6515
▁میدانی	-6516
▁نگذشته	-6517
▁بگذاریم	-6518
▁شناختند	-6519
▁کوهستان	-6520
▁‬‬‬‬‬‬‬‬	-6521
▁ایتالیایی	-6522
قیم	-6523
وئی	-6524
▁لج	-6525
المه	-6526
▁عسل	-6527
▁وبا	-6528
▁کرک	-6529
▁گلن	-6530
▁بذار	-6531
▁تصرف	-6532
▁صرفه	-6533
▁میشد	-6534
▁نانت	-6535
▁پنجم	-6536
▁آتشین	-6537
▁آهنین	-6538
▁سرعتی	-6539
▁شطرنج	-6540
▁شکستن	-6541
▁واکنش	-6542
▁دانسته	-6543
▁ممنونم	-6544
▁کارمند	-6545
▁آرکادیو	-6546
▁مأموریت	-6547
▁نداشتیم	-6548
▁برادرزاده	-6549
جیل	-6550
حات	-6551
قول	-6552
ورث	-6553
انچه	-6554
▁الت	-6555
▁اِم	-6556
▁تشک	-6557
▁توت	-6558
▁ثبت	-6559
▁منج	-6560
▁موه	-6561
▁خندد	-6562
▁ستاد	-6563
▁لطفا	-6564
▁مجرد	-6565
▁بدیهی	-6566
▁دانیم	-6567
▁رانده	-6568
▁هرروز	-6569
▁کلاری	-6570
▁یافتم	-6571
▁ریختند	-6572
▁معاینه	-6573
▁فوشلوان	-6574
وخ	-6575
جین	-6576
طبی	-6577
وقع	-6578
▁هف	-6579
ساری	-6580
شاری	-6581
نوعی	-6582
ونین	-6583
گانش	-6584
▁سما	-6585
▁عبد	-6586
▁قوه	-6587
▁لام	-6588
▁هذی	-6589
▁ورد	-6590
▁بخرد	-6591
▁تحصی	-6592
▁عیبی	-6593
▁معطل	-6594
▁نیند	-6595
▁هماه	-6596
▁بینیم	-6597
▁تایید	-6598
▁تجارت	-6599
▁خاطرم	-6600
▁فاجین	-6601
▁مسلسل	-6602
▁کیلوم	-6603
▁ایزابل	-6604
▁بیابان	-6605
▁تصمیمی	-6606
▁جسمانی	-6607
▁صمیمیت	-6608
▁هرکدام	-6609
▁گریخته	-6610
▁ناشناخته	-6611
اهم	-6612
▁اظ	-6613
▁نط	-6614
▁اخط	-6615
▁لاش	-6616
▁گلو	-6617
▁دربی	-6618
▁زدیم	-6619
▁سیلی	-6620
▁شنوم	-6621
▁صرفا	-6622
▁فارغ	-6623
▁معلق	-6624
▁مورت	-6625
▁اسمیت	-6626
▁تعطیل	-6627
▁شماها	-6628
▁مبهمی	-6629
▁دیدگان	-6630
▁گیلبرت	-6631
▁بیاورید	-6632
▁بیماران	-6633
▁خصوصیات	-6634
▁ستارگان	-6635
▁پرستاری	-6636
زای	-6637
▁عری	-6638
▁عمد	-6639
▁فول	-6640
▁آبرو	-6641
▁جنبش	-6642
▁شنود	-6643
▁غلبه	-6644
▁هوشی	-6645
▁هیزم	-6646
▁پهنا	-6647
▁رومان	-6648
▁زوبین	-6649
▁محتاج	-6650
▁مستقر	-6651
▁مغلوب	-6652
▁مقدمه	-6653
▁نفرین	-6654
▁تاریخی	-6655
▁تپانچه	-6656
▁خواهرم	-6657
▁رنجیده	-6658
▁ریشخند	-6659
▁وفادار	-6660
▁ارغوانی	-6661
▁مردستون	-6662
▁مسافران	-6663
اسر	-6664
یمه	-6665
▁ابی	-6666
▁تله	-6667
▁لار	-6668
▁نتر	-6669
▁نرد	-6670
▁جمعه	-6671
▁دریغ	-6672
▁شاهی	-6673
▁شایع	-6674
▁شورش	-6675
▁غارت	-6676
▁لانه	-6677
▁فرمود	-6678
▁بایستد	-6679
▁ترسیده	-6680
▁خاکستر	-6681
▁داستانی	-6682
▁شایستگی	-6683
▁غذاخوری	-6684
سار	-6685
▁گچ	-6686
شاند	-6687
▁ارس	-6688
▁حرم	-6689
▁ختم	-6690
▁دهن	-6691
▁سوپ	-6692
▁مرو	-6693
▁اورب	-6694
▁غرید	-6695
▁فکرم	-6696
▁میشم	-6697
▁ارائه	-6698
▁تسخیر	-6699
▁مزبور	-6700
▁هوایی	-6701
▁پیغام	-6702
▁معالجه	-6703
▁برانگیز	-6704
حد	-6705
لود	-6706
▁تغ	-6707
▁مظ	-6708
انیش	-6709
▁جاذ	-6710
▁جفس	-6711
▁سِث	-6712
▁لید	-6713
▁هیپ	-6714
▁پاپ	-6715
▁جسمی	-6716
▁داوط	-6717
▁رنجش	-6718
▁متحد	-6719
▁منطق	-6720
▁موضع	-6721
▁پارو	-6722
▁ژنده	-6723
▁کرنل	-6724
▁کندی	-6725
▁کولی	-6726
▁اهانت	-6727
▁حدودی	-6728
▁قدرتی	-6729
▁قطرات	-6730
▁مانعی	-6731
▁متانت	-6732
▁محکمی	-6733
▁مداوم	-6734
▁مساعد	-6735
▁معرکه	-6736
▁موعظه	-6737
▁هشتاد	-6738
▁همسای	-6739
▁پروکو	-6740
▁ازدحام	-6741
▁اونوقت	-6742
▁ترتیبی	-6743
▁مواقعی	-6744
▁پاکیزه	-6745
▁چسباند	-6746
▁چیزهائی	-6747
▁اطلاعاتی	-6748
▁برانگیخته	-6749
برد	-6750
طئه	-6751
▁دژ	-6752
ایای	-6753
▁بجا	-6754
▁ریه	-6755
▁قوا	-6756
▁مرض	-6757
▁مکن	-6758
▁وصل	-6759
▁اسمی	-6760
▁اظها	-6761
▁بازپ	-6762
▁تنگی	-6763
▁جفسن	-6764
▁سهام	-6765
▁ضخیم	-6766
▁فراغ	-6767
▁فعال	-6768
▁پایی	-6769
▁کبود	-6770
▁کمکش	-6771
▁استیر	-6772
▁تأکید	-6773
▁تبلیغ	-6774
▁خودشو	-6775
▁درگاه	-6776
▁فروخت	-6777
▁متوسط	-6778
▁مسلما	-6779
▁اربابش	-6780
▁بپذیرد	-6781
▁زانوان	-6782
▁چوبدست	-6783
▁ابریشمی	-6784
▁خودخواه	-6785
لیت	-6786
▁ائ	-6787
▁بمب	-6788
▁جزی	-6789
▁دمی	-6790
▁هدر	-6791
▁اذیت	-6792
▁برین	-6793
▁تورو	-6794
▁جوجه	-6795
▁رکاب	-6796
▁لزوم	-6797
▁کرام	-6798
▁استار	-6799
▁حساسی	-6800
▁دهاتی	-6801
▁نظریه	-6802
▁کراوچ	-6803
▁دستانش	-6804
▁میزبان	-6805
▁ناامیدی	-6806
▁پروکوفی	-6807
بو	-6808
ِت	-6809
اپه	-6810
وزف	-6811
ویا	-6812
▁وص	-6813
آگاه	-6814
کشید	-6815
▁امد	-6816
▁حزن	-6817
▁رعد	-6818
▁روا	-6819
▁مگس	-6820
▁کاپ	-6821
▁دلوا	-6822
▁شایر	-6823
▁مشام	-6824
▁کسان	-6825
▁بشناس	-6826
▁تعمیر	-6827
▁دلهره	-6828
▁فهرست	-6829
▁لادیز	-6830
▁نمیخو	-6831
▁هرکسی	-6832
▁اثاثیه	-6833
▁ادبیات	-6834
▁برسانم	-6835
▁تصورات	-6836
▁معشوقه	-6837
▁کویکوئ	-6838
▁پریشانی	-6839
▁نگهبانان	-6840
،‬	-6841
دامی	-6842
فورث	-6843
واری	-6844
▁دشن	-6845
رهایش	-6846
▁جانم	-6847
▁سبزه	-6848
▁قهرم	-6849
▁امسال	-6850
▁خانمی	-6851
▁دخترم	-6852
▁ضیافت	-6853
▁پوستش	-6854
▁ابریشم	-6855
▁اوربینو	-6856
▁استیرفورث	-6857
▁کاروانسرا	-6858
درس	-6859
سات	-6860
فیه	-6861
وئل	-6862
▁وک	-6863
راست	-6864
▁اخی	-6865
▁ارش	-6866
▁ذات	-6867
▁منا	-6868
خوانی	-6869
▁مقصر	-6870
▁نمید	-6871
▁نگری	-6872
▁توجیه	-6873
▁دزدان	-6874
▁محصول	-6875
▁مدافع	-6876
▁مشکوک	-6877
▁منحرف	-6878
▁منصرف	-6879
▁ندیدم	-6880
▁نشنید	-6881
▁سازمان	-6882
▁سرپرست	-6883
▁شهرهای	-6884
▁لحظاتی	-6885
▁نماییم	-6886
▁جداگانه	-6887
▁نگذاشته	-6888
▁چوبدستیش	-6889
رنگ	-6890
ضاء	-6891
فون	-6892
جویی	-6893
▁زدی	-6894
▁شین	-6895
▁توقع	-6896
▁عاجز	-6897
▁متعد	-6898
▁مهتر	-6899
▁تبریک	-6900
▁سابقه	-6901
▁مادری	-6902
▁تنهائی	-6903
▁داوطلب	-6904
▁سراسیم	-6905
▁مانندی	-6906
▁منظورش	-6907
▁گستاخی	-6908
▁افتادیم	-6909
▁خوابیدن	-6910
▁لادیزلا	-6911
▁نخواهید	-6912
▁کویکوئگ	-6913
▁خودخواهی	-6914
ایج	-6915
باش	-6916
غیان	-6917
▁اتو	-6918
▁ازل	-6919
▁امن	-6920
▁بسپ	-6921
▁عید	-6922
▁گسی	-6923
وینتر	-6924
▁آگهی	-6925
▁ایلی	-6926
▁اینج	-6927
▁برآش	-6928
▁جناح	-6929
▁سوزد	-6930
▁صبری	-6931
▁طفلک	-6932
▁فهمد	-6933
▁مکثی	-6934
▁وداع	-6935
▁پتیا	-6936
▁کلان	-6937
▁گشتم	-6938
▁آهنگی	-6939
▁باشین	-6940
▁برسند	-6941
▁توطئه	-6942
▁سنجاق	-6943
▁معجون	-6944
▁منصفه	-6945
▁چسبان	-6946
▁ارکستر	-6947
▁تصویری	-6948
▁مخصوصی	-6949
▁نازنین	-6950
▁ابلهانه	-6951
▁درمانده	-6952
▁فراموشی	-6953
▁فرورفته	-6954
▁پهلوانی	-6955
▁گناهکار	-6956
ادف	-6957
گوش	-6958
گیرد	-6959
▁آتی	-6960
▁سزا	-6961
▁شنی	-6962
▁لوح	-6963
▁مأی	-6964
▁نوه	-6965
▁اتوب	-6966
▁برسم	-6967
▁ترقی	-6968
▁تونل	-6969
▁طلاق	-6970
▁نکنه	-6971
▁اضافی	-6972
▁اوایل	-6973
▁ببرید	-6974
▁تونست	-6975
▁مخلوط	-6976
▁وحشتی	-6977
▁گشاده	-6978
▁خشمناک	-6979
▁خودکشی	-6980
▁روبروی	-6981
▁ناگوار	-6982
▁نورمان	-6983
▁پرونده	-6984
▁کاناپه	-6985
▁دووینتر	-6986
ایب	-6987
تند	-6988
انوی	-6989
کهام	-6990
▁رمز	-6991
▁سدر	-6992
▁فضی	-6993
▁چرب	-6994
▁ابدا	-6995
▁استه	-6996
▁خونی	-6997
▁فلزی	-6998
▁قاشق	-6999
▁ناظر	-7000
▁هنرپ	-7001
▁ارواح	-7002
▁اشعار	-7003
▁بدارد	-7004
▁بلناپ	-7005
▁جلیقه	-7006
▁سکونت	-7007
▁مناظر	-7008
▁منافع	-7009
▁چطوری	-7010
▁کشمکش	-7011
▁کوفته	-7012
▁بخوریم	-7013
▁برآمده	-7014
▁خواندم	-7015
▁سرتاسر	-7016
▁وفاداری	-7017
تشر	-7018
▁هه	-7019
رابی	-7020
یرتن	-7021
▁سرگ	-7022
▁نسی	-7023
ورانه	-7024
▁تلوت	-7025
▁جرقه	-7026
▁خشمی	-7027
▁طلبی	-7028
▁موقت	-7029
▁میری	-7030
▁نقاب	-7031
▁پخته	-7032
▁کورم	-7033
▁بفرما	-7034
▁تقویت	-7035
▁دادید	-7036
▁مأیوس	-7037
▁مشابه	-7038
▁نگاهم	-7039
▁برگشتن	-7040
▁تابلوی	-7041
▁زناشویی	-7042
▁پناهگاه	-7043
ریگ	-7044
ونن	-7045
فیری	-7046
مرده	-7047
نجار	-7048
پاول	-7049
▁ظلم	-7050
▁نشو	-7051
ندهای	-7052
▁تونه	-7053
▁خلنگ	-7054
▁دهلی	-7055
▁دوزی	-7056
▁شسته	-7057
▁شغلی	-7058
▁قاطر	-7059
▁قیام	-7060
▁مانی	-7061
▁محاس	-7062
▁مریم	-7063
▁ورقه	-7064
▁وینت	-7065
▁کمرب	-7066
▁اخیرا	-7067
▁باروت	-7068
▁تاکسی	-7069
▁توفان	-7070
▁جاذبه	-7071
▁حقایق	-7072
▁دشنام	-7073
▁رهایی	-7074
▁سردرگ	-7075
▁عشایر	-7076
▁ماندم	-7077
▁مرخصی	-7078
▁هیرتن	-7079
▁انبوهی	-7080
▁بیاوری	-7081
▁تفاوتی	-7082
▁سخنانش	-7083
▁مصنوعی	-7084
▁نواختن	-7085
▁احترامی	-7086
▁شاگردان	-7087
▁نیاورده	-7088
▁نیفتاده	-7089
▁پشیمانی	-7090
بع	-7091
رند	-7092
زدی	-7093
مره	-7094
پشت	-7095
ینت	-7096
رادی	-7097
▁بها	-7098
▁جذب	-7099
▁ششم	-7100
▁ضرر	-7101
▁لقب	-7102
▁اشته	-7103
▁بدنم	-7104
▁برنگ	-7105
▁دستت	-7106
▁دوئل	-7107
▁رسوا	-7108
▁ضربت	-7109
▁علائ	-7110
▁متصل	-7111
▁معتق	-7112
▁نزله	-7113
▁نعمت	-7114
▁پایم	-7115
▁بهشون	-7116
▁تحمیل	-7117
▁جنجال	-7118
▁سیلور	-7119
▁ضعیفی	-7120
▁فواره	-7121
▁کیمیا	-7122
▁بازرسی	-7123
▁تلوتلو	-7124
▁سایرین	-7125
▁شرایطی	-7126
▁ژاکلین	-7127
▁جوانمرد	-7128
اضع	-7129
زام	-7130
▁هس	-7131
ائیل	-7132
الان	-7133
▁زره	-7134
▁فاق	-7135
▁نین	-7136
▁پاف	-7137
▁پود	-7138
▁چپش	-7139
▁کنف	-7140
▁یال	-7141
▁اسبش	-7142
▁اینم	-7143
▁بنام	-7144
▁تذکر	-7145
▁شهوت	-7146
▁غلیظ	-7147
▁مقاب	-7148
▁موذی	-7149
▁نیکی	-7150
▁ویکت	-7151
▁پشته	-7152
▁گوسف	-7153
▁آشغال	-7154
▁ابرها	-7155
▁بکشید	-7156
▁تعادل	-7157
▁دادلی	-7158
▁زنبور	-7159
▁محبتی	-7160
▁وارسی	-7161
▁پرورد	-7162
▁کثافت	-7163
▁مناسبت	-7164
▁پنداری	-7165
▁امیدواری	-7166
اژ	-7167
سله	-7168
▁باس	-7169
▁واه	-7170
▁آخرش	-7171
▁شاعر	-7172
▁فراک	-7173
▁مارش	-7174
▁متری	-7175
▁مدعی	-7176
▁گردی	-7177
▁آنژول	-7178
▁اسلای	-7179
▁بمیرم	-7180
▁خدمات	-7181
▁عواطف	-7182
▁لبریز	-7183
▁لیدیا	-7184
▁متفکر	-7185
▁مرموز	-7186
▁منتشر	-7187
▁پرستی	-7188
▁کارتن	-7189
▁آهستگی	-7190
▁ریسمان	-7191
▁شایعات	-7192
▁پروانه	-7193
▁پیراهنش	-7194
▁آمریکایی	-7195
▁مشتاقانه	-7196
▁مسافرخانه	-7197
تنی	-7198
ودن	-7199
وزد	-7200
▁خطی	-7201
▁غوغ	-7202
▁کاج	-7203
▁بورژ	-7204
▁حسرت	-7205
▁سوید	-7206
▁مبنی	-7207
▁مشرق	-7208
▁افریق	-7209
▁بتونم	-7210
▁تکمیل	-7211
▁دستان	-7212
▁ریختن	-7213
▁سلسله	-7214
▁لغزید	-7215
▁ناگاه	-7216
▁هشیار	-7217
▁آجودان	-7218
▁اختصاص	-7219
▁اشتغال	-7220
▁اندازم	-7221
▁همکاری	-7222
▁گرفتیم	-7223
▁‬‬‬‬‬‬	-7224
▁شادمانه	-7225
▁پافشاری	-7226
▁آنژولراس	-7227
▁اندوهگین	-7228
یل	-7229
میه	-7230
وهر	-7231
ایلف	-7232
ریفی	-7233
شتاب	-7234
▁آلن	-7235
▁بغض	-7236
▁زای	-7237
▁ساک	-7238
▁ننه	-7239
واران	-7240
وانده	-7241
▁بلای	-7242
▁حفاظ	-7243
▁خانة	-7244
▁خودی	-7245
▁دابی	-7246
▁عامل	-7247
▁فساد	-7248
▁فعلی	-7249
▁مرخص	-7250
▁هلاک	-7251
▁برجای	-7252
▁بپذیر	-7253
▁تصورش	-7254
▁سراشی	-7255
▁سرگرد	-7256
▁ناسزا	-7257
▁تأثیری	-7258
▁مقابله	-7259
▁جواهرات	-7260
▁مشتریان	-7261
▁میهمانان	-7262
عر	-7263
بلی	-7264
شوق	-7265
صلی	-7266
ولت	-7267
اریا	-7268
کنار	-7269
▁آرد	-7270
▁تول	-7271
▁جاش	-7272
▁رسی	-7273
▁پات	-7274
اندار	-7275
▁بدنی	-7276
▁تیغه	-7277
▁سوءظ	-7278
▁طولی	-7279
▁لشکر	-7280
▁ماکو	-7281
▁متلا	-7282
▁نغمه	-7283
▁همون	-7284
▁پوشش	-7285
▁بریزد	-7286
▁بسازد	-7287
▁دائما	-7288
▁متروک	-7289
▁هذیان	-7290
▁هولمز	-7291
▁پلاگه	-7292
▁پیروی	-7293
▁کاملی	-7294
▁کسالت	-7295
ریگایلف	-7296
▁بخوابم	-7297
▁خرسندی	-7298
▁دستشان	-7299
▁نیستیم	-7300
▁همراهش	-7301
▁هنرمند	-7302
▁کاتولی	-7303
▁اظهارات	-7304
انا	-7305
▁وپ	-7306
▁رقم	-7307
▁ساب	-7308
▁لاف	-7309
ایندی	-7310
▁تأثر	-7311
▁دینی	-7312
▁متین	-7313
▁مشرف	-7314
▁پاید	-7315
▁چشمک	-7316
▁اسامی	-7317
▁اکتفا	-7318
▁تفسیر	-7319
▁جادوی	-7320
▁عروسک	-7321
▁فاجعه	-7322
▁فرهنگ	-7323
▁مرکزی	-7324
▁معینی	-7325
▁منقلب	-7326
▁همگان	-7327
▁گرانت	-7328
▁اعتبار	-7329
▁خواهرز	-7330
▁درمورد	-7331
▁درمیان	-7332
▁غالباً	-7333
▁هایتان	-7334
▁پاسبان	-7335
▁گذارده	-7336
▁برآورده	-7337
▁روشنائی	-7338
▁قرارداد	-7339
▁پیشانیش	-7340
▁تابستانی	-7341
منت	-7342
وقه	-7343
لفور	-7344
▁شعف	-7345
▁لیا	-7346
فهومی	-7347
▁براز	-7348
▁توری	-7349
▁جلال	-7350
▁حرفم	-7351
▁حومه	-7352
▁آموخت	-7353
▁انصاف	-7354
▁خدمتی	-7355
▁سیاهش	-7356
▁طبقات	-7357
▁فراری	-7358
▁قطعاً	-7359
▁معشوق	-7360
▁کردنش	-7361
▁بفرستد	-7362
▁نگذاشت	-7363
▁پایتخت	-7364
▁برادران	-7365
▁دانشجوی	-7366
▁سراسیمه	-7367
▁سویدریگایلف	-7368
الو	-7369
زین	-7370
وتر	-7371
▁فط	-7372
لندی	-7373
ورها	-7374
▁سار	-7375
▁لیز	-7376
▁آنات	-7377
▁بگری	-7378
▁دومی	-7379
▁فاقد	-7380
▁مانم	-7381
▁نارو	-7382
▁هفده	-7383
▁پنیر	-7384
▁پیشه	-7385
▁چاقو	-7386
▁اتهام	-7387
▁رقصید	-7388
▁رهائی	-7389
▁پالتو	-7390
▁کنونی	-7391
اندرونا	-7392
▁برافرا	-7393
▁برخیزد	-7394
▁دلخوری	-7395
▁شارلوت	-7396
▁نمودار	-7397
▁همزمان	-7398
▁انقلابی	-7399
▁راهنمای	-7400
▁فرودگاه	-7401
▁محرمانه	-7402
▁خاطرنشان	-7403
زنی	-7404
موم	-7405
اورد	-7406
▁الج	-7407
▁تره	-7408
▁تزی	-7409
▁هرد	-7410
▁پرا	-7411
▁پنی	-7412
▁ژیو	-7413
▁کیه	-7414
▁یاه	-7415
▁بشکه	-7416
▁عاید	-7417
▁فروغ	-7418
▁مباد	-7419
▁مباش	-7420
▁مدال	-7421
▁چشمی	-7422
▁امضاء	-7423
▁جواهر	-7424
▁خیاطی	-7425
▁درآید	-7426
▁دشمنی	-7427
▁زبانه	-7428
▁مفرما	-7429
▁نامطب	-7430
▁نکنند	-7431
▁کنسرت	-7432
▁ابرهای	-7433
▁خندیدن	-7434
▁راشورث	-7435
▁سزاوار	-7436
▁سینیور	-7437
▁نفهمید	-7438
▁تغییرات	-7439
▁توانستی	-7440
▁پارفیری	-7441
▁کشاورزی	-7442
▁سعادتمند	-7443
اخ	-7444
▁ئی	-7445
▁صی	-7446
ایات	-7447
زلزل	-7448
▁بگش	-7449
▁بیخ	-7450
▁رذل	-7451
▁سند	-7452
▁ناج	-7453
▁گلد	-7454
شنامه	-7455
▁برتر	-7456
▁بیای	-7457
▁سوزن	-7458
▁طرفش	-7459
▁مخمل	-7460
▁مناط	-7461
▁جملات	-7462
▁دیدید	-7463
▁موسوم	-7464
▁چوپان	-7465
▁گرامی	-7466
▁دندانه	-7467
▁مقابلش	-7468
▁هراسان	-7469
▁پیشکار	-7470
▁روستائی	-7471
یس	-7472
آنه	-7473
ادم	-7474
اوت	-7475
ذیه	-7476
روش	-7477
وبت	-7478
یدر	-7479
▁حذ	-7480
انند	-7481
▁قوز	-7482
▁یلی	-7483
▁آدرس	-7484
▁تأمل	-7485
▁فاسد	-7486
▁آلودی	-7487
▁اکراه	-7488
▁بهتون	-7489
▁جایزه	-7490
▁دزدید	-7491
▁زانوی	-7492
▁سابقا	-7493
▁سیزده	-7494
▁فراتر	-7495
▁مطلوب	-7496
▁نتایج	-7497
▁هویدا	-7498
▁هیاهو	-7499
▁گذشتن	-7500
▁برابرش	-7501
▁بگوئید	-7502
▁دانورس	-7503
▁اقدامات	-7504
▁پرسیدند	-7505
▁فراگرفته	-7506
عش	-7507
ربی	-7508
رژی	-7509
عهد	-7510
ونک	-7511
▁حت	-7512
▁فو	-7513
▁بنم	-7514
▁لبش	-7515
▁مسن	-7516
▁نعل	-7517
▁هیل	-7518
▁واژ	-7519
▁ورش	-7520
▁پرح	-7521
▁بجنگ	-7522
▁بدیم	-7523
▁رغبت	-7524
▁نشدم	-7525
▁نکات	-7526
▁چابک	-7527
▁کباب	-7528
▁اخطار	-7529
▁صحبتی	-7530
▁مدیون	-7531
▁معطوف	-7532
▁تنومند	-7533
▁شدیدتر	-7534
▁مطبوعی	-7535
▁نخواست	-7536
▁کورمال	-7537
▁کوییدی	-7538
▁خداوندا	-7539
▁کلاریسا	-7540
▁پشتیبانی	-7541
فن	-7542
شتر	-7543
گذر	-7544
▁گپ	-7545
▁ولت	-7546
▁چرک	-7547
هاشان	-7548
▁تخیل	-7549
▁رفتی	-7550
▁سیما	-7551
▁ابداً	-7552
▁بافته	-7553
▁خانگی	-7554
▁دهلیز	-7555
▁طغیان	-7556
▁ممنوع	-7557
▁پرشور	-7558
▁شهردار	-7559
▁ویلفور	-7560
▁کشانده	-7561
▁دانشکده	-7562
▁زندانیان	-7563
پل	-7564
وره	-7565
▁شق	-7566
ازید	-7567
شنود	-7568
▁تعه	-7569
▁ریم	-7570
▁ممل	-7571
▁هوم	-7572
▁کما	-7573
همانی	-7574
▁بستم	-7575
▁جنسی	-7576
▁خفیف	-7577
▁رضای	-7578
▁زنید	-7579
▁صفوف	-7580
▁موقر	-7581
▁آسیاب	-7582
▁اعیان	-7583
▁بحران	-7584
▁بلندش	-7585
▁توتون	-7586
▁نکنیم	-7587
▁آناتول	-7588
▁اتحادی	-7589
▁خوانند	-7590
▁مطالبی	-7591
▁مقررات	-7592
▁فرمایید	-7593
▁مطمئناً	-7594
▁پانسیون	-7595
▁اسلایترین	-7596
بول	-7597
▁چت	-7598
اعده	-7599
شونو	-7600
فاعی	-7601
▁آرو	-7602
▁الب	-7603
▁باگ	-7604
▁تشی	-7605
▁توش	-7606
▁حام	-7607
▁حری	-7608
▁سبد	-7609
▁غیظ	-7610
▁فال	-7611
▁قور	-7612
▁لاز	-7613
▁نقد	-7614
▁نهم	-7615
▁استپ	-7616
▁جاود	-7617
▁جرات	-7618
▁سلطن	-7619
▁ظالم	-7620
▁مورل	-7621
▁گرات	-7622
▁آورید	-7623
▁اجساد	-7624
▁استعد	-7625
▁بنگرد	-7626
▁تعبیر	-7627
▁ثروتم	-7628
▁خصومت	-7629
▁ضربان	-7630
▁عجالت	-7631
▁مملکت	-7632
▁نوزاد	-7633
▁نیکلا	-7634
▁ولگرد	-7635
▁پیمان	-7636
▁استهزا	-7637
▁اطرافی	-7638
▁مجبورم	-7639
▁نهادند	-7640
▁گریبان	-7641
▁ایستادم	-7642
▁نامفهوم	-7643
▁احساساتش	-7644
▁زیباترین	-7645
اء	-7646
حض	-7647
مپ	-7648
ورو	-7649
الیه	-7650
خورد	-7651
پایه	-7652
▁ایا	-7653
▁تیغ	-7654
▁جمی	-7655
▁حتم	-7656
▁سهل	-7657
▁صاب	-7658
▁پرم	-7659
▁ژول	-7660
▁بازم	-7661
▁بساط	-7662
▁سازم	-7663
▁سخنش	-7664
▁شمعد	-7665
▁ظروف	-7666
▁عامی	-7667
▁کوپر	-7668
▁اِمِت	-7669
▁تحلیل	-7670
▁توجهش	-7671
▁داروس	-7672
▁زاویه	-7673
▁شوهرم	-7674
▁مشاور	-7675
▁اتوبوس	-7676
▁انزجار	-7677
▁انعکاس	-7678
▁دارایی	-7679
▁رحمانه	-7680
▁ملایمی	-7681
▁مواظبت	-7682
▁ناراضی	-7683
▁بطوریکه	-7684
▁خودمانی	-7685
▁دلبستگی	-7686
▁کوییدیچ	-7687
خصص	-7688
سسه	-7689
گیش	-7690
ازیم	-7691
راکی	-7692
▁تیپ	-7693
▁شیب	-7694
▁شیپ	-7695
▁صفا	-7696
▁لول	-7697
▁گیم	-7698
▁اجاق	-7699
▁متفک	-7700
▁مرتف	-7701
▁مهار	-7702
▁مونت	-7703
▁هرچی	-7704
▁کالب	-7705
▁اشباح	-7706
▁امیلی	-7707
▁ترجمه	-7708
▁داوری	-7709
▁دماغه	-7710
▁عاطفه	-7711
▁غلتید	-7712
▁فضیلت	-7713
▁نکردی	-7714
▁امریکا	-7715
▁هیجانی	-7716
▁وابسته	-7717
▁بازگردد	-7718
صور	-7719
کنی	-7720
کیت	-7721
روند	-7722
▁احم	-7723
▁اکث	-7724
▁دفع	-7725
▁فلگ	-7726
▁ماب	-7727
▁محج	-7728
▁منش	-7729
▁واج	-7730
▁چپق	-7731
▁کرو	-7732
▁گما	-7733
▁جزیی	-7734
▁خروس	-7735
▁خوای	-7736
▁دبیر	-7737
▁درنی	-7738
▁رفقا	-7739
▁روده	-7740
▁سوزی	-7741
▁توفیق	-7742
▁خوابم	-7743
▁زحمتی	-7744
▁سراغش	-7745
▁سفیدش	-7746
▁لیاقت	-7747
▁مصادف	-7748
▁اتفاقا	-7749
▁بیزاری	-7750
▁دائماً	-7751
▁دوشنبه	-7752
▁سرگذشت	-7753
▁سلطنتی	-7754
▁شناسید	-7755
▁پرسیده	-7756
▁پهناور	-7757
▁گیاهان	-7758
▁برداشتن	-7759
▁نوشیدنی	-7760
▁نگریستن	-7761
▁خودنمایی	-7762
▁خواهرزاده	-7763
بن	-7764
ئیز	-7765
ستا	-7766
▁بئ	-7767
▁نص	-7768
ونیم	-7769
▁رهس	-7770
▁شوخ	-7771
▁طوی	-7772
▁مجم	-7773
▁افتم	-7774
▁تشنه	-7775
▁جونز	-7776
▁زیان	-7777
▁طوطی	-7778
▁لکنت	-7779
▁ماسه	-7780
▁محفو	-7781
▁مداخ	-7782
▁افسار	-7783
▁اموال	-7784
▁رایحه	-7785
▁رنگار	-7786
▁قرائت	-7787
▁محسوس	-7788
▁مسایل	-7789
▁نهایی	-7790
▁دزدیده	-7791
▁مردگان	-7792
▁مقدمات	-7793
▁پیشروی	-7794
▁بازوانش	-7795
▁بخواهند	-7796
▁دستپاچه	-7797
▁لنگرگاه	-7798
▁مهرآمیز	-7799
▁میانشان	-7800
▁ناتوانی	-7801
▁نیازمند	-7802
▁هیپولیت	-7803
▁کنندگان	-7804
فری	-7805
کنم	-7806
▁دغ	-7807
اکثر	-7808
▁تعج	-7809
▁شقی	-7810
▁صاح	-7811
▁فات	-7812
▁منع	-7813
▁ندم	-7814
▁نیل	-7815
▁ورم	-7816
▁وزش	-7817
▁ویک	-7818
▁پخت	-7819
یاهای	-7820
▁امرو	-7821
▁دیگه	-7822
▁ردای	-7823
▁ظهور	-7824
▁عودا	-7825
▁فورد	-7826
▁مشتی	-7827
▁میرد	-7828
▁میشی	-7829
▁نرود	-7830
▁پانت	-7831
▁کمان	-7832
▁کندن	-7833
▁آذوقه	-7834
▁بالین	-7835
▁بدانی	-7836
▁تحریر	-7837
▁جوانک	-7838
▁حواسم	-7839
▁خونین	-7840
▁دلخور	-7841
▁فلاکت	-7842
▁مبتذل	-7843
▁معنوی	-7844
▁مناطق	-7845
▁نگذشت	-7846
▁آمرانه	-7847
▁اسپانیا	-7848
▁اندازهٔ	-7849
▁مخفیانه	-7850
عال	-7851
▁خآ	-7852
انها	-7853
اوری	-7854
شینی	-7855
▁اتل	-7856
▁اسی	-7857
▁جغد	-7858
▁درج	-7859
▁سوا	-7860
▁صحت	-7861
▁کاف	-7862
▁اشعه	-7863
▁اصیل	-7864
▁بکوب	-7865
▁جابه	-7866
▁حامل	-7867
▁رهبر	-7868
▁زمخت	-7869
▁ساقه	-7870
▁شارک	-7871
▁عادل	-7872
▁فقره	-7873
▁لطمه	-7874
▁مرسی	-7875
▁ناهم	-7876
▁پوزش	-7877
▁کالن	-7878
▁استقل	-7879
▁اقبال	-7880
▁تصوری	-7881
▁جنگلی	-7882
▁حیران	-7883
▁خواری	-7884
▁سخاوت	-7885
▁شایعه	-7886
▁شیفته	-7887
▁نشیند	-7888
▁اربابم	-7889
▁انگشتش	-7890
▁دلایلی	-7891
▁فهمیدی	-7892
▁مداخله	-7893
▁مذاکره	-7894
▁همانند	-7895
▁یونانی	-7896
▁آشنایان	-7897
▁اتحادیه	-7898
▁احتمالی	-7899
▁توضیحات	-7900
▁دستورات	-7901
▁کاتولیک	-7902
▁استرایدر	-7903
رود	-7904
زیک	-7905
سور	-7906
وام	-7907
ویک	-7908
▁صع	-7909
اندن	-7910
▁آیی	-7911
▁عبا	-7912
▁لوس	-7913
▁منس	-7914
▁الله	-7915
▁بومی	-7916
▁بیام	-7917
▁جویا	-7918
▁دولا	-7919
▁رازی	-7920
▁علتش	-7921
▁مزاج	-7922
▁مشوش	-7923
▁مهاج	-7924
▁موزه	-7925
▁نوکر	-7926
▁بواری	-7927
▁تشییع	-7928
▁دقایق	-7929
▁فراغت	-7930
▁کیفیت	-7931
▁گواهی	-7932
▁دنیایی	-7933
▁رهسپار	-7934
▁میخکوب	-7935
▁نادرست	-7936
▁پوزخند	-7937
▁شیروانی	-7938
▁کیلومتر	-7939
یت	-7940
ئیه	-7941
سکو	-7942
ومد	-7943
کام	-7944
رفته	-7945
▁آنت	-7946
▁ریچ	-7947
▁فقی	-7948
▁وتر	-7949
▁چتر	-7950
▁کتی	-7951
▁باشه	-7952
▁تلفظ	-7953
▁دورش	-7954
▁رسیم	-7955
▁عموم	-7956
▁لقمه	-7957
▁مجلل	-7958
▁مسکن	-7959
▁میهن	-7960
▁نافذ	-7961
▁نقشی	-7962
▁بیهوش	-7963
▁تبعید	-7964
▁داماد	-7965
▁دهانم	-7966
▁ساعتش	-7967
▁سوالن	-7968
▁سومین	-7969
▁شکلات	-7970
▁عریان	-7971
▁فرومی	-7972
▁متولد	-7973
▁نگرفت	-7974
▁افکاری	-7975
▁باریکی	-7976
▁بگریزد	-7977
▁حداکثر	-7978
▁مرگبار	-7979
▁واگذار	-7980
▁پژمرده	-7981
▁کمربند	-7982
▁برایمان	-7983
▁فرناندا	-7984
▁میهمانی	-7985
▁ورانداز	-7986
▁پیرمردی	-7987
▁گراتسیا	-7988
تیک	-7989
لوک	-7990
وست	-7991
▁بیگ	-7992
▁مود	-7993
▁نبا	-7994
▁نهر	-7995
▁پیت	-7996
ینیاک	-7997
▁اومد	-7998
▁جاها	-7999
▁دستگ	-8000
▁ریزه	-8001
▁ستود	-8002
▁مقرر	-8003
▁نحوه	-8004
▁هدفی	-8005
▁کمرش	-8006
▁اسبان	-8007
▁اسکله	-8008
▁اوراق	-8009
▁ببخشد	-8010
▁بخواد	-8011
▁بخوری	-8012
▁دریان	-8013
▁سرمای	-8014
▁شکاری	-8015
▁محفوظ	-8016
▁مرحوم	-8017
▁نیرنگ	-8018
▁وجودم	-8019
▁وجودی	-8020
▁کلاهی	-8021
▁استودی	-8022
▁دانستن	-8023
▁زندگیم	-8024
▁فروتنی	-8025
▁نوشابه	-8026
▁برازنده	-8027
▁برگردیم	-8028
▁داروساز	-8029
▁گورستان	-8030
▁اسپانیایی	-8031
آم	-8032
آنش	-8033
ریس	-8034
سام	-8035
▁دِ	-8036
خندی	-8037
کاگو	-8038
▁خنج	-8039
▁زوج	-8040
▁طعم	-8041
▁قند	-8042
▁نود	-8043
▁هما	-8044
گواری	-8045
▁اعلا	-8046
▁تراش	-8047
▁جوید	-8048
▁خرمن	-8049
▁زنیم	-8050
▁سرگی	-8051
▁سوتی	-8052
▁سوسی	-8053
▁قیاس	-8054
▁ماکس	-8055
▁کالی	-8056
▁کوله	-8057
▁آمیخت	-8058
▁اعزام	-8059
▁انرژی	-8060
▁اومدم	-8061
▁برسیم	-8062
▁بیاور	-8063
▁ترانچ	-8064
▁روستا	-8065
▁سرکشی	-8066
▁عادات	-8067
▁منجمد	-8068
▁گلدان	-8069
▁آرامشی	-8070
▁بالایی	-8071
▁بنویسم	-8072
▁شیکاگو	-8073
▁مزاحمت	-8074
▁واداشت	-8075
▁وانگهی	-8076
▁تماشاچیان	-8077
طم	-8078
ردن	-8079
چگی	-8080
رایس	-8081
رویی	-8082
▁بوق	-8083
▁دوت	-8084
▁شفا	-8085
▁غرا	-8086
▁قار	-8087
▁ماف	-8088
▁مسا	-8089
▁ترسو	-8090
▁تزار	-8091
▁تمنا	-8092
▁خونه	-8093
▁دهشت	-8094
▁سپاه	-8095
▁لحاف	-8096
▁لنگه	-8097
▁لویی	-8098
▁مشنگ	-8099
▁میزش	-8100
▁نمیت	-8101
▁وارث	-8102
▁یارد	-8103
▁آیینه	-8104
▁ارسال	-8105
▁انجیل	-8106
▁باورم	-8107
▁بشوید	-8108
▁تضمین	-8109
▁حقارت	-8110
▁مارکی	-8111
▁نصیحت	-8112
▁بینگلی	-8113
▁تصادفی	-8114
▁دلداری	-8115
▁معتقدم	-8116
▁معلومه	-8117
▁نابودی	-8118
▁گریستن	-8119
▁استقلال	-8120
▁اندازند	-8121
▁خواستیم	-8122
▁فرماندار	-8123
▁نمایشنامه	-8124
▁شرافتمندانه	-8125
رج	-8126
تاً	-8127
دغه	-8128
زند	-8129
کله	-8130
آنها	-8131
اتور	-8132
اگرد	-8133
ولین	-8134
▁ارن	-8135
▁خائ	-8136
▁طنز	-8137
▁عدد	-8138
▁فوا	-8139
▁لاغ	-8140
▁مصر	-8141
رفیلد	-8142
▁باطن	-8143
▁جوزف	-8144
▁سرشت	-8145
▁شفقت	-8146
▁مباح	-8147
▁محصل	-8148
▁مظهر	-8149
▁ملیس	-8150
▁نظرت	-8151
▁وصلت	-8152
▁کبری	-8153
▁کلنل	-8154
▁کمکم	-8155
▁اندرز	-8156
▁بازگو	-8157
▁خودتو	-8158
▁روانی	-8159
▁سیدنی	-8160
▁صابون	-8161
▁قطعات	-8162
▁ماهیت	-8163
▁مبتلا	-8164
▁مبلغی	-8165
▁میامد	-8166
▁نویسی	-8167
▁واهمه	-8168
▁پسران	-8169
▁خمیازه	-8170
▁خیالات	-8171
▁سخنانی	-8172
▁سراپای	-8173
▁مادیان	-8174
▁اندیشهٔ	-8175
▁تراشیده	-8176
▁فروشنده	-8177
▁نگریسته	-8178
▁گرداگرد	-8179
▁گروهبان	-8180
دود	-8181
▁آج	-8182
کلند	-8183
▁آلپ	-8184
▁اعم	-8185
▁بکی	-8186
▁حسی	-8187
▁خفت	-8188
▁لبی	-8189
▁نوج	-8190
ومندی	-8191
▁بکشی	-8192
▁تباه	-8193
▁ترام	-8194
▁تهوع	-8195
▁جانو	-8196
▁دلرب	-8197
▁دیری	-8198
▁راسخ	-8199
▁رحمی	-8200
▁شنوی	-8201
▁شورا	-8202
▁علوم	-8203
▁غالب	-8204
▁لانگ	-8205
▁معنا	-8206
▁نخیر	-8207
▁نگیر	-8208
▁چهرة	-8209
▁آوردی	-8210
▁اصولا	-8211
▁الهام	-8212
▁بیارم	-8213
▁شنوند	-8214
▁غریزی	-8215
▁محجوب	-8216
▁راهروی	-8217
▁شوالیه	-8218
▁فروخته	-8219
▁مردهای	-8220
▁برگزیده	-8221
▁رانندگی	-8222
▁رنگارنگ	-8223
▁لهستانی	-8224
▁آلکساندر	-8225
▁استارباک	-8226
▁دریانورد	-8227
▁ناخوشایند	-8228
دب	-8229
بون	-8230
دلی	-8231
قبه	-8232
▁ظن	-8233
آورد	-8234
حکام	-8235
غالی	-8236
▁ایب	-8237
▁جیل	-8238
▁دوا	-8239
▁همش	-8240
▁بنفش	-8241
▁بودو	-8242
▁جسته	-8243
▁دارا	-8244
▁سرپا	-8245
▁عیار	-8246
▁لیزا	-8247
▁مشرو	-8248
▁چگون	-8249
▁کاهش	-8250
کونسکی	-8251
▁ابزار	-8252
▁استاب	-8253
▁العمل	-8254
▁اژدها	-8255
▁تدریس	-8256
▁جماعت	-8257
▁دغدغه	-8258
▁سرسخت	-8259
▁فرنگی	-8260
▁فلسفه	-8261
▁هیجده	-8262
▁پوتین	-8263
▁چیکار	-8264
▁بنشینم	-8265
▁بیداری	-8266
▁خودتون	-8267
▁خوشوقت	-8268
▁صاحبان	-8269
▁طرفدار	-8270
▁مارشال	-8271
▁ناخدای	-8272
▁نردبان	-8273
▁پولدار	-8274
▁قرارگاه	-8275
▁همکاران	-8276
▁کارکنان	-8277
بض	-8278
نق	-8279
افته	-8280
پیچی	-8281
▁سپت	-8282
▁قاچ	-8283
▁گنگ	-8284
▁برگه	-8285
▁تجسم	-8286
▁تندر	-8287
▁راهم	-8288
▁زینت	-8289
▁فیلس	-8290
▁مجدد	-8291
▁نبوغ	-8292
▁آویخت	-8293
▁احمقی	-8294
▁حقیقة	-8295
▁درنده	-8296
▁رقابت	-8297
▁شارمی	-8298
▁قبایل	-8299
▁معاون	-8300
▁نواحی	-8301
▁ویسکی	-8302
▁خبرهای	-8303
▁دلنشین	-8304
▁شباهتی	-8305
▁فرورفت	-8306
▁نارنجی	-8307
▁بنشینید	-8308
▁خریداری	-8309
▁سوسیالی	-8310
رژ	-8311
ریل	-8312
فیف	-8313
کنه	-8314
بازی	-8315
بوری	-8316
ساعه	-8317
▁آلب	-8318
▁ارگ	-8319
▁تپش	-8320
▁علل	-8321
▁چرم	-8322
▁چفت	-8323
▁برنج	-8324
▁بندد	-8325
▁زدگی	-8326
▁زغال	-8327
▁سراف	-8328
▁سودی	-8329
▁قضای	-8330
▁لابه	-8331
▁لایق	-8332
▁مربع	-8333
▁نبین	-8334
▁کوپه	-8335
▁گارا	-8336
انتچین	-8337
▁اتلنی	-8338
▁تزیین	-8339
▁تعجبی	-8340
▁جنبهٔ	-8341
▁سوءظن	-8342
▁شوهری	-8343
▁قاعده	-8344
▁متوحش	-8345
▁ژوئیه	-8346
▁گسترش	-8347
▁گیملی	-8348
▁اشرافی	-8349
▁الساعه	-8350
▁بگذاری	-8351
▁جاسوسی	-8352
▁جذابیت	-8353
▁حاضران	-8354
▁شلوارش	-8355
▁فهماند	-8356
▁کوبیده	-8357
▁استحکام	-8358
▁اعتنائی	-8359
▁میگویند	-8360
▁اپانتچین	-8361
▁فرستادند	-8362
▁الکساندرا	-8363
▁فیودوروویچ	-8364
وو	-8365
تیل	-8366
نظر	-8367
گیل	-8368
▁اذ	-8369
▁گس	-8370
ریزی	-8371
▁جسی	-8372
▁زجر	-8373
▁زنه	-8374
▁عقد	-8375
▁پوچ	-8376
▁کلم	-8377
رداری	-8378
▁آخری	-8379
▁بختی	-8380
▁بدنه	-8381
▁تاجر	-8382
▁درسی	-8383
▁رتبه	-8384
▁رقیب	-8385
▁سرکش	-8386
▁طعنه	-8387
▁فراخ	-8388
▁معده	-8389
▁میسر	-8390
▁وادی	-8391
▁پاکی	-8392
▁اصابت	-8393
▁ایستد	-8394
▁تصنیف	-8395
▁داران	-8396
▁دفاعی	-8397
▁راهزن	-8398
▁زنانی	-8399
▁مجموع	-8400
▁محصور	-8401
▁منقبض	-8402
▁میمون	-8403
▁نبیند	-8404
▁نوازی	-8405
▁نوشتم	-8406
▁پذیرش	-8407
▁پرایس	-8408
▁استپان	-8409
▁مطمئنی	-8410
▁ملاحان	-8411
▁نداشتن	-8412
▁چگونگی	-8413
▁کراوات	-8414
▁فهمیدند	-8415
▁موقعیتی	-8416
▁نخواهیم	-8417
▁نومیدانه	-8418
▁پرورشگاه	-8419
نب	-8420
ایز	-8421
حبت	-8422
وون	-8423
کلت	-8424
▁ارج	-8425
▁تین	-8426
▁جاب	-8427
▁جیک	-8428
▁موز	-8429
▁نحی	-8430
▁نوا	-8431
▁ببری	-8432
▁برکه	-8433
▁دایه	-8434
▁درپی	-8435
▁رومی	-8436
▁لایه	-8437
▁لرزد	-8438
▁لطفی	-8439
▁مشعل	-8440
▁مفصل	-8441
▁مورس	-8442
▁پارس	-8443
▁جمجمه	-8444
▁رنگین	-8445
▁ساحلی	-8446
▁شکافت	-8447
▁طریقی	-8448
▁لزومی	-8449
▁مایهٔ	-8450
▁متوسل	-8451
▁موردی	-8452
▁نبودی	-8453
▁چسبید	-8454
▁آدمیان	-8455
▁خشکیده	-8456
▁سیگاری	-8457
▁مبالغه	-8458
▁مستولی	-8459
▁هایمان	-8460
▁هیاهوی	-8461
▁ژولیده	-8462
▁گذرانی	-8463
▁یادآور	-8464
▁اتفاقاً	-8465
▁اعتمادی	-8466
▁بردارید	-8467
▁دستگیره	-8468
▁سپتامبر	-8469
▁کشورهای	-8470
▁ماجراهای	-8471
▁متفکرانه	-8472
کد	-8473
الا	-8474
رفه	-8475
،...	-8476
وقتی	-8477
▁فتح	-8478
▁پاب	-8479
▁کمد	-8480
▁آنرا	-8481
▁بچشم	-8482
▁زرنگ	-8483
▁سطحی	-8484
▁سومی	-8485
▁مارو	-8486
▁منبع	-8487
▁هاری	-8488
▁وسعت	-8489
▁پرنس	-8490
▁کنون	-8491
ارامیر	-8492
▁برآید	-8493
▁بستری	-8494
▁بشویم	-8495
▁خلاصی	-8496
▁خوانی	-8497
▁دستکم	-8498
▁رفتنش	-8499
▁سرپوش	-8500
▁مچاله	-8501
▁نویسم	-8502
▁چطوره	-8503
▁کازنی	-8504
▁برادری	-8505
▁خوشامد	-8506
▁سعادتی	-8507
▁مادران	-8508
▁میکابر	-8509
▁نباشید	-8510
▁پوسیده	-8511
▁افسردگی	-8512
▁فریبنده	-8513
▁پادشاهی	-8514
▁کوشیدند	-8515
▁درخشیدند	-8516
عم	-8517
اتا	-8518
اشد	-8519
فلت	-8520
▁رط	-8521
ردان	-8522
▁زبر	-8523
▁فلک	-8524
▁مهی	-8525
▁ژرژ	-8526
▁اقتص	-8527
▁اقلا	-8528
▁تپید	-8529
▁تیکه	-8530
▁خالص	-8531
▁دردس	-8532
▁سرقت	-8533
▁سستی	-8534
▁شهود	-8535
▁شکمش	-8536
▁صفات	-8537
▁عقبه	-8538
▁مرگش	-8539
▁نایب	-8540
▁نزاع	-8541
▁هرزه	-8542
▁پروا	-8543
▁پهنه	-8544
▁چکید	-8545
ماندگی	-8546
▁افسری	-8547
▁اکتبر	-8548
▁باقیم	-8549
▁حصیری	-8550
▁شاداب	-8551
▁عینکش	-8552
▁منزله	-8553
▁وسیعی	-8554
▁پاشید	-8555
▁پاییز	-8556
▁احتراز	-8557
▁استثنا	-8558
▁بدنبال	-8559
▁بگذران	-8560
▁راندند	-8561
▁سودمند	-8562
▁قیافهٔ	-8563
▁گهواره	-8564
▁خطرناکی	-8565
▁حضرتعالی	-8566
▁فرمانروای	-8567
▁نویسندگان	-8568
ردم	-8569
نسی	-8570
▁پک	-8571
ایشی	-8572
بودی	-8573
وشکا	-8574
▁دوق	-8575
▁رضا	-8576
▁صاع	-8577
▁مغش	-8578
▁نطق	-8579
▁گدا	-8580
▁یاس	-8581
ردهای	-8582
▁ارشد	-8583
▁استد	-8584
▁انشا	-8585
▁باده	-8586
▁بارو	-8587
▁توقی	-8588
▁رنجی	-8589
▁ریزش	-8590
▁طعمه	-8591
▁عربی	-8592
▁مایک	-8593
▁مثال	-8594
▁میدل	-8595
▁هندی	-8596
▁اداری	-8597
▁بازنش	-8598
▁ببریم	-8599
▁جسیکا	-8600
▁حالات	-8601
▁خرناس	-8602
▁دلتان	-8603
▁ساختم	-8604
▁ستوان	-8605
▁مرتفع	-8606
▁نامرت	-8607
▁نانسی	-8608
▁نباشم	-8609
▁نوسان	-8610
▁کشوری	-8611
▁گرفتی	-8612
▁اندوهی	-8613
▁بشنوند	-8614
▁مکالمه	-8615
▁ویرانه	-8616
▁پیداست	-8617
▁استوارت	-8618
▁ایرلندی	-8619
▁زمستانی	-8620
▁اندوهناک	-8621
▁اندیشیدم	-8622
▁خانوادهٔ	-8623
ثل	-8624
ندس	-8625
پیر	-8626
ومیر	-8627
پاره	-8628
▁اسف	-8629
▁بپا	-8630
▁تبه	-8631
▁خوف	-8632
▁رأس	-8633
▁پلی	-8634
▁‬‬‬	-8635
▁بارت	-8636
▁بگمن	-8637
▁جداً	-8638
▁دمشق	-8639
▁دیرک	-8640
▁رویه	-8641
▁غرغر	-8642
▁غیاب	-8643
▁قاعد	-8644
▁منصف	-8645
▁ورای	-8646
▁تنبلی	-8647
▁دلفین	-8648
▁صاعقه	-8649
▁صفحات	-8650
▁مدارک	-8651
▁مراحل	-8652
▁معقول	-8653
▁نظاره	-8654
▁همینه	-8655
▁گیریم	-8656
▁آنجاست	-8657
▁دوروبر	-8658
▁وارنکا	-8659
▁ولیعهد	-8660
▁جادوگری	-8661
▁شرمساری	-8662
▁شکیبایی	-8663
▁هنرپیشه	-8664
▁گذراندن	-8665
▁بازرگانی	-8666
أن	-8667
اکی	-8668
جهیز	-8669
رینگ	-8670
هاست	-8671
▁ترو	-8672
▁شگر	-8673
▁صفت	-8674
▁طبل	-8675
▁ننو	-8676
▁ودر	-8677
▁وفا	-8678
▁استر	-8679
▁اسکو	-8680
▁توله	-8681
▁خآنم	-8682
▁خاند	-8683
▁سردر	-8684
▁شبکه	-8685
▁صنعت	-8686
▁طوره	-8687
▁عیسی	-8688
▁لاست	-8689
▁پلید	-8690
▁آوریل	-8691
▁دلیلش	-8692
▁ریاست	-8693
▁سامان	-8694
▁عنایت	-8695
▁متصدی	-8696
▁مرداب	-8697
▁موزیک	-8698
▁میریم	-8699
▁میزها	-8700
▁هانری	-8701
▁همنوع	-8702
▁آنجایی	-8703
▁اندامش	-8704
▁حقیقتا	-8705
▁خواهان	-8706
▁دستمزد	-8707
▁محافظه	-8708
▁معنایی	-8709
▁مفهومی	-8710
▁ممکنست	-8711
▁پاشیده	-8712
▁پریدند	-8713
▁چراگاه	-8714
▁بورومیر	-8715
▁خواهران	-8716
▁مارتینی	-8717
▁پیشخوان	-8718
▁چسبانده	-8719
▁بفرمائید	-8720
▁مستقیماً	-8721
▁یادداشتی	-8722
نظ	-8723
طاف	-8724
لتن	-8725
ویض	-8726
چسب	-8727
کاب	-8728
▁قو	-8729
▁الز	-8730
▁باف	-8731
▁جزم	-8732
▁صدد	-8733
▁صید	-8734
▁هرج	-8735
▁وید	-8736
گوهای	-8737
▁تحقق	-8738
▁ترغی	-8739
▁تشنج	-8740
▁حاوی	-8741
▁رسوم	-8742
▁سفیر	-8743
▁فرعی	-8744
▁چاله	-8745
▁چماق	-8746
▁کوبی	-8747
▁کوزه	-8748
▁آنتون	-8749
▁بشکند	-8750
▁بفهمی	-8751
▁حقوقی	-8752
▁دوقلو	-8753
▁عاشقش	-8754
▁عضلات	-8755
▁فقدان	-8756
▁مفصلی	-8757
▁گردیم	-8758
▁یارای	-8759
رافتاده	-8760
▁خوراکی	-8761
▁دانستی	-8762
▁زیباست	-8763
▁مختلفی	-8764
▁احتیاطی	-8765
▁انتظاری	-8766
▁عذرخواهی	-8767
▁کشتارگاه	-8768
▁ناهارخوری	-8769
رهم	-8770
رید	-8771
باغه	-8772
راتش	-8773
▁آشی	-8774
▁الس	-8775
▁ترم	-8776
▁ثمر	-8777
▁دلپ	-8778
▁رقی	-8779
▁رند	-8780
▁لجن	-8781
▁کوک	-8782
▁بلیط	-8783
▁بیفز	-8784
▁تعهد	-8785
▁تنبل	-8786
▁رفاه	-8787
▁ساند	-8788
▁غفلت	-8789
▁فاکس	-8790
▁مارس	-8791
▁منهم	-8792
▁نهان	-8793
▁نوای	-8794
▁واقف	-8795
▁وضعش	-8796
▁پراس	-8797
▁پوزه	-8798
▁گرام	-8799
راتیون	-8800
ناپذیر	-8801
▁آمدید	-8802
▁اسناد	-8803
▁افراط	-8804
▁بدجنس	-8805
▁بشریت	-8806
▁تیلور	-8807
▁خفیفی	-8808
▁دائمی	-8809
▁دماغش	-8810
▁شرارت	-8811
▁ظاهرش	-8812
▁مستقل	-8813
▁مهمات	-8814
▁ناقلا	-8815
▁هرحال	-8816
▁پرستش	-8817
▁پرپشت	-8818
▁یابند	-8819
▁بمانید	-8820
▁حساسیت	-8821
▁خوشمزه	-8822
▁خوشگلی	-8823
▁درباری	-8824
▁روییده	-8825
▁شیلینگ	-8826
▁مالیات	-8827
▁نظرشان	-8828
▁هیولای	-8829
▁کشیشان	-8830
▁بیندازم	-8831
▁پیشگویی	-8832
▁آرکادیوی	-8833
▁باقیمانده	-8834
وژ	-8835
اصر	-8836
روو	-8837
رکی	-8838
غان	-8839
لئی	-8840
امتی	-8841
بورن	-8842
زنان	-8843
وخته	-8844
یایی	-8845
▁شرک	-8846
▁واش	-8847
▁ولا	-8848
▁پون	-8849
▁کاو	-8850
▁کمپ	-8851
اژسکی	-8852
ایستی	-8853
▁اولش	-8854
▁باطل	-8855
▁تایی	-8856
▁ترکه	-8857
▁حصار	-8858
▁دارش	-8859
▁سرسب	-8860
▁سوسک	-8861
▁عرصه	-8862
▁فاتح	-8863
▁لاشه	-8864
▁محفل	-8865
▁مهیب	-8866
▁اثاثه	-8867
▁ادعای	-8868
▁امضای	-8869
▁تلاشی	-8870
▁جلسات	-8871
▁درخشش	-8872
▁درمرو	-8873
▁سهولت	-8874
▁سینما	-8875
▁شمایل	-8876
▁صحبتش	-8877
▁طلبید	-8878
▁عالیه	-8879
▁فرستم	-8880
▁لازمه	-8881
▁مارسی	-8882
▁مشهود	-8883
▁ملافه	-8884
▁نشوید	-8885
▁آفریده	-8886
▁اندامی	-8887
▁بدهکار	-8888
▁بقایای	-8889
▁دانشجو	-8890
▁طوفانی	-8891
▁موردون	-8892
▁واژگون	-8893
▁پردازد	-8894
▁گنجینه	-8895
▁برسانند	-8896
▁قورباغه	-8897
▁پانتلئی	-8898
▁استرالیا	-8899
▁درماندگی	-8900
▁سویاژسکی	-8901
▁منظورتان	-8902
▁راستینیاک	-8903
شک	-8904
زاس	-8905
کوف	-8906
▁پز	-8907
آلود	-8908
روخت	-8909
رویش	-8910
زونی	-8911
گینی	-8912
▁آها	-8913
▁تأث	-8914
▁جیر	-8915
▁درز	-8916
▁قعر	-8917
▁مشم	-8918
▁چید	-8919
خواهد	-8920
مانند	-8921
وهایی	-8922
▁اوها	-8923
▁بازش	-8924
▁بخشش	-8925
▁تکمه	-8926
▁حوله	-8927
▁حیثی	-8928
▁خلقی	-8929
▁دآنش	-8930
▁رحمت	-8931
▁سرنگ	-8932
▁سهیم	-8933
▁ماچی	-8934
▁موها	-8935
▁مینا	-8936
▁ناقص	-8937
▁نبات	-8938
▁نثار	-8939
▁هفتم	-8940
▁هومه	-8941
▁گذار	-8942
▁آسیبی	-8943
▁اتمام	-8944
▁اومدی	-8945
▁بدشان	-8946
▁بیخود	-8947
▁تجاری	-8948
▁جهنمی	-8949
▁خریدن	-8950
▁دویدم	-8951
▁رفقای	-8952
▁زیرین	-8953
▁سرمان	-8954
▁علائم	-8955
▁ویلکز	-8956
▁پذیرد	-8957
▁بردارم	-8958
▁بیرونی	-8959
▁جنباند	-8960
▁داویدا	-8961
▁ناخوشی	-8962
▁نامزدی	-8963
▁کارگری	-8964
▁گوساله	-8965
▁باستانی	-8966
▁بیلیارد	-8967
▁بیندیشد	-8968
▁تازیانه	-8969
▁تحقیقات	-8970
▁تصادفاً	-8971
▁توپخانه	-8972
▁جانوران	-8973
▁دریافتم	-8974
▁قهرمانی	-8975
▁ماهرانه	-8976
▁نامطبوع	-8977
▁استخوانی	-8978
▁برخاستند	-8979
▁دستپاچگی	-8980
احل	-8981
ثال	-8982
راغ	-8983
صدا	-8984
ظره	-8985
▁خف	-8986
▁کذ	-8987
لومی	-8988
ودار	-8989
▁ابا	-8990
▁درص	-8991
▁ریو	-8992
▁فام	-8993
▁معی	-8994
▁مکت	-8995
کردنی	-8996
▁تابش	-8997
▁تختش	-8998
▁تیری	-8999
▁زنیط	-9000
▁مداد	-9001
▁موان	-9002
▁هورا	-9003
▁پشمی	-9004
▁ژولی	-9005
▁کاکا	-9006
▁بیکار	-9007
▁تغذیه	-9008
▁تناسب	-9009
▁توقیف	-9010
▁جنگید	-9011
▁دلگرم	-9012
▁سانحه	-9013
▁طراوت	-9014
▁فرسنگ	-9015
▁قاچاق	-9016
▁محافل	-9017
▁مغشوش	-9018
▁چابکی	-9019
▁کرکره	-9020
▁کشنده	-9021
▁گریان	-9022
اردهنده	-9023
پاولونا	-9024
▁برفراز	-9025
▁جانشین	-9026
▁خدایان	-9027
▁خوششان	-9028
▁فیلسوف	-9029
▁منتظره	-9030
▁گذرگاه	-9031
▁بدگمانی	-9032
▁دهقانان	-9033
▁زیرکانه	-9034
▁شرمندگی	-9035
▁شناسایی	-9036
▁فارامیر	-9037
▁زندانبان	-9038
▁متاسفانه	-9039
▁ضب	-9040
اتان	-9041
انیس	-9042
ندلی	-9043
▁حلق	-9044
▁عار	-9045
▁لگن	-9046
▁منگ	-9047
▁وهم	-9048
▁پرخ	-9049
▁کپه	-9050
▁بدخل	-9051
▁بزده	-9052
▁جهات	-9053
▁ذاتی	-9054
▁سواد	-9055
▁شمعی	-9056
▁قولی	-9057
▁مشاج	-9058
▁واتر	-9059
▁کبیر	-9060
▁گرده	-9061
▁تجهیز	-9062
▁تفاهم	-9063
▁توسعه	-9064
▁حیاتی	-9065
▁ساحره	-9066
▁سورچی	-9067
▁شنیدی	-9068
▁مسدود	-9069
▁نشدنی	-9070
▁نشوند	-9071
▁نظارت	-9072
▁هلاکت	-9073
▁چراغی	-9074
▁چمبات	-9075
▁اربابی	-9076
▁ارتکاب	-9077
▁باتلاق	-9078
▁خورجین	-9079
▁متوالی	-9080
▁ملکیور	-9081
▁منتظرش	-9082
▁نورانی	-9083
▁پایانی	-9084
▁گناهان	-9085
▁بگذراند	-9086
▁مروارید	-9087
▁بازگشتند	-9088
▁تابلوهای	-9089
▁آناپاولونا	-9090
ایا	-9091
لیچ	-9092
مای	-9093
وتن	-9094
وجه	-9095
▁لژ	-9096
رانس	-9097
قاتی	-9098
▁تست	-9099
▁داس	-9100
▁رفی	-9101
▁زائ	-9102
▁سرن	-9103
▁عاش	-9104
▁غنی	-9105
▁محم	-9106
▁مضح	-9107
▁نخل	-9108
▁نوح	-9109
▁ویژ	-9110
▁چکش	-9111
▁کشش	-9112
ریکاس	-9113
▁اشرف	-9114
▁بشاش	-9115
▁بلیت	-9116
▁تونن	-9117
▁حوصل	-9118
▁دلاک	-9119
▁لیست	-9120
▁مسآب	-9121
▁ورزد	-9122
▁وزوز	-9123
▁پرتق	-9124
▁یورش	-9125
▁اتحاد	-9126
▁اعلان	-9127
▁اینهم	-9128
▁بستنی	-9129
▁بندرت	-9130
▁توالت	-9131
▁خارجه	-9132
▁خوانم	-9133
▁رطوبت	-9134
▁ریاضی	-9135
▁سماجت	-9136
▁سیلاب	-9137
▁شانسی	-9138
▁صدایم	-9139
▁طویله	-9140
▁منقار	-9141
▁نادیا	-9142
▁گلگون	-9143
▁انتشار	-9144
▁بگذریم	-9145
▁تعظیمی	-9146
▁راهشان	-9147
▁زادگان	-9148
▁زیبایش	-9149
▁سیاهان	-9150
▁غیرمنت	-9151
▁پردازی	-9152
▁آزادانه	-9153
▁بتوانید	-9154
▁عادلانه	-9155
▁فرستادم	-9156
▁مادرشان	-9157
▁نوشیدند	-9158
▁اندیشیدن	-9159
▁چهارشنبه	-9160
آور	-9161
ئیم	-9162
باز	-9163
حیح	-9164
دون	-9165
فال	-9166
کینز	-9167
▁حرص	-9168
▁حسد	-9169
▁شری	-9170
▁شیک	-9171
▁نفی	-9172
▁اونی	-9173
▁بیمه	-9174
▁جذبه	-9175
▁جوهر	-9176
▁دخمه	-9177
▁طالب	-9178
▁عوضی	-9179
▁قرون	-9180
▁محکو	-9181
▁معلو	-9182
▁ناصر	-9183
▁کریس	-9184
▁کورت	-9185
▁آفریق	-9186
▁آوازه	-9187
▁اسنوب	-9188
▁باهات	-9189
▁دویده	-9190
▁زیستن	-9191
▁فکرمی	-9192
▁مباشر	-9193
▁مجهول	-9194
▁ندارن	-9195
▁وراجی	-9196
▁کابین	-9197
▁برابری	-9198
▁بشناسد	-9199
▁تصمیمش	-9200
▁خبردار	-9201
▁دیروقت	-9202
▁قالیچه	-9203
▁متناسب	-9204
▁نگذارد	-9205
▁ورزیده	-9206
▁پالتوی	-9207
▁پدرشان	-9208
▁یادتان	-9209
▁آرزوهای	-9210
▁شاعرانه	-9211
▁ناباوری	-9212
▁ناهموار	-9213
▁کارهایش	-9214
▁بالکونسکی	-9215
▁باگراتیون	-9216
ادن	-9217
اصد	-9218
کها	-9219
▁آث	-9220
▁سس	-9221
▁ــ	-9222
▁نن	-9223
وبیل	-9224
▁آذر	-9225
▁بحر	-9226
▁شات	-9227
▁عطش	-9228
▁فدا	-9229
▁قطب	-9230
▁لاج	-9231
▁لغت	-9232
▁لگو	-9233
▁مده	-9234
▁وقف	-9235
ونستم	-9236
▁اندا	-9237
▁رلند	-9238
▁سهمی	-9239
▁فرشت	-9240
▁فشنگ	-9241
▁فیول	-9242
▁مدخل	-9243
▁معما	-9244
▁موجی	-9245
▁آمدنش	-9246
▁بنزین	-9247
▁بیفتم	-9248
▁ترغیب	-9249
▁جستند	-9250
▁خوبیه	-9251
▁سربال	-9252
▁فروکش	-9253
▁فواصل	-9254
▁متحرک	-9255
▁مجالس	-9256
▁محکمه	-9257
▁ممتاز	-9258
▁نباشه	-9259
▁پدیده	-9260
▁پیپین	-9261
▁کبریت	-9262
▁کردین	-9263
▁گاراژ	-9264
▁گمراه	-9265
▁گیرید	-9266
▁آشنائی	-9267
▁حوصلگی	-9268
▁زیادتر	-9269
▁زیباتر	-9270
▁شمعدان	-9271
▁پزشکان	-9272
▁خواستید	-9273
▁رساندند	-9274
▁ناشیانه	-9275
▁انتخابات	-9276
▁دوبریکاس	-9277
▁راستوفها	-9278
بره	-9279
پسی	-9280
یشی	-9281
جاری	-9282
فورد	-9283
▁خلو	-9284
▁طاس	-9285
▁غاز	-9286
▁ماگ	-9287
▁مسک	-9288
▁موظ	-9289
▁کلو	-9290
▁ارزد	-9291
▁تمدن	-9292
▁درعا	-9293
▁راتر	-9294
▁سگان	-9295
▁طلای	-9296
▁غلام	-9297
▁فامی	-9298
▁متکی	-9299
▁هیوا	-9300
▁پانی	-9301
▁پاور	-9302
▁کرجی	-9303
▁کلاغ	-9304
▁گامی	-9305
▁اسکات	-9306
▁ببوسد	-9307
▁بخوای	-9308
▁بدرقه	-9309
▁بیچار	-9310
▁جریحه	-9311
▁حضورش	-9312
▁لاتین	-9313
▁متشخص	-9314
▁مساله	-9315
▁مسرور	-9316
▁نویسد	-9317
▁نگفتی	-9318
▁گلویم	-9319
▁ایرادی	-9320
▁بفرستم	-9321
▁بچگانه	-9322
▁مهتابی	-9323
▁نگهدار	-9324
▁دانشمند	-9325
▁درخشانی	-9326
▁دیدگانش	-9327
▁روزگاری	-9328
▁نگاهشان	-9329
▁چمباتمه	-9330
▁گذاشتیم	-9331
▁اتوموبیل	-9332
▁بیندازند	-9333
▁برافراشته	-9334
▁روستاییان	-9335
▁سپاسگزاری	-9336
رغ	-9337
طین	-9338
ویگ	-9339
▁پف	-9340
امتش	-9341
لاتش	-9342
ولتز	-9343
▁دکت	-9344
▁فاح	-9345
▁فور	-9346
▁مته	-9347
▁کشو	-9348
▁گان	-9349
▁جایم	-9350
▁حامی	-9351
▁سویی	-9352
▁سیتی	-9353
▁شراع	-9354
▁فرما	-9355
▁مایع	-9356
▁مطیع	-9357
▁میگی	-9358
▁نهار	-9359
▁هویت	-9360
▁کشتز	-9361
▁کنین	-9362
▁یتیم	-9363
▁آغشته	-9364
▁بیداد	-9365
▁تبرئه	-9366
▁ترسیم	-9367
▁داروی	-9368
▁درشتی	-9369
▁روبان	-9370
▁زمانه	-9371
▁سرهای	-9372
▁سمیون	-9373
▁قراول	-9374
▁لوویک	-9375
▁نادان	-9376
▁نمایی	-9377
▁پوسته	-9378
▁چهرهء	-9379
▁الروند	-9380
▁توضیحی	-9381
▁خشنودی	-9382
▁شدیداً	-9383
▁شناسند	-9384
▁مونترو	-9385
▁گرگینه	-9386
▁خواستار	-9387
▁خیابانی	-9388
▁سراشیبی	-9389
▁پذیرفتن	-9390
▁کاغذهای	-9391
▁پنداشتند	-9392
▁دوبریکاسار	-9393
احت	-9394
اطع	-9395
الش	-9396
رمن	-9397
نیت	-9398
وتس	-9399
وزن	-9400
▁نذ	-9401
باله	-9402
حضرت	-9403
▁بپی	-9404
▁جثه	-9405
▁حجب	-9406
▁رده	-9407
▁سیه	-9408
▁شکو	-9409
▁ننم	-9410
▁هرز	-9411
▁وبی	-9412
▁ییش	-9413
شناسی	-9414
شنودی	-9415
پانچه	-9416
▁بخرم	-9417
▁بدوی	-9418
▁سبکی	-9419
▁شعاع	-9420
▁شمشی	-9421
▁فلاس	-9422
▁ماهر	-9423
▁نترس	-9424
▁چربی	-9425
▁چرخی	-9426
▁کریم	-9427
ارهایی	-9428
درستون	-9429
▁تانیا	-9430
▁خدایی	-9431
▁خیالم	-9432
▁درنمی	-9433
▁سلطان	-9434
▁صاحبش	-9435
▁مدیره	-9436
▁موزون	-9437
▁نمناک	-9438
▁نمودم	-9439
▁ویژگی	-9440
▁کاران	-9441
▁ابتدای	-9442
▁استروو	-9443
▁اقدامی	-9444
▁برگرفت	-9445
▁خاندان	-9446
▁رسوایی	-9447
▁ریچارد	-9448
▁شکارچی	-9449
▁غذاهای	-9450
▁مرتباً	-9451
▁میتونه	-9452
▁چشمشان	-9453
▁چمنزار	-9454
▁اسنوبال	-9455
▁انسانیت	-9456
▁بزرگوار	-9457
▁بفهماند	-9458
▁دگرگونی	-9459
▁رقصیدند	-9460
▁سحرآمیز	-9461
▁فرستادن	-9462
▁لرزیدند	-9463
▁هماهنگی	-9464
▁کیمیاگر	-9465
▁کاپرفیلد	-9466
▁گستاخانه	-9467
▁غیرمنتظره	-9468
اذ	-9469
لوس	-9470
▁غب	-9471
▁قض	-9472
▁کپ	-9473
اتیچ	-9474
ونده	-9475
یدگی	-9476
▁بلغ	-9477
▁دوس	-9478
▁زرق	-9479
▁سنی	-9480
▁شخم	-9481
▁ویر	-9482
اهایش	-9483
▁....	-9484
▁بگفت	-9485
▁بیتس	-9486
▁تکبر	-9487
▁حرفت	-9488
▁خمیر	-9489
▁رخنه	-9490
▁رویا	-9491
▁محقر	-9492
▁مدرک	-9493
▁نحیف	-9494
▁کوهی	-9495
▁گشتی	-9496
▁ادگار	-9497
▁استون	-9498
▁برملا	-9499
▁بمانی	-9500
▁بنابر	-9501
▁جزایر	-9502
▁حیثیت	-9503
▁دردست	-9504
▁درصدد	-9505
▁دیرتر	-9506
▁راترر	-9507
▁رگبار	-9508
▁مدفون	-9509
▁نجاتش	-9510
▁نخواب	-9511
▁همسری	-9512
▁کلامی	-9513
▁آرواره	-9514
▁آموزآن	-9515
▁اجباری	-9516
▁اشتهای	-9517
▁الیویا	-9518
▁حرکاتش	-9519
▁خمپاره	-9520
▁خوردیم	-9521
▁درگیری	-9522
▁سالیان	-9523
▁لبخندش	-9524
▁متمایل	-9525
▁محدوده	-9526
▁نواخته	-9527
▁واترلو	-9528
▁وادارش	-9529
▁کوشیده	-9530
▁آلپاتیچ	-9531
▁اتفاقات	-9532
▁انجامید	-9533
▁دردناکی	-9534
▁کسانیکه	-9535
▁اعلیحضرت	-9536
▁توانستید	-9537
▁همسایگان	-9538
▁استریکلند	-9539
▁فرماندهان	-9540
تف	-9541
خوت	-9542
عین	-9543
وتا	-9544
ناسب	-9545
ندری	-9546
▁آنس	-9547
▁الح	-9548
▁بلع	-9549
▁حوض	-9550
▁خزه	-9551
▁ذوب	-9552
▁ربی	-9553
▁ریل	-9554
▁شرا	-9555
▁عدا	-9556
▁عیا	-9557
▁غیب	-9558
▁هاش	-9559
انهای	-9560
وندرت	-9561
▁ابهت	-9562
▁ارتع	-9563
▁اورا	-9564
▁بارش	-9565
▁بخاط	-9566
▁بناپ	-9567
▁بویی	-9568
▁تسمه	-9569
▁توهم	-9570
▁جولی	-9571
▁حلبی	-9572
▁درام	-9573
▁دونه	-9574
▁ستوه	-9575
▁شیئی	-9576
▁عقلش	-9577
▁فطرت	-9578
▁ماتم	-9579
▁مرمر	-9580
▁مشای	-9581
▁معذب	-9582
▁ورشک	-9583
▁پودر	-9584
▁گزید	-9585
▁آذرخش	-9586
▁انتها	-9587
▁بتونه	-9588
▁ترسان	-9589
▁ثروتی	-9590
▁دودکش	-9591
▁شیپور	-9592
▁طرفین	-9593
▁لوژین	-9594
▁مافوق	-9595
▁مردند	-9596
▁مستور	-9597
▁نارنج	-9598
▁نالید	-9599
▁کاسته	-9600
▁کلاسی	-9601
▁باغبان	-9602
▁تمایلی	-9603
▁غیرمتر	-9604
▁لگولاس	-9605
▁مخاطره	-9606
▁مشاجره	-9607
▁هیندلی	-9608
▁پایشان	-9609
▁پسرهای	-9610
▁ژوندرت	-9611
▁ابروهای	-9612
▁بالاپوش	-9613
▁تحصیلات	-9614
▁نامیدند	-9615
▁راهنمائی	-9616
▁کوهستانی	-9617
▁امپراتوری	-9618
اقع	-9619
سلی	-9620
▁فس	-9621
▁قح	-9622
▁ابن	-9623
▁بوم	-9624
▁رمق	-9625
▁ضبط	-9626
▁عصی	-9627
▁موت	-9628
باران	-9629
▁آیین	-9630
▁ارزی	-9631
▁اسکی	-9632
▁بادب	-9633
▁باند	-9634
▁تضرع	-9635
▁جهیز	-9636
▁جوئی	-9637
▁خائن	-9638
▁رازک	-9639
▁زایل	-9640
▁سلیم	-9641
▁شدنش	-9642
▁شیمی	-9643
▁عریض	-9644
▁مستأ	-9645
▁مقدم	-9646
▁مهلت	-9647
▁مویش	-9648
▁نوان	-9649
▁هشتی	-9650
ینگتون	-9651
▁آمدیم	-9652
▁آمیزش	-9653
▁بالید	-9654
▁بدرود	-9655
▁بودنش	-9656
▁دونست	-9657
▁زباله	-9658
▁سراید	-9659
▁شقیقه	-9660
▁شمارو	-9661
▁فاریا	-9662
▁قضایا	-9663
▁لرزشی	-9664
▁متخصص	-9665
▁نبودن	-9666
▁ندهید	-9667
▁هارلی	-9668
▁همکار	-9669
▁گستاخ	-9670
▁آرمیده	-9671
▁بتوانی	-9672
▁تونستی	-9673
▁جمعیتی	-9674
▁حقیقتی	-9675
▁دنبالم	-9676
▁طپانچه	-9677
▁ویکتور	-9678
▁دلواپسی	-9679
▁سرپرستی	-9680
▁معاملات	-9681
▁بازمانده	-9682
▁خدمتکاری	-9683
▁محتاطانه	-9684
▁معصومانه	-9685
▁نوانخانه	-9686
▁هواپیمای	-9687
▁تمسخرآمیز	-9688
رخ	-9689
انس	-9690
ایک	-9691
غیر	-9692
گور	-9693
ضباط	-9694
ودیت	-9695
کنند	-9696
▁اور	-9697
▁سات	-9698
▁شاق	-9699
▁صدف	-9700
▁فتی	-9701
▁فلو	-9702
▁پلو	-9703
اتریس	-9704
اجتور	-9705
▁اسمت	-9706
▁تابی	-9707
▁تجار	-9708
▁ترسد	-9709
▁تعلی	-9710
▁جدال	-9711
▁حرام	-9712
▁حرمت	-9713
▁حشره	-9714
▁خطای	-9715
▁سلطه	-9716
▁شربت	-9717
▁عشقش	-9718
▁لاور	-9719
▁مطبخ	-9720
▁مغزم	-9721
▁موشک	-9722
▁موعد	-9723
▁نیوم	-9724
▁وانت	-9725
▁چیزا	-9726
▁کراس	-9727
▁کوهن	-9728
▁گردو	-9729
▁بزمین	-9730
▁تلفنی	-9731
▁دراین	-9732
▁دروغی	-9733
▁دفترش	-9734
▁روپوش	-9735
▁شورشی	-9736
▁عمداً	-9737
▁عواقب	-9738
▁فرانس	-9739
▁متمول	-9740
▁محراب	-9741
▁مضمون	-9742
▁معدنی	-9743
▁منوال	-9744
▁نکردن	-9745
▁هردوی	-9746
▁کمرنگ	-9747
▁استدعا	-9748
▁بادباد	-9749
▁بازپرس	-9750
▁دسامبر	-9751
▁دلاوری	-9752
▁دمیتری	-9753
▁شمشیری	-9754
▁متلاشی	-9755
▁نشستیم	-9756
▁نیمکتی	-9757
▁پاهایم	-9758
▁کانزاس	-9759
▁افتخاری	-9760
▁بناپارت	-9761
▁مذاکرات	-9762
▁هیولاها	-9763
▁کواجتور	-9764
▁سپاسگزار	-9765
▁گوسفندان	-9766
▁پیروزمندانه	-9767
دت	-9768
نن	-9769
جره	-9770
ظار	-9771
ماز	-9772
ماتش	-9773
ودند	-9774
ونیا	-9775
وونا	-9776
▁بدع	-9777
▁لجو	-9778
▁مدد	-9779
▁نظی	-9780
▁گوت	-9781
گاران	-9782
▁اونج	-9783
▁بافی	-9784
▁بکوش	-9785
▁جدیت	-9786
▁جمال	-9787
▁حدقه	-9788
▁حریص	-9789
▁حریق	-9790
▁دستخ	-9791
▁سرمی	-9792
▁عمدا	-9793
▁قایل	-9794
▁موظف	-9795
▁نرسد	-9796
▁پلات	-9797
▁کوسه	-9798
خواسته	-9799
▁اعضاء	-9800
▁بارکش	-9801
▁بهاری	-9802
▁بکهام	-9803
▁خاطری	-9804
▁درخور	-9805
▁سریوژ	-9806
▁سواحل	-9807
▁طفلکی	-9808
▁قایقی	-9809
▁مزدور	-9810
▁میداد	-9811
▁ناخود	-9812
▁نوزده	-9813
▁بدجنسی	-9814
▁بیائید	-9815
▁ترساند	-9816
▁دِرویش	-9817
▁صبرانه	-9818
▁ناپسند	-9819
▁ناکامی	-9820
▁هایبری	-9821
▁گذاریم	-9822
▁بئاتریس	-9823
▁برآشفته	-9824
▁درآوردن	-9825
▁کدامشان	-9826
▁ابروهایش	-9827
▁امپراتور	-9828
▁پروردگار	-9829
▁کارمندان	-9830
▁دانشجویان	-9831
قب	-9832
پت	-9833
سیه	-9834
چنا	-9835
چوب	-9836
ینک	-9837
ادثی	-9838
ریحی	-9839
سپیر	-9840
نگاه	-9841
گرمی	-9842
▁لوت	-9843
▁مسح	-9844
▁ژنی	-9845
▁آهان	-9846
▁تاسف	-9847
▁توبه	-9848
▁حباب	-9849
▁خوبم	-9850
▁زبون	-9851
▁سازش	-9852
▁سالش	-9853
▁ماما	-9854
▁مغرب	-9855
▁نزند	-9856
▁نمره	-9857
▁همهء	-9858
▁پیشش	-9859
▁کردو	-9860
▁کیفش	-9861
▁یکجا	-9862
کورانه	-9863
▁بکشیم	-9864
▁تلاقی	-9865
▁حشرات	-9866
▁دورگه	-9867
▁لطافت	-9868
▁لوکاس	-9869
▁مرسده	-9870
▁میتکا	-9871
▁گاوها	-9872
▁احساسش	-9873
▁اندازی	-9874
▁اندیشد	-9875
▁بافتنی	-9876
▁برترام	-9877
▁تارهای	-9878
▁حوادثی	-9879
▁رومیزی	-9880
▁سابقاً	-9881
▁سرسختی	-9882
▁سرنگون	-9883
▁سروکله	-9884
▁سکندری	-9885
▁محموله	-9886
▁مدیریت	-9887
▁مشایعت	-9888
▁هوشیار	-9889
▁یواشکی	-9890
▁قبرستان	-9891
▁پاورچین	-9892
▁پسندیده	-9893
▁پیشنهادی	-9894
▁آئورلیانوی	-9895
▁خویشاوندان	-9896
پن	-9897
اهت	-9898
دند	-9899
▁پش	-9900
بیلی	-9901
بینی	-9902
دارد	-9903
▁ارق	-9904
▁تاق	-9905
▁ذرت	-9906
▁زلف	-9907
▁لجا	-9908
▁مصل	-9909
▁موم	-9910
▁نعش	-9911
▁نمو	-9912
▁پیه	-9913
▁ژاپ	-9914
انتری	-9915
ستاگو	-9916
طبیعی	-9917
▁بیسک	-9918
▁تراس	-9919
▁تمای	-9920
▁حسود	-9921
▁خجلت	-9922
▁خدمه	-9923
▁خروش	-9924
▁دریک	-9925
▁رقاص	-9926
▁رییس	-9927
▁محصو	-9928
▁مغزی	-9929
▁چرند	-9930
راسیون	-9931
▁اوباش	-9932
▁بیفته	-9933
▁تدبیر	-9934
▁جایگز	-9935
▁دعوتش	-9936
▁روزنه	-9937
▁شهرها	-9938
▁طبعاً	-9939
▁فوریه	-9940
▁مارفا	-9941
▁مبارک	-9942
▁مرتعش	-9943
▁نابغه	-9944
▁نازکی	-9945
▁نسیمی	-9946
▁نظرات	-9947
▁	-9948
ا	-9949
ی	-9950
د	-9951
ر	-9952
ن	-9953
ه	-9954
و	-9955
م	-9956
ب	-9957
ت	-9958
ک	-9959
ش	-9960
س	-9961
ل	-9962
ز	-9963
خ	-9964
گ	-9965
.	-9966
ف	-9967
ق	-9968
آ	-9969
ج	-9970
،	-9971
ع	-9972
پ	-9973
ح	-9974
چ	-9975
ط	-9976
ص	-9977
:	-9978
غ	-9979
ظ	-9980
ذ	-9981
ض	-9982
؟	-9983
ـ	-9984
!	-9985
ث	-9986
ئ	-9987
‬	-9988
ً	-9989
؛	-9990
ژ	-9991
ٔ	-9992
أ	-9993
ِ	-9994
ة	-9995
ء	-9996
